{
  "version": "1.0",
  "truncation": null,
  "padding": null,
  "added_tokens": [
    {
      "id": 0,
      "content": "[PAD]",
      "single_word": false,
      "lstrip": false,
      "rstrip": false,
      "normalized": false,
      "special": true
    },
    {
      "id": 1,
      "content": "[MASK]",
      "single_word": false,
      "lstrip": false,
      "rstrip": false,
      "normalized": false,
      "special": true
    },
    {
      "id": 2,
      "content": "[UNK]",
      "single_word": false,
      "lstrip": false,
      "rstrip": false,
      "normalized": false,
      "special": true
    }
  ],
  "normalizer": null,
  "pre_tokenizer": {
    "type": "Whitespace"
  },
  "post_processor": null,
  "decoder": null,
  "model": {
    "type": "BPE",
    "dropout": null,
    "unk_token": null,
    "continuing_subword_prefix": null,
    "end_of_word_suffix": null,
    "fuse_unk": false,
    "byte_fallback": false,
    "vocab": {
      "[PAD]": 0,
      "[MASK]": 1,
      "[UNK]": 2,
      "!": 3,
      "\"": 4,
      "#": 5,
      "$": 6,
      "%": 7,
      "&": 8,
      "'": 9,
      "(": 10,
      ")": 11,
      "*": 12,
      "+": 13,
      ",": 14,
      "-": 15,
      ".": 16,
      "/": 17,
      "0": 18,
      "1": 19,
      "2": 20,
      "3": 21,
      "4": 22,
      "5": 23,
      "6": 24,
      "7": 25,
      "8": 26,
      "9": 27,
      ":": 28,
      ";": 29,
      "<": 30,
      "=": 31,
      ">": 32,
      "?": 33,
      "@": 34,
      "A": 35,
      "B": 36,
      "C": 37,
      "D": 38,
      "E": 39,
      "F": 40,
      "G": 41,
      "H": 42,
      "I": 43,
      "J": 44,
      "K": 45,
      "L": 46,
      "M": 47,
      "N": 48,
      "O": 49,
      "P": 50,
      "Q": 51,
      "R": 52,
      "S": 53,
      "T": 54,
      "U": 55,
      "V": 56,
      "W": 57,
      "X": 58,
      "Y": 59,
      "Z": 60,
      "[": 61,
      "\\": 62,
      "]": 63,
      "^": 64,
      "`": 65,
      "a": 66,
      "b": 67,
      "c": 68,
      "d": 69,
      "e": 70,
      "f": 71,
      "g": 72,
      "h": 73,
      "i": 74,
      "j": 75,
      "k": 76,
      "l": 77,
      "m": 78,
      "n": 79,
      "o": 80,
      "p": 81,
      "q": 82,
      "r": 83,
      "s": 84,
      "t": 85,
      "u": 86,
      "v": 87,
      "w": 88,
      "x": 89,
      "y": 90,
      "z": 91,
      "|": 92,
      "~": 93,
      "¡": 94,
      "£": 95,
      "¥": 96,
      "§": 97,
      "°": 98,
      "±": 99,
      "²": 100,
      "³": 101,
      "µ": 102,
      "·": 103,
      "½": 104,
      "Á": 105,
      "Å": 106,
      "Æ": 107,
      "É": 108,
      "Í": 109,
      "Î": 110,
      "Ö": 111,
      "×": 112,
      "Ø": 113,
      "Ú": 114,
      "Ü": 115,
      "Þ": 116,
      "à": 117,
      "á": 118,
      "â": 119,
      "ã": 120,
      "ä": 121,
      "å": 122,
      "ç": 123,
      "è": 124,
      "é": 125,
      "ê": 126,
      "ë": 127,
      "ì": 128,
      "í": 129,
      "î": 130,
      "ñ": 131,
      "ò": 132,
      "ó": 133,
      "ô": 134,
      "ö": 135,
      "ø": 136,
      "ú": 137,
      "û": 138,
      "ü": 139,
      "Ā": 140,
      "ā": 141,
      "ă": 142,
      "ć": 143,
      "č": 144,
      "Đ": 145,
      "đ": 146,
      "ė": 147,
      "ī": 148,
      "Ł": 149,
      "ł": 150,
      "ń": 151,
      "Ō": 152,
      "ō": 153,
      "ś": 154,
      "ş": 155,
      "š": 156,
      "ū": 157,
      "ų": 158,
      "Ż": 159,
      "ž": 160,
      "ơ": 161,
      "ư": 162,
      "ʻ": 163,
      "ʿ": 164,
      "̃": 165,
      "α": 166,
      "β": 167,
      "γ": 168,
      "κ": 169,
      "μ": 170,
      "С": 171,
      "а": 172,
      "в": 173,
      "е": 174,
      "к": 175,
      "о": 176,
      "с": 177,
      "т": 178,
      "я": 179,
      "ا": 180,
      "ح": 181,
      "ص": 182,
      "ل": 183,
      "ن": 184,
      "ه": 185,
      "्": 186,
      "ก": 187,
      "ง": 188,
      "ณ": 189,
      "ต": 190,
      "ม": 191,
      "ย": 192,
      "ร": 193,
      "ล": 194,
      "ั": 195,
      "า": 196,
      "ิ": 197,
      "่": 198,
      "์": 199,
      "გ": 200,
      "დ": 201,
      "ვ": 202,
      "ზ": 203,
      "ი": 204,
      "კ": 205,
      "ო": 206,
      "რ": 207,
      "ს": 208,
      "უ": 209,
      "ც": 210,
      "ძ": 211,
      "წ": 212,
      "ხ": 213,
      "ჯ": 214,
      "჻": 215,
      "ḥ": 216,
      "ṃ": 217,
      "ṅ": 218,
      "ṣ": 219,
      "ṭ": 220,
      "ṯ": 221,
      "ả": 222,
      "ấ": 223,
      "ầ": 224,
      "ắ": 225,
      "ễ": 226,
      "ệ": 227,
      "ị": 228,
      "ớ": 229,
      "ử": 230,
      "ỳ": 231,
      "‑": 232,
      "–": 233,
      "—": 234,
      "‘": 235,
      "’": 236,
      "“": 237,
      "”": 238,
      "„": 239,
      "†": 240,
      "…": 241,
      "′": 242,
      "″": 243,
      "⁄": 244,
      "₤": 245,
      "€": 246,
      "₹": 247,
      "⅓": 248,
      "⅔": 249,
      "→": 250,
      "−": 251,
      "≤": 252,
      "☉": 253,
      "♭": 254,
      "♯": 255,
      "〈": 256,
      "〉": 257,
      "の": 258,
      "ァ": 259,
      "ア": 260,
      "キ": 261,
      "ス": 262,
      "ッ": 263,
      "ト": 264,
      "プ": 265,
      "ュ": 266,
      "リ": 267,
      "ル": 268,
      "ヴ": 269,
      "・": 270,
      "動": 271,
      "場": 272,
      "大": 273,
      "戦": 274,
      "攻": 275,
      "機": 276,
      "殻": 277,
      "火": 278,
      "礮": 279,
      "空": 280,
      "隊": 281,
      "﻿": 282,
      "～": 283,
      "th": 284,
      "in": 285,
      "the": 286,
      "an": 287,
      "er": 288,
      "on": 289,
      "ed": 290,
      "re": 291,
      "un": 292,
      "at": 293,
      "or": 294,
      "en": 295,
      "st": 296,
      "al": 297,
      "ar": 298,
      "of": 299,
      "and": 300,
      "as": 301,
      "unk": 302,
      "is": 303,
      "es": 304,
      "to": 305,
      "ing": 306,
      "it": 307,
      "ic": 308,
      "ro": 309,
      "ion": 310,
      "he": 311,
      "le": 312,
      "ou": 313,
      "ac": 314,
      "ent": 315,
      "il": 316,
      "se": 317,
      "ad": 318,
      "am": 319,
      "om": 320,
      "be": 321,
      "ly": 322,
      "was": 323,
      "for": 324,
      "ch": 325,
      "ur": 326,
      "ve": 327,
      "de": 328,
      "The": 329,
      "ir": 330,
      "ol": 331,
      "-@": 332,
      "@-@": 333,
      "im": 334,
      "wh": 335,
      "ver": 336,
      "ow": 337,
      "ig": 338,
      "wi": 339,
      "ter": 340,
      "ce": 341,
      "ay": 342,
      "that": 343,
      "with": 344,
      "con": 345,
      "ation": 346,
      "ct": 347,
      "ag": 348,
      "by": 349,
      "te": 350,
      "id": 351,
      "us": 352,
      "ot": 353,
      "ri": 354,
      "ul": 355,
      "el": 356,
      "19": 357,
      "ap": 358,
      "res": 359,
      "ere": 360,
      "ain": 361,
      "rom": 362,
      "com": 363,
      "et": 364,
      "op": 365,
      "pl": 366,
      "his": 367,
      "ut": 368,
      "00": 369,
      "mo": 370,
      "su": 371,
      "all": 372,
      "ab": 373,
      "are": 374,
      "ers": 375,
      "um": 376,
      "li": 377,
      "ther": 378,
      "from": 379,
      "pro": 380,
      "pe": 381,
      "di": 382,
      "In": 383,
      "ne": 384,
      "sh": 385,
      "und": 386,
      "cl": 387,
      "ate": 388,
      "po": 389,
      "tr": 390,
      "art": 391,
      "were": 392,
      "em": 393,
      "so": 394,
      "ong": 395,
      "igh": 396,
      "ex": 397,
      "est": 398,
      "ies": 399,
      "ld": 400,
      "ist": 401,
      "ich": 402,
      "ill": 403,
      "ak": 404,
      "ast": 405,
      "ish": 406,
      "ard": 407,
      "gh": 408,
      "ame": 409,
      "ber": 410,
      "lo": 411,
      "ort": 412,
      "co": 413,
      "od": 414,
      "ated": 415,
      "ity": 416,
      "ant": 417,
      "per": 418,
      "fe": 419,
      "ive": 420,
      "ment": 421,
      "man": 422,
      "out": 423,
      "had": 424,
      "qu": 425,
      "ess": 426,
      "ear": 427,
      "ack": 428,
      "one": 429,
      "vi": 430,
      "tw": 431,
      "end": 432,
      "which": 433,
      "ord": 434,
      "our": 435,
      "ha": 436,
      "not": 437,
      "up": 438,
      "af": 439,
      "but": 440,
      "ge": 441,
      "rit": 442,
      "str": 443,
      "fo": 444,
      "ally": 445,
      "ine": 446,
      "its": 447,
      "si": 448,
      "act": 449,
      "ci": 450,
      "ight": 451,
      "fir": 452,
      "her": 453,
      "Ch": 454,
      "ary": 455,
      "200": 456,
      "ud": 457,
      "own": 458,
      "du": 459,
      "ved": 460,
      "bo": 461,
      "20": 462,
      "pr": 463,
      "av": 464,
      "over": 465,
      "port": 466,
      "their": 467,
      "ass": 468,
      "land": 469,
      "ip": 470,
      "ew": 471,
      "ian": 472,
      "St": 473,
      "first": 474,
      "ous": 475,
      "ach": 476,
      "ould": 477,
      "ep": 478,
      "ical": 479,
      "wor": 480,
      "fic": 481,
      "other": 482,
      "age": 483,
      "also": 484,
      "low": 485,
      "unt": 486,
      "ition": 487,
      "ser": 488,
      "tim": 489,
      "has": 490,
      "form": 491,
      "ction": 492,
      "ater": 493,
      "ub": 494,
      "ign": 495,
      "au": 496,
      "pt": 497,
      "aw": 498,
      "comp": 499,
      "ll": 500,
      "ure": 501,
      "ev": 502,
      "have": 503,
      "play": 504,
      "att": 505,
      "int": 506,
      "who": 507,
      "18": 508,
      "ia": 509,
      "ke": 510,
      "He": 511,
      "iv": 512,
      "cre": 513,
      "pos": 514,
      "been": 515,
      "ome": 516,
      "gr": 517,
      "two": 518,
      "part": 519,
      "no": 520,
      "sp": 521,
      ".@": 522,
      "@.@": 523,
      "ence": 524,
      "cont": 525,
      "uring": 526,
      "gu": 527,
      "ough": 528,
      "ree": 529,
      "cent": 530,
      "ran": 531,
      "pres": 532,
      "ok": 533,
      "this": 534,
      "des": 535,
      "ory": 536,
      "It": 537,
      "ile": 538,
      "oc": 539,
      "me": 540,
      "they": 541,
      "year": 542,
      "ade": 543,
      "201": 544,
      "fin": 545,
      "after": 546,
      "dis": 547,
      "comm": 548,
      "ult": 549,
      "ite": 550,
      "cord": 551,
      "pre": 552,
      "ans": 553,
      "vel": 554,
      "fer": 555,
      "rou": 556,
      "Th": 557,
      "fi": 558,
      "we": 559,
      "incl": 560,
      "ren": 561,
      ",@": 562,
      "@,@": 563,
      "An": 564,
      "ue": 565,
      "ell": 566,
      "ever": 567,
      "work": 568,
      "os": 569,
      "urn": 570,
      "ations": 571,
      "ace": 572,
      "time": 573,
      "ra": 574,
      "mer": 575,
      "ric": 576,
      "ark": 577,
      "into": 578,
      "sc": 579,
      "more": 580,
      "rough": 581,
      "able": 582,
      "ial": 583,
      "Un": 584,
      "ced": 585,
      "spe": 586,
      "most": 587,
      "sion": 588,
      "ship": 589,
      "any": 590,
      "ance": 591,
      "tem": 592,
      "old": 593,
      "she": 594,
      "would": 595,
      "him": 596,
      "ason": 597,
      "ces": 598,
      "cond": 599,
      "main": 600,
      "gro": 601,
      "used": 602,
      "amp": 603,
      "red": 604,
      "inter": 605,
      "ited": 606,
      "cted": 607,
      "ice": 608,
      "ased": 609,
      "bec": 610,
      "Al": 611,
      "includ": 612,
      "fore": 613,
      "br": 614,
      "though": 615,
      "ck": 616,
      "ern": 617,
      "fl": 618,
      "ath": 619,
      "ings": 620,
      "min": 621,
      "new": 622,
      "gan": 623,
      "ten": 624,
      "ild": 625,
      "way": 626,
      "mon": 627,
      "only": 628,
      "song": 629,
      "ubl": 630,
      "when": 631,
      "cess": 632,
      "ake": 633,
      "iz": 634,
      "ie": 635,
      "Au": 636,
      "under": 637,
      "air": 638,
      "vis": 639,
      "Ro": 640,
      "ates": 641,
      "ase": 642,
      "ents": 643,
      "them": 644,
      "als": 645,
      "bu": 646,
      "during": 647,
      "ts": 648,
      "ail": 649,
      "ph": 650,
      "ions": 651,
      "arch": 652,
      "reg": 653,
      "game": 654,
      "go": 655,
      "ted": 656,
      "ilm": 657,
      "ind": 658,
      "ang": 659,
      "een": 660,
      "col": 661,
      "ward": 662,
      "les": 663,
      "og": 664,
      "En": 665,
      "Ar": 666,
      "ollow": 667,
      "can": 668,
      "199": 669,
      "about": 670,
      "ret": 671,
      "nor": 672,
      "son": 673,
      "day": 674,
      "outh": 675,
      "season": 676,
      "some": 677,
      "ry": 678,
      "than": 679,
      "kn": 680,
      "writ": 681,
      "ble": 682,
      "while": 683,
      "again": 684,
      "lar": 685,
      "gen": 686,
      "sy": 687,
      "three": 688,
      "sing": 689,
      "ob": 690,
      "if": 691,
      "ors": 692,
      "On": 693,
      "stru": 694,
      "ef": 695,
      "char": 696,
      "betw": 697,
      "between": 698,
      "record": 699,
      "Jo": 700,
      "num": 701,
      "where": 702,
      "produ": 703,
      "ational": 704,
      "through": 705,
      "Re": 706,
      "ular": 707,
      "cr": 708,
      "Wh": 709,
      "dr": 710,
      "ens": 711,
      "ick": 712,
      "later": 713,
      "led": 714,
      "rele": 715,
      "Com": 716,
      "iver": 717,
      "film": 718,
      "view": 719,
      "Af": 720,
      "ann": 721,
      "ames": 722,
      "ty": 723,
      "ered": 724,
      "ful": 725,
      "made": 726,
      "ished": 727,
      "ust": 728,
      "mi": 729,
      "set": 730,
      "sa": 731,
      "then": 732,
      "cons": 733,
      "ele": 734,
      "rel": 735,
      "New": 736,
      "do": 737,
      "As": 738,
      "ron": 739,
      "Amer": 740,
      "Americ": 741,
      "ury": 742,
      "10": 743,
      "call": 744,
      "bum": 745,
      "ire": 746,
      "row": 747,
      "off": 748,
      "my": 749,
      "follow": 750,
      "ict": 751,
      "appe": 752,
      "ss": 753,
      "000": 754,
      "high": 755,
      "such": 756,
      "second": 757,
      "ating": 758,
      "sel": 759,
      "med": 760,
      "sub": 761,
      "four": 762,
      "ose": 763,
      "publ": 764,
      "ton": 765,
      "Le": 766,
      "cap": 767,
      "This": 768,
      "ving": 769,
      "cri": 770,
      "well": 771,
      "ters": 772,
      "..": 773,
      "album": 774,
      "before": 775,
      "ari": 776,
      "At": 777,
      "ma": 778,
      "cur": 779,
      "mus": 780,
      "ily": 781,
      "rop": 782,
      "being": 783,
      "back": 784,
      "sur": 785,
      "je": 786,
      "urch": 787,
      "ual": 788,
      "years": 789,
      "16": 790,
      "sup": 791,
      "loc": 792,
      "ven": 793,
      "there": 794,
      "Eng": 795,
      "owever": 796,
      "No": 797,
      "appear": 798,
      "hel": 799,
      "arri": 800,
      "many": 801,
      "ics": 802,
      "use": 803,
      "found": 804,
      "ins": 805,
      "ning": 806,
      "long": 807,
      "number": 808,
      "Co": 809,
      "series": 810,
      "De": 811,
      "12": 812,
      "add": 813,
      "like": 814,
      "side": 815,
      "ative": 816,
      "ause": 817,
      "velop": 818,
      "mber": 819,
      "point": 820,
      "ince": 821,
      "reat": 822,
      "ird": 823,
      "17": 824,
      "Nor": 825,
      "Mo": 826,
      "both": 827,
      "ane": 828,
      "sever": 829,
      "par": 830,
      "ities": 831,
      "der": 832,
      "15": 833,
      "cho": 834,
      "ft": 835,
      "including": 836,
      "cept": 837,
      "epis": 838,
      "ave": 839,
      "Brit": 840,
      "ho": 841,
      "dire": 842,
      "ale": 843,
      "against": 844,
      "known": 845,
      "igin": 846,
      "became": 847,
      "line": 848,
      "pop": 849,
      "uary": 850,
      "hn": 851,
      "ound": 852,
      "charac": 853,
      "oy": 854,
      "feat": 855,
      "II": 856,
      "ese": 857,
      "198": 858,
      "dif": 859,
      "down": 860,
      "cover": 861,
      "eld": 862,
      "ments": 863,
      "descri": 864,
      "ident": 865,
      "United": 866,
      "ek": 867,
      "tain": 868,
      "eng": 869,
      "atch": 870,
      "ond": 871,
      "team": 872,
      "John": 873,
      "30": 874,
      "suc": 875,
      "develop": 876,
      "trans": 877,
      "olog": 878,
      "century": 879,
      "ise": 880,
      "After": 881,
      "peri": 882,
      "ode": 883,
      "show": 884,
      "origin": 885,
      "lead": 886,
      "Br": 887,
      "cer": 888,
      "ped": 889,
      "contin": 890,
      "cial": 891,
      "ures": 892,
      "star": 893,
      "offic": 894,
      "hist": 895,
      "called": 896,
      "ide": 897,
      "ung": 898,
      "stor": 899,
      "194": 900,
      "bed": 901,
      "mem": 902,
      "lack": 903,
      "mill": 904,
      "cle": 905,
      "west": 906,
      "several": 907,
      "oper": 908,
      "uch": 909,
      "comple": 910,
      "lan": 911,
      "sign": 912,
      "began": 913,
      "196": 914,
      "ball": 915,
      "may": 916,
      "Be": 917,
      "197": 918,
      "Con": 919,
      "ves": 920,
      "road": 921,
      "dec": 922,
      "ised": 923,
      "pol": 924,
      "remain": 925,
      "ually": 926,
      "sm": 927,
      "near": 928,
      "early": 929,
      "head": 930,
      "present": 931,
      "could": 932,
      "crit": 933,
      "She": 934,
      "did": 935,
      "ific": 936,
      "run": 937,
      "episode": 938,
      "eral": 939,
      "war": 940,
      "la": 941,
      "ple": 942,
      "ended": 943,
      "ject": 944,
      "une": 945,
      "ste": 946,
      "dam": 947,
      "rece": 948,
      "ople": 949,
      "self": 950,
      "along": 951,
      "large": 952,
      "nam": 953,
      "spec": 954,
      "Wor": 955,
      "try": 956,
      "ress": 957,
      "ore": 958,
      "said": 959,
      "American": 960,
      "success": 961,
      "vid": 962,
      "these": 963,
      "For": 964,
      "ith": 965,
      "gust": 966,
      "aking": 967,
      "May": 968,
      "mil": 969,
      "position": 970,
      "open": 971,
      "Mar": 972,
      "ms": 973,
      "por": 974,
      "pass": 975,
      "dep": 976,
      "stem": 977,
      "British": 978,
      "met": 979,
      "ley": 980,
      "erson": 981,
      "Sh": 982,
      "until": 983,
      "War": 984,
      "fam": 985,
      "leg": 986,
      "now": 987,
      "released": 988,
      "start": 989,
      "city": 990,
      "ines": 991,
      "ood": 992,
      "Ger": 993,
      "music": 994,
      "same": 995,
      "tow": 996,
      "val": 997,
      "Se": 998,
      "thern": 999,
      "ived": 1000,
      "return": 1001,
      "Car": 1002,
      "They": 1003,
      "50": 1004,
      "gg": 1005,
      "km": 1006,
      "cy": 1007,
      "area": 1008,
      "design": 1009,
      "ru": 1010,
      "jor": 1011,
      "million": 1012,
      "tri": 1013,
      "orn": 1014,
      "state": 1015,
      "because": 1016,
      "mis": 1017,
      "ca": 1018,
      "ather": 1019,
      "formed": 1020,
      "xt": 1021,
      "each": 1022,
      "sim": 1023,
      "plac": 1024,
      "August": 1025,
      "14": 1026,
      "ink": 1027,
      "overn": 1028,
      "rist": 1029,
      "come": 1030,
      "vol": 1031,
      "hy": 1032,
      "fect": 1033,
      "read": 1034,
      "vide": 1035,
      "life": 1036,
      "people": 1037,
      "13": 1038,
      "east": 1039,
      "ower": 1040,
      "grap": 1041,
      "Sep": 1042,
      "ross": 1043,
      "chool": 1044,
      "Ju": 1045,
      "national": 1046,
      "serv": 1047,
      "car": 1048,
      "support": 1049,
      "six": 1050,
      "coun": 1051,
      "io": 1052,
      "around": 1053,
      "let": 1054,
      "stral": 1055,
      "However": 1056,
      "itt": 1057,
      "ib": 1058,
      "group": 1059,
      "Is": 1060,
      "ision": 1061,
      "rote": 1062,
      "field": 1063,
      "north": 1064,
      "ized": 1065,
      "Bo": 1066,
      "attack": 1067,
      "list": 1068,
      "ouse": 1069,
      "tember": 1070,
      "September": 1071,
      "consid": 1072,
      "Fe": 1073,
      "small": 1074,
      "dist": 1075,
      "book": 1076,
      "following": 1077,
      "men": 1078,
      "character": 1079,
      "continu": 1080,
      "light": 1081,
      "will": 1082,
      "less": 1083,
      "mark": 1084,
      "World": 1085,
      "ured": 1086,
      "enn": 1087,
      "prote": 1088,
      "contro": 1089,
      "Eu": 1090,
      "ash": 1091,
      "Austral": 1092,
      "top": 1093,
      "very": 1094,
      "five": 1095,
      "sou": 1096,
      "late": 1097,
      "win": 1098,
      "result": 1099,
      "ground": 1100,
      "vent": 1101,
      "ales": 1102,
      "lish": 1103,
      "dom": 1104,
      "requ": 1105,
      "get": 1106,
      "what": 1107,
      "sol": 1108,
      "cording": 1109,
      "tit": 1110,
      "stand": 1111,
      "ank": 1112,
      "ague": 1113,
      "rest": 1114,
      "track": 1115,
      "ivers": 1116,
      "Col": 1117,
      "report": 1118,
      "US": 1119,
      "aim": 1120,
      "ural": 1121,
      "bers": 1122,
      "az": 1123,
      "ody": 1124,
      "vision": 1125,
      "June": 1126,
      "reach": 1127,
      "North": 1128,
      "played": 1129,
      "aged": 1130,
      "ired": 1131,
      "final": 1132,
      "ied": 1133,
      "ctor": 1134,
      "build": 1135,
      "week": 1136,
      "last": 1137,
      "pon": 1138,
      "Her": 1139,
      "name": 1140,
      "vari": 1141,
      "atter": 1142,
      "count": 1143,
      "ious": 1144,
      "Fran": 1145,
      "overnment": 1146,
      "allow": 1147,
      "che": 1148,
      "prom": 1149,
      "system": 1150,
      "11": 1151,
      "gun": 1152,
      "since": 1153,
      "States": 1154,
      "Oc": 1155,
      "species": 1156,
      "care": 1157,
      "public": 1158,
      "tal": 1159,
      "south": 1160,
      "received": 1161,
      "oman": 1162,
      "def": 1163,
      "ists": 1164,
      "major": 1165,
      "0s": 1166,
      "ask": 1167,
      "took": 1168,
      "Wil": 1169,
      "cour": 1170,
      "gy": 1171,
      "Jan": 1172,
      "ately": 1173,
      "soci": 1174,
      "even": 1175,
      "cut": 1176,
      "ock": 1177,
      "ined": 1178,
      "child": 1179,
      "partic": 1180,
      "South": 1181,
      "won": 1182,
      "25": 1183,
      "ages": 1184,
      "batt": 1185,
      "ained": 1186,
      "Christ": 1187,
      "King": 1188,
      "appro": 1189,
      "fied": 1190,
      "wards": 1191,
      "described": 1192,
      "cast": 1193,
      "tober": 1194,
      "October": 1195,
      "world": 1196,
      "place": 1197,
      "ime": 1198,
      "Man": 1199,
      "just": 1200,
      "moved": 1201,
      "Gu": 1202,
      "mb": 1203,
      "ony": 1204,
      "giv": 1205,
      "Pl": 1206,
      "incre": 1207,
      "ilt": 1208,
      "ham": 1209,
      "ropical": 1210,
      "Ac": 1211,
      "ork": 1212,
      "constru": 1213,
      "Me": 1214,
      "gre": 1215,
      "ris": 1216,
      "organ": 1217,
      "liam": 1218,
      "vious": 1219,
      "wrote": 1220,
      "ional": 1221,
      "ains": 1222,
      "July": 1223,
      "York": 1224,
      "band": 1225,
      "kill": 1226,
      "ina": 1227,
      "named": 1228,
      "town": 1229,
      "ude": 1230,
      "gin": 1231,
      "sequ": 1232,
      "bre": 1233,
      "ards": 1234,
      "differ": 1235,
      "Gr": 1236,
      "During": 1237,
      "much": 1238,
      "pri": 1239,
      "camp": 1240,
      "water": 1241,
      "due": 1242,
      "Can": 1243,
      "lie": 1244,
      "Apr": 1245,
      "ute": 1246,
      "posed": 1247,
      "single": 1248,
      "April": 1249,
      "Mon": 1250,
      "aft": 1251,
      "...": 1252,
      "death": 1253,
      "power": 1254,
      "Euro": 1255,
      "another": 1256,
      "version": 1257,
      "included": 1258,
      "hand": 1259,
      "ys": 1260,
      "ility": 1261,
      "195": 1262,
      "order": 1263,
      "tempt": 1264,
      "ature": 1265,
      "German": 1266,
      "ston": 1267,
      "January": 1268,
      "short": 1269,
      "West": 1270,
      "ets": 1271,
      "Par": 1272,
      "within": 1273,
      "estab": 1274,
      "event": 1275,
      "England": 1276,
      "stud": 1277,
      "gener": 1278,
      "ants": 1279,
      "ships": 1280,
      "udi": 1281,
      "ored": 1282,
      "left": 1283,
      "built": 1284,
      "Ma": 1285,
      "based": 1286,
      "fur": 1287,
      "although": 1288,
      "sed": 1289,
      "attempt": 1290,
      "ling": 1291,
      "person": 1292,
      "round": 1293,
      "family": 1294,
      "right": 1295,
      "ery": 1296,
      "hal": 1297,
      "third": 1298,
      "claim": 1299,
      "ement": 1300,
      "games": 1301,
      "home": 1302,
      "Cl": 1303,
      "March": 1304,
      "ital": 1305,
      "All": 1306,
      "sent": 1307,
      "akes": 1308,
      "pect": 1309,
      "pen": 1310,
      "previous": 1311,
      "fall": 1312,
      "vember": 1313,
      "November": 1314,
      "review": 1315,
      "tra": 1316,
      "period": 1317,
      "best": 1318,
      "193": 1319,
      "issu": 1320,
      "school": 1321,
      "story": 1322,
      "cas": 1323,
      "Europe": 1324,
      "hum": 1325,
      "His": 1326,
      "government": 1327,
      "turn": 1328,
      "ats": 1329,
      "expl": 1330,
      "adv": 1331,
      "cember": 1332,
      "December": 1333,
      "make": 1334,
      "ove": 1335,
      "ilar": 1336,
      "those": 1337,
      "jo": 1338,
      "ting": 1339,
      "roy": 1340,
      "urric": 1341,
      "dest": 1342,
      "avy": 1343,
      "By": 1344,
      "There": 1345,
      "original": 1346,
      "Ste": 1347,
      "using": 1348,
      "storm": 1349,
      "City": 1350,
      "ster": 1351,
      "And": 1352,
      "thing": 1353,
      "chan": 1354,
      "ulation": 1355,
      "ism": 1356,
      "company": 1357,
      "ext": 1358,
      "command": 1359,
      "Ge": 1360,
      "rown": 1361,
      "month": 1362,
      "real": 1363,
      "When": 1364,
      "fact": 1365,
      "ially": 1366,
      "king": 1367,
      "ense": 1368,
      "ner": 1369,
      "itary": 1370,
      "match": 1371,
      "ons": 1372,
      "2009": 1373,
      "auth": 1374,
      "flu": 1375,
      "ety": 1376,
      "rench": 1377,
      "video": 1378,
      "National": 1379,
      "ral": 1380,
      "arm": 1381,
      "club": 1382,
      "2008": 1383,
      "2010": 1384,
      "Sc": 1385,
      "trad": 1386,
      "oung": 1387,
      "fac": 1388,
      "role": 1389,
      "colle": 1390,
      "cor": 1391,
      "church": 1392,
      "Indi": 1393,
      "ivision": 1394,
      "gram": 1395,
      "So": 1396,
      "We": 1397,
      "ref": 1398,
      "River": 1399,
      "ences": 1400,
      "forman": 1401,
      "still": 1402,
      "move": 1403,
      "cus": 1404,
      "player": 1405,
      "Mc": 1406,
      "ically": 1407,
      "possi": 1408,
      "stit": 1409,
      "bro": 1410,
      "iversity": 1411,
      "addition": 1412,
      "riend": 1413,
      "Li": 1414,
      "came": 1415,
      "ix": 1416,
      "ently": 1417,
      "ched": 1418,
      "class": 1419,
      "local": 1420,
      "ium": 1421,
      "often": 1422,
      "history": 1423,
      "24": 1424,
      "ls": 1425,
      "ali": 1426,
      "former": 1427,
      "site": 1428,
      "half": 1429,
      "urricane": 1430,
      "26": 1431,
      "lim": 1432,
      "stri": 1433,
      "100": 1434,
      "mag": 1435,
      "tract": 1436,
      "aken": 1437,
      "continued": 1438,
      "21": 1439,
      "ians": 1440,
      "draw": 1441,
      "Sp": 1442,
      "23": 1443,
      "next": 1444,
      "2007": 1445,
      "ggest": 1446,
      "considered": 1447,
      "Ad": 1448,
      "rodu": 1449,
      "effect": 1450,
      "28": 1451,
      "suggest": 1452,
      "ae": 1453,
      "put": 1454,
      "say": 1455,
      "recorded": 1456,
      "French": 1457,
      "ze": 1458,
      "refer": 1459,
      "few": 1460,
      "que": 1461,
      "quar": 1462,
      "published": 1463,
      "similar": 1464,
      "career": 1465,
      "One": 1466,
      "mid": 1467,
      "Dy": 1468,
      "body": 1469,
      "mar": 1470,
      "English": 1471,
      "held": 1472,
      "performan": 1473,
      "placed": 1474,
      "take": 1475,
      "init": 1476,
      "import": 1477,
      "production": 1478,
      "Gen": 1479,
      "ending": 1480,
      "ah": 1481,
      "mp": 1482,
      "Pr": 1483,
      "elt": 1484,
      "Batt": 1485,
      "ared": 1486,
      "different": 1487,
      "Tr": 1488,
      "vo": 1489,
      "ribut": 1490,
      "ution": 1491,
      "chang": 1492,
      "ush": 1493,
      "Or": 1494,
      "mand": 1495,
      "idge": 1496,
      "Ear": 1497,
      "wind": 1498,
      "you": 1499,
      "imes": 1500,
      "larg": 1501,
      "without": 1502,
      "commun": 1503,
      "songs": 1504,
      "den": 1505,
      "ampion": 1506,
      "Pe": 1507,
      "With": 1508,
      "ars": 1509,
      "aining": 1510,
      "written": 1511,
      "ico": 1512,
      "among": 1513,
      "sty": 1514,
      "level": 1515,
      "ler": 1516,
      "strong": 1517,
      "State": 1518,
      "polit": 1519,
      "lor": 1520,
      "force": 1521,
      "seven": 1522,
      "fort": 1523,
      "bert": 1524,
      "house": 1525,
      "action": 1526,
      "every": 1527,
      "tro": 1528,
      "ided": 1529,
      "Inter": 1530,
      "Division": 1531,
      "vil": 1532,
      "2011": 1533,
      "release": 1534,
      "white": 1535,
      "struct": 1536,
      "further": 1537,
      "tropical": 1538,
      "iment": 1539,
      "become": 1540,
      "days": 1541,
      "2006": 1542,
      "According": 1543,
      "Although": 1544,
      "Church": 1545,
      "stead": 1546,
      "however": 1547,
      "find": 1548,
      "22": 1549,
      "Canad": 1550,
      "Bar": 1551,
      "ged": 1552,
      "aster": 1553,
      "fr": 1554,
      "pite": 1555,
      "Mus": 1556,
      "itar": 1557,
      "Te": 1558,
      "title": 1559,
      "author": 1560,
      "studi": 1561,
      "ops": 1562,
      "craft": 1563,
      "particular": 1564,
      "ness": 1565,
      "military": 1566,
      "respon": 1567,
      "Ser": 1568,
      "bird": 1569,
      "how": 1570,
      "foot": 1571,
      "augh": 1572,
      "graph": 1573,
      "27": 1574,
      "members": 1575,
      "Roman": 1576,
      "flo": 1577,
      "Char": 1578,
      "League": 1579,
      "popular": 1580,
      "Per": 1581,
      "Port": 1582,
      "gn": 1583,
      "wide": 1584,
      "mm": 1585,
      "scen": 1586,
      "went": 1587,
      "Song": 1588,
      "hold": 1589,
      "app": 1590,
      "bruary": 1591,
      "histor": 1592,
      "February": 1593,
      "ai": 1594,
      "lost": 1595,
      "times": 1596,
      "mission": 1597,
      "iter": 1598,
      "direct": 1599,
      "bar": 1600,
      "gave": 1601,
      "sit": 1602,
      "ively": 1603,
      "ittle": 1604,
      "produced": 1605,
      "successful": 1606,
      "fan": 1607,
      "tele": 1608,
      "reported": 1609,
      "Mis": 1610,
      "Dylan": 1611,
      "friend": 1612,
      "provid": 1613,
      "Geor": 1614,
      "served": 1615,
      "ology": 1616,
      "clear": 1617,
      "prof": 1618,
      "2012": 1619,
      "fire": 1620,
      "els": 1621,
      "mod": 1622,
      "capt": 1623,
      "total": 1624,
      "divid": 1625,
      "common": 1626,
      "Old": 1627,
      "Po": 1628,
      "Park": 1629,
      "cult": 1630,
      "test": 1631,
      "search": 1632,
      "wood": 1633,
      "covered": 1634,
      "children": 1635,
      "omin": 1636,
      "night": 1637,
      "forces": 1638,
      "decl": 1639,
      "given": 1640,
      "enter": 1641,
      "ps": 1642,
      "seen": 1643,
      "ford": 1644,
      "Jap": 1645,
      "ator": 1646,
      "stated": 1647,
      "Japan": 1648,
      "sure": 1649,
      "ception": 1650,
      "Min": 1651,
      "having": 1652,
      "include": 1653,
      "critic": 1654,
      "tour": 1655,
      "depend": 1656,
      "face": 1657,
      "fail": 1658,
      "see": 1659,
      "great": 1660,
      "indu": 1661,
      "invol": 1662,
      "ctions": 1663,
      "influ": 1664,
      "alion": 1665,
      "close": 1666,
      "away": 1667,
      "want": 1668,
      "represent": 1669,
      "Count": 1670,
      "anno": 1671,
      "Afric": 1672,
      "To": 1673,
      "young": 1674,
      "compet": 1675,
      "country": 1676,
      "bas": 1677,
      "signific": 1678,
      "manag": 1679,
      "Comp": 1680,
      "Pol": 1681,
      "making": 1682,
      "stre": 1683,
      "omen": 1684,
      "2013": 1685,
      "Sim": 1686,
      "net": 1687,
      "ices": 1688,
      "ney": 1689,
      "fron": 1690,
      "control": 1691,
      "itch": 1692,
      "Des": 1693,
      "rad": 1694,
      "eder": 1695,
      "chn": 1696,
      "river": 1697,
      "program": 1698,
      "look": 1699,
      "occur": 1700,
      "father": 1701,
      "never": 1702,
      "comb": 1703,
      "ploy": 1704,
      "General": 1705,
      "aur": 1706,
      "lished": 1707,
      "vict": 1708,
      "should": 1709,
      "project": 1710,
      "While": 1711,
      "construction": 1712,
      "post": 1713,
      "writing": 1714,
      "gl": 1715,
      "plan": 1716,
      "ods": 1717,
      "returned": 1718,
      "ned": 1719,
      "ister": 1720,
      "University": 1721,
      "change": 1722,
      "Tw": 1723,
      "bl": 1724,
      "aren": 1725,
      "mix": 1726,
      "fem": 1727,
      "xim": 1728,
      "developed": 1729,
      "established": 1730,
      "ither": 1731,
      "Scot": 1732,
      "29": 1733,
      "Ph": 1734,
      "ides": 1735,
      "reached": 1736,
      "ax": 1737,
      "too": 1738,
      "chart": 1739,
      "190": 1740,
      "These": 1741,
      "America": 1742,
      "omet": 1743,
      "belie": 1744,
      "ensive": 1745,
      "cing": 1746,
      "island": 1747,
      "sound": 1748,
      "activ": 1749,
      "Dav": 1750,
      "Ire": 1751,
      "population": 1752,
      "announ": 1753,
      "BC": 1754,
      "equ": 1755,
      "law": 1756,
      "works": 1757,
      "ways": 1758,
      "Ha": 1759,
      "Jack": 1760,
      "hour": 1761,
      "ama": 1762,
      "coming": 1763,
      "earli": 1764,
      "novel": 1765,
      "died": 1766,
      "word": 1767,
      "ably": 1768,
      "antic": 1769,
      "noted": 1770,
      "introdu": 1771,
      "Ireland": 1772,
      "40": 1773,
      "Air": 1774,
      "bur": 1775,
      "tail": 1776,
      "igade": 1777,
      "tell": 1778,
      "range": 1779,
      "ges": 1780,
      "across": 1781,
      "thought": 1782,
      "throughout": 1783,
      "building": 1784,
      "blo": 1785,
      "cou": 1786,
      "agre": 1787,
      "itions": 1788,
      "ondon": 1789,
      "Vi": 1790,
      "Pro": 1791,
      "London": 1792,
      "ances": 1793,
      "sum": 1794,
      "gar": 1795,
      "exp": 1796,
      "himself": 1797,
      "full": 1798,
      "felt": 1799,
      "development": 1800,
      "William": 1801,
      "teen": 1802,
      "East": 1803,
      "atic": 1804,
      "board": 1805,
      "ument": 1806,
      "performed": 1807,
      "grow": 1808,
      "complete": 1809,
      "Mich": 1810,
      "rap": 1811,
      "important": 1812,
      "significant": 1813,
      "rent": 1814,
      "Australia": 1815,
      "aint": 1816,
      "typ": 1817,
      "pur": 1818,
      "ades": 1819,
      "eight": 1820,
      "Atl": 1821,
      "human": 1822,
      "destroy": 1823,
      "miles": 1824,
      "room": 1825,
      "live": 1826,
      "television": 1827,
      "Black": 1828,
      "interest": 1829,
      "various": 1830,
      "style": 1831,
      "fle": 1832,
      "areas": 1833,
      "black": 1834,
      "key": 1835,
      "sk": 1836,
      "sett": 1837,
      "Ed": 1838,
      "appeared": 1839,
      "Rich": 1840,
      "bus": 1841,
      "others": 1842,
      "relation": 1843,
      "bor": 1844,
      "hip": 1845,
      "does": 1846,
      "official": 1847,
      "aign": 1848,
      "del": 1849,
      "events": 1850,
      "marri": 1851,
      "need": 1852,
      "Har": 1853,
      "da": 1854,
      "suf": 1855,
      "Road": 1856,
      "Reg": 1857,
      "medi": 1858,
      "ior": 1859,
      "amb": 1860,
      "players": 1861,
      "started": 1862,
      "James": 1863,
      "nd": 1864,
      "ones": 1865,
      "idence": 1866,
      "Roy": 1867,
      "modern": 1868,
      "hind": 1869,
      "gether": 1870,
      "pra": 1871,
      "tion": 1872,
      "ots": 1873,
      "appoint": 1874,
      "experi": 1875,
      "feet": 1876,
      "ological": 1877,
      "High": 1878,
      "ified": 1879,
      "itive": 1880,
      "poem": 1881,
      "aver": 1882,
      "cil": 1883,
      "ope": 1884,
      "created": 1885,
      "performance": 1886,
      "County": 1887,
      "front": 1888,
      "nu": 1889,
      "prim": 1890,
      "located": 1891,
      "Wal": 1892,
      "caused": 1893,
      "aff": 1894,
      "ives": 1895,
      "cell": 1896,
      "techn": 1897,
      "Ke": 1898,
      "fun": 1899,
      "fig": 1900,
      "189": 1901,
      "Mount": 1902,
      "60": 1903,
      "You": 1904,
      "vill": 1905,
      "alth": 1906,
      "sex": 1907,
      "mother": 1908,
      "mount": 1909,
      "ago": 1910,
      "abor": 1911,
      "rick": 1912,
      "Ber": 1913,
      "stant": 1914,
      "coast": 1915,
      "2004": 1916,
      "Pal": 1917,
      "2005": 1918,
      "formation": 1919,
      "pression": 1920,
      "good": 1921,
      "TV": 1922,
      "na": 1923,
      "acy": 1924,
      "ample": 1925,
      "political": 1926,
      "Cor": 1927,
      "Ho": 1928,
      "rock": 1929,
      "characters": 1930,
      "mit": 1931,
      "theast": 1932,
      "relig": 1933,
      "Mag": 1934,
      "Sci": 1935,
      "bes": 1936,
      "Ne": 1937,
      "nal": 1938,
      "taken": 1939,
      "rul": 1940,
      "rew": 1941,
      "begin": 1942,
      "mun": 1943,
      "iness": 1944,
      "born": 1945,
      "core": 1946,
      "cru": 1947,
      "Su": 1948,
      "Town": 1949,
      "goal": 1950,
      "Mont": 1951,
      "burn": 1952,
      "Care": 1953,
      "fight": 1954,
      "vic": 1955,
      "once": 1956,
      "vert": 1957,
      "aves": 1958,
      "grad": 1959,
      "scri": 1960,
      "far": 1961,
      "nia": 1962,
      "pred": 1963,
      "remained": 1964,
      "fav": 1965,
      "ring": 1966,
      "ination": 1967,
      "ison": 1968,
      "iting": 1969,
      "completed": 1970,
      "battle": 1971,
      "killed": 1972,
      "Phil": 1973,
      "yard": 1974,
      "quad": 1975,
      "ficult": 1976,
      "scored": 1977,
      "region": 1978,
      "difficult": 1979,
      "Kingdom": 1980,
      "Hist": 1981,
      "Of": 1982,
      "ible": 1983,
      "mor": 1984,
      "sess": 1985,
      "offer": 1986,
      "arded": 1987,
      "guns": 1988,
      "inv": 1989,
      "meet": 1990,
      "Island": 1991,
      "Australian": 1992,
      "campaign": 1993,
      "tradition": 1994,
      "announced": 1995,
      "Feder": 1996,
      "van": 1997,
      "debut": 1998,
      "ublic": 1999,
      "Music": 2000,
      "ked": 2001,
      "omb": 2002,
      "Bl": 2003,
      "ks": 2004,
      "anim": 2005,
      "stars": 2006,
      "Cup": 2007,
      "host": 2008,
      "Company": 2009,
      "Sy": 2010,
      "little": 2011,
      "ising": 2012,
      "process": 2013,
      "peak": 2014,
      "exist": 2015,
      "added": 2016,
      "instead": 2017,
      "help": 2018,
      "Som": 2019,
      "lines": 2020,
      "names": 2021,
      "stat": 2022,
      "asing": 2023,
      "Pa": 2024,
      "ael": 2025,
      "cient": 2026,
      "possible": 2027,
      "rought": 2028,
      "least": 2029,
      "conne": 2030,
      "cogn": 2031,
      "followed": 2032,
      "Ham": 2033,
      "redu": 2034,
      "saw": 2035,
      "entire": 2036,
      "bet": 2037,
      "ption": 2038,
      "know": 2039,
      "member": 2040,
      "Ex": 2041,
      "aid": 2042,
      "cause": 2043,
      "ories": 2044,
      "together": 2045,
      "originally": 2046,
      "months": 2047,
      "ality": 2048,
      "wife": 2049,
      "comment": 2050,
      "regular": 2051,
      "Army": 2052,
      "ues": 2053,
      "southern": 2054,
      "David": 2055,
      "Some": 2056,
      "rain": 2057,
      "resident": 2058,
      "loss": 2059,
      "reek": 2060,
      "Ang": 2061,
      "Grand": 2062,
      "study": 2063,
      "hurricane": 2064,
      "ug": 2065,
      "enced": 2066,
      "cir": 2067,
      "tar": 2068,
      "women": 2069,
      "associ": 2070,
      "press": 2071,
      "era": 2072,
      "eastern": 2073,
      "France": 2074,
      "Bill": 2075,
      "ape": 2076,
      "aving": 2077,
      "opened": 2078,
      "mass": 2079,
      "lect": 2080,
      "Champion": 2081,
      "2003": 2082,
      "critics": 2083,
      "stone": 2084,
      "playing": 2085,
      "eventually": 2086,
      "consist": 2087,
      "features": 2088,
      "Other": 2089,
      "utes": 2090,
      "2015": 2091,
      "base": 2092,
      "broad": 2093,
      "pair": 2094,
      "vest": 2095,
      "fif": 2096,
      "Love": 2097,
      "carri": 2098,
      "dri": 2099,
      "hor": 2100,
      "recogn": 2101,
      "route": 2102,
      "fourth": 2103,
      "hab": 2104,
      "sport": 2105,
      "ability": 2106,
      "Two": 2107,
      "got": 2108,
      "voc": 2109,
      "forced": 2110,
      "decided": 2111,
      "sl": 2112,
      "ought": 2113,
      "accept": 2114,
      "ota": 2115,
      "estim": 2116,
      "damage": 2117,
      "profess": 2118,
      "Fo": 2119,
      "non": 2120,
      "aly": 2121,
      "heavy": 2122,
      "aper": 2123,
      "points": 2124,
      "birds": 2125,
      "either": 2126,
      "wall": 2127,
      "Battalion": 2128,
      "termin": 2129,
      "proble": 2130,
      "tempor": 2131,
      "elect": 2132,
      "Ab": 2133,
      "behind": 2134,
      "finished": 2135,
      "commer": 2136,
      "leading": 2137,
      "cert": 2138,
      "break": 2139,
      "cop": 2140,
      "semb": 2141,
      "ament": 2142,
      "ull": 2143,
      "azine": 2144,
      "believed": 2145,
      "Carey": 2146,
      "sold": 2147,
      "separ": 2148,
      "forms": 2149,
      "speci": 2150,
      "writer": 2151,
      "current": 2152,
      "Mi": 2153,
      "ique": 2154,
      "nat": 2155,
      "tre": 2156,
      "condom": 2157,
      "individ": 2158,
      "liament": 2159,
      "claimed": 2160,
      "inc": 2161,
      "impro": 2162,
      "El": 2163,
      "uses": 2164,
      "appearance": 2165,
      "Fin": 2166,
      "Mor": 2167,
      "employ": 2168,
      "example": 2169,
      "special": 2170,
      "fantry": 2171,
      "Royal": 2172,
      "don": 2173,
      "almost": 2174,
      "188": 2175,
      "uck": 2176,
      "sts": 2177,
      "compan": 2178,
      "Mex": 2179,
      "vir": 2180,
      "yards": 2181,
      "ization": 2182,
      "directed": 2183,
      "European": 2184,
      "uc": 2185,
      "ara": 2186,
      "respect": 2187,
      "langu": 2188,
      "service": 2189,
      "generally": 2190,
      "Federer": 2191,
      "mater": 2192,
      "pie": 2193,
      "towards": 2194,
      "vier": 2195,
      "igned": 2196,
      "Robert": 2197,
      "elements": 2198,
      "western": 2199,
      "odes": 2200,
      "2nd": 2201,
      "brought": 2202,
      "case": 2203,
      "dou": 2204,
      "sour": 2205,
      "lower": 2206,
      "Brigade": 2207,
      "weeks": 2208,
      "cup": 2209,
      "mph": 2210,
      "concl": 2211,
      "ends": 2212,
      "upon": 2213,
      "International": 2214,
      "Ev": 2215,
      "Hen": 2216,
      "Oli": 2217,
      "Wales": 2218,
      "mot": 2219,
      "illa": 2220,
      "Stre": 2221,
      "lled": 2222,
      "central": 2223,
      "laun": 2224,
      "31": 2225,
      "icated": 2226,
      "bel": 2227,
      "ceed": 2228,
      "stry": 2229,
      "bodi": 2230,
      "highway": 2231,
      "featured": 2232,
      "35": 2233,
      "stage": 2234,
      "aircraft": 2235,
      "ready": 2236,
      "Viet": 2237,
      "Flor": 2238,
      "term": 2239,
      "assist": 2240,
      "director": 2241,
      "God": 2242,
      "ida": 2243,
      "crew": 2244,
      "mean": 2245,
      "Du": 2246,
      "dle": 2247,
      "via": 2248,
      "general": 2249,
      "White": 2250,
      "survi": 2251,
      "Part": 2252,
      "research": 2253,
      "amo": 2254,
      "defe": 2255,
      "vers": 2256,
      "contract": 2257,
      "approach": 2258,
      "Game": 2259,
      "SA": 2260,
      "ply": 2261,
      "sw": 2262,
      "provided": 2263,
      "George": 2264,
      "Day": 2265,
      "ordan": 2266,
      "meas": 2267,
      "Act": 2268,
      "ey": 2269,
      "fund": 2270,
      "ier": 2271,
      "compl": 2272,
      "cret": 2273,
      "graphy": 2274,
      "Play": 2275,
      "Val": 2276,
      "Follow": 2277,
      "Jordan": 2278,
      "fly": 2279,
      "lear": 2280,
      "oted": 2281,
      "parts": 2282,
      "Hero": 2283,
      "earlier": 2284,
      "From": 2285,
      "free": 2286,
      "reve": 2287,
      "Thom": 2288,
      "allowed": 2289,
      "Cent": 2290,
      "hon": 2291,
      "2014": 2292,
      "rather": 2293,
      "female": 2294,
      "Atlantic": 2295,
      "House": 2296,
      "nar": 2297,
      "pat": 2298,
      "ration": 2299,
      "ington": 2300,
      "sea": 2301,
      "ino": 2302,
      "opening": 2303,
      "largest": 2304,
      "victory": 2305,
      "Following": 2306,
      "Jew": 2307,
      "reason": 2308,
      "heel": 2309,
      "worked": 2310,
      "subsequ": 2311,
      "useum": 2312,
      "certain": 2313,
      "operations": 2314,
      "Christian": 2315,
      "particularly": 2316,
      "manager": 2317,
      "Dr": 2318,
      "Mad": 2319,
      "Rep": 2320,
      "19th": 2321,
      "cially": 2322,
      "travel": 2323,
      "troops": 2324,
      "Fir": 2325,
      "Mary": 2326,
      "audi": 2327,
      "spir": 2328,
      "working": 2329,
      "rail": 2330,
      "III": 2331,
      "joined": 2332,
      "wanted": 2333,
      "section": 2334,
      "urb": 2335,
      "condu": 2336,
      "Red": 2337,
      "evidence": 2338,
      "standing": 2339,
      "San": 2340,
      "reli": 2341,
      "northern": 2342,
      "Command": 2343,
      "Florida": 2344,
      "Paul": 2345,
      "70": 2346,
      "Ir": 2347,
      "Rock": 2348,
      "leng": 2349,
      "nine": 2350,
      "hest": 2351,
      "anti": 2352,
      "outside": 2353,
      "engine": 2354,
      "Street": 2355,
      "stren": 2356,
      "love": 2357,
      "saying": 2358,
      "Med": 2359,
      "cross": 2360,
      "ission": 2361,
      "ellow": 2362,
      "pract": 2363,
      "fre": 2364,
      "whom": 2365,
      "emy": 2366,
      "issue": 2367,
      "hours": 2368,
      "ators": 2369,
      "ential": 2370,
      "conom": 2371,
      "coll": 2372,
      "AA": 2373,
      "Gre": 2374,
      "har": 2375,
      "ata": 2376,
      "account": 2377,
      "2001": 2378,
      "avail": 2379,
      "185": 2380,
      "souri": 2381,
      "Missouri": 2382,
      "Cr": 2383,
      "streng": 2384,
      "38": 2385,
      "500": 2386,
      "Bra": 2387,
      "atin": 2388,
      "deal": 2389,
      "territ": 2390,
      "length": 2391,
      "My": 2392,
      "Sw": 2393,
      "mach": 2394,
      "nomin": 2395,
      "tel": 2396,
      "court": 2397,
      "Tech": 2398,
      "Gal": 2399,
      "Lo": 2400,
      "inch": 2401,
      "stay": 2402,
      "tee": 2403,
      "plann": 2404,
      "material": 2405,
      "gold": 2406,
      "ping": 2407,
      "poor": 2408,
      "cycl": 2409,
      "designed": 2410,
      "Bay": 2411,
      "Cro": 2412,
      "seem": 2413,
      "prob": 2414,
      "pool": 2415,
      "minist": 2416,
      "quarter": 2417,
      "think": 2418,
      "argu": 2419,
      "soon": 2420,
      "praised": 2421,
      "Don": 2422,
      "Mark": 2423,
      "ger": 2424,
      "nes": 2425,
      "ishing": 2426,
      "quest": 2427,
      "remains": 2428,
      "Indian": 2429,
      "football": 2430,
      "First": 2431,
      "Best": 2432,
      "ded": 2433,
      "drop": 2434,
      "aland": 2435,
      "counter": 2436,
      "suffer": 2437,
      "amount": 2438,
      "Ze": 2439,
      "bill": 2440,
      "date": 2441,
      "hous": 2442,
      "ties": 2443,
      "station": 2444,
      "flight": 2445,
      "winds": 2446,
      "Michael": 2447,
      "Ros": 2448,
      "phas": 2449,
      "sho": 2450,
      "quick": 2451,
      "ival": 2452,
      "discus": 2453,
      "type": 2454,
      "increased": 2455,
      "Pri": 2456,
      "cul": 2457,
      "past": 2458,
      "scre": 2459,
      "viol": 2460,
      "Coun": 2461,
      "previously": 2462,
      "appointed": 2463,
      "45": 2464,
      "Bus": 2465,
      "Egy": 2466,
      "dol": 2467,
      "inj": 2468,
      "replaced": 2469,
      "units": 2470,
      "ica": 2471,
      "acc": 2472,
      "deli": 2473,
      "above": 2474,
      "pressed": 2475,
      "Cap": 2476,
      "ecut": 2477,
      "Richard": 2478,
      "Dep": 2479,
      "erous": 2480,
      "lands": 2481,
      "ranch": 2482,
      "maintain": 2483,
      "passed": 2484,
      "relationship": 2485,
      "Am": 2486,
      "spo": 2487,
      "ened": 2488,
      "alter": 2489,
      "ids": 2490,
      "clos": 2491,
      "civil": 2492,
      "Despite": 2493,
      "business": 2494,
      "pain": 2495,
      "rid": 2496,
      "invest": 2497,
      "aries": 2498,
      "ighest": 2499,
      "interview": 2500,
      "signed": 2501,
      "flood": 2502,
      "hib": 2503,
      "taking": 2504,
      "threat": 2505,
      "achie": 2506,
      "going": 2507,
      "ributed": 2508,
      "Henry": 2509,
      "Hill": 2510,
      "186": 2511,
      "osaur": 2512,
      "Canada": 2513,
      "quadron": 2514,
      "estimated": 2515,
      "specific": 2516,
      "FA": 2517,
      "Que": 2518,
      "ault": 2519,
      "ff": 2520,
      "ik": 2521,
      "race": 2522,
      "vice": 2523,
      "rang": 2524,
      "available": 2525,
      "highest": 2526,
      "native": 2527,
      "somet": 2528,
      "tor": 2529,
      "uel": 2530,
      "structure": 2531,
      "Japanese": 2532,
      "stop": 2533,
      "sell": 2534,
      "ples": 2535,
      "Carol": 2536,
      "situ": 2537,
      "Oldham": 2538,
      "involved": 2539,
      "President": 2540,
      "Times": 2541,
      "Ver": 2542,
      "must": 2543,
      "treat": 2544,
      "comes": 2545,
      "suggested": 2546,
      "mixed": 2547,
      "Tor": 2548,
      "Vir": 2549,
      "lay": 2550,
      "shot": 2551,
      "establish": 2552,
      "turned": 2553,
      "introduced": 2554,
      "Ap": 2555,
      "Brown": 2556,
      "inst": 2557,
      "recent": 2558,
      "usually": 2559,
      "goals": 2560,
      "likely": 2561,
      "scene": 2562,
      "script": 2563,
      "Olivier": 2564,
      "itself": 2565,
      "league": 2566,
      "ention": 2567,
      "proper": 2568,
      "Later": 2569,
      "cern": 2570,
      "oney": 2571,
      "actions": 2572,
      "Chin": 2573,
      "bound": 2574,
      "Most": 2575,
      "transport": 2576,
      "India": 2577,
      "average": 2578,
      "Mexico": 2579,
      "give": 2580,
      "sis": 2581,
      "ana": 2582,
      "tolo": 2583,
      "Arab": 2584,
      "Egypt": 2585,
      "Rac": 2586,
      "School": 2587,
      "lam": 2588,
      "ald": 2589,
      "olic": 2590,
      "limited": 2591,
      "90": 2592,
      "lin": 2593,
      "told": 2594,
      "super": 2595,
      "sia": 2596,
      "whose": 2597,
      "recording": 2598,
      "village": 2599,
      "Cam": 2600,
      "Cong": 2601,
      "bri": 2602,
      "ita": 2603,
      "transfer": 2604,
      "brother": 2605,
      "responsi": 2606,
      "Thomas": 2607,
      "bow": 2608,
      "ming": 2609,
      "oring": 2610,
      "size": 2611,
      "prepar": 2612,
      "possib": 2613,
      "ximately": 2614,
      "religious": 2615,
      "Irish": 2616,
      "hit": 2617,
      "vin": 2618,
      "ordered": 2619,
      "occup": 2620,
      "block": 2621,
      "temporary": 2622,
      "But": 2623,
      "Pac": 2624,
      "hom": 2625,
      "pond": 2626,
      "bell": 2627,
      "187": 2628,
      "Britain": 2629,
      "shows": 2630,
      "damaged": 2631,
      "thus": 2632,
      "commission": 2633,
      "increasing": 2634,
      "Republic": 2635,
      "80": 2636,
      "Hurricane": 2637,
      "NY": 2638,
      "Str": 2639,
      "Wheel": 2640,
      "ient": 2641,
      "ky": 2642,
      "mult": 2643,
      "ray": 2644,
      "educ": 2645,
      "touch": 2646,
      "icted": 2647,
      "istic": 2648,
      "marked": 2649,
      "Mac": 2650,
      "Many": 2651,
      "thedr": 2652,
      "irth": 2653,
      "space": 2654,
      "despite": 2655,
      "Rose": 2656,
      "nearly": 2657,
      "Guitar": 2658,
      "changes": 2659,
      "Hel": 2660,
      "Hall": 2661,
      "watch": 2662,
      "beli": 2663,
      "forward": 2664,
      "clo": 2665,
      "social": 2666,
      "feel": 2667,
      "consider": 2668,
      "community": 2669,
      "Zealand": 2670,
      "Rou": 2671,
      "Sun": 2672,
      "aut": 2673,
      "econom": 2674,
      "mal": 2675,
      "independ": 2676,
      "defin": 2677,
      "surround": 2678,
      "Jer": 2679,
      "daugh": 2680,
      "err": 2681,
      "lected": 2682,
      "Union": 2683,
      "international": 2684,
      "object": 2685,
      "ronic": 2686,
      "listed": 2687,
      "initially": 2688,
      "commercial": 2689,
      "rate": 2690,
      "already": 2691,
      "aces": 2692,
      "immedi": 2693,
      "cts": 2694,
      "usion": 2695,
      "That": 2696,
      "asked": 2697,
      "Peter": 2698,
      "hard": 2699,
      "might": 2700,
      "chap": 2701,
      "detail": 2702,
      "depression": 2703,
      "archae": 2704,
      "anna": 2705,
      "winning": 2706,
      "Early": 2707,
      "failed": 2708,
      "Championship": 2709,
      "Chinese": 2710,
      "36": 2711,
      "Gold": 2712,
      "gress": 2713,
      "woman": 2714,
      "states": 2715,
      "espe": 2716,
      "according": 2717,
      "pected": 2718,
      "training": 2719,
      "related": 2720,
      "capital": 2721,
      "language": 2722,
      "probably": 2723,
      "Pacific": 2724,
      "especially": 2725,
      "Em": 2726,
      "here": 2727,
      "vate": 2728,
      "arily": 2729,
      "execut": 2730,
      "2002": 2731,
      "occas": 2732,
      "minor": 2733,
      "visit": 2734,
      "Mos": 2735,
      "fut": 2736,
      "enj": 2737,
      "ilities": 2738,
      "chol": 2739,
      "text": 2740,
      "cost": 2741,
      "commit": 2742,
      "studio": 2743,
      "natural": 2744,
      "ield": 2745,
      "liter": 2746,
      "pot": 2747,
      "coach": 2748,
      "hair": 2749,
      "spent": 2750,
      "includes": 2751,
      "arrived": 2752,
      "History": 2753,
      "Wheeler": 2754,
      "Awards": 2755,
      "Jin": 2756,
      "god": 2757,
      "enough": 2758,
      "army": 2759,
      "respond": 2760,
      "moving": 2761,
      "pho": 2762,
      "remaining": 2763,
      "particip": 2764,
      "Canadian": 2765,
      "habit": 2766,
      "thedral": 2767,
      "Cath": 2768,
      "Law": 2769,
      "Navy": 2770,
      "male": 2771,
      "arts": 2772,
      "mention": 2773,
      "center": 2774,
      "prevent": 2775,
      "sometimes": 2776,
      "UK": 2777,
      "dy": 2778,
      "doc": 2779,
      "pit": 2780,
      "atory": 2781,
      "aled": 2782,
      "ula": 2783,
      "required": 2784,
      "approximately": 2785,
      "reviews": 2786,
      "quarters": 2787,
      "Res": 2788,
      "fru": 2789,
      "hap": 2790,
      "latter": 2791,
      "nation": 2792,
      "nel": 2793,
      "slow": 2794,
      "amed": 2795,
      "dead": 2796,
      "phys": 2797,
      "positions": 2798,
      "Sing": 2799,
      "ken": 2800,
      "pan": 2801,
      "sat": 2802,
      "aters": 2803,
      "ries": 2804,
      "nest": 2805,
      "Associ": 2806,
      "tons": 2807,
      "Africa": 2808,
      "beginning": 2809,
      "urt": 2810,
      "pound": 2811,
      "perform": 2812,
      "2000": 2813,
      "running": 2814,
      "Angel": 2815,
      "Creek": 2816,
      "Film": 2817,
      "Mid": 2818,
      "lot": 2819,
      "inated": 2820,
      "entolo": 2821,
      "ateg": 2822,
      "exc": 2823,
      "notes": 2824,
      "ief": 2825,
      "decision": 2826,
      "soldi": 2827,
      "Scientolo": 2828,
      "defeated": 2829,
      "Pre": 2830,
      "bit": 2831,
      "sen": 2832,
      "yer": 2833,
      "Star": 2834,
      "Art": 2835,
      "additional": 2836,
      "Regiment": 2837,
      "Super": 2838,
      "Lu": 2839,
      "jour": 2840,
      "oid": 2841,
      "ication": 2842,
      "evol": 2843,
      "president": 2844,
      "response": 2845,
      "better": 2846,
      "Virgin": 2847,
      "Rachel": 2848,
      "Hol": 2849,
      "aring": 2850,
      "concern": 2851,
      "uded": 2852,
      "positive": 2853,
      "ference": 2854,
      "students": 2855,
      "larger": 2856,
      "Light": 2857,
      "aby": 2858,
      "whe": 2859,
      "sip": 2860,
      "supported": 2861,
      "Colle": 2862,
      "constructed": 2863,
      "magazine": 2864,
      "captured": 2865,
      "1st": 2866,
      "Award": 2867,
      "Gl": 2868,
      "Oly": 2869,
      "bot": 2870,
      "staff": 2871,
      "food": 2872,
      "pressure": 2873,
      "rics": 2874,
      "bridge": 2875,
      "police": 2876,
      "changed": 2877,
      "Scott": 2878,
      "agreed": 2879,
      "Olymp": 2880,
      "Lad": 2881,
      "cal": 2882,
      "poet": 2883,
      "active": 2884,
      "Charles": 2885,
      "fleet": 2886,
      "Rus": 2887,
      "birth": 2888,
      "score": 2889,
      "cele": 2890,
      "shown": 2891,
      "1995": 2892,
      "Billboard": 2893,
      "Hu": 2894,
      "frequ": 2895,
      "teach": 2896,
      "aven": 2897,
      "assigned": 2898,
      "plays": 2899,
      "future": 2900,
      "FI": 2901,
      "Penn": 2902,
      "pay": 2903,
      "access": 2904,
      "provide": 2905,
      "print": 2906,
      "location": 2907,
      "fifth": 2908,
      "75": 2909,
      "Tom": 2910,
      "rd": 2911,
      "acqu": 2912,
      "ctive": 2913,
      "agon": 2914,
      "uments": 2915,
      "pose": 2916,
      "aval": 2917,
      "keep": 2918,
      "discovered": 2919,
      "selves": 2920,
      "Hor": 2921,
      "appl": 2922,
      "temper": 2923,
      "syn": 2924,
      "feature": 2925,
      "broadcast": 2926,
      "Route": 2927,
      "Ri": 2928,
      "ny": 2929,
      "pitch": 2930,
      "sal": 2931,
      "iss": 2932,
      "itz": 2933,
      "ami": 2934,
      "becoming": 2935,
      "subject": 2936,
      "surface": 2937,
      "idea": 2938,
      "prior": 2939,
      "circ": 2940,
      "uals": 2941,
      "ander": 2942,
      "defeat": 2943,
      "Arch": 2944,
      "ifa": 2945,
      "rison": 2946,
      "33": 2947,
      "Cer": 2948,
      "NA": 2949,
      "cm": 2950,
      "exam": 2951,
      "box": 2952,
      "operation": 2953,
      "smaller": 2954,
      "Western": 2955,
      "Fort": 2956,
      "inci": 2957,
      "idents": 2958,
      "intended": 2959,
      "groups": 2960,
      "summer": 2961,
      "Scientology": 2962,
      "Go": 2963,
      "Great": 2964,
      "Sou": 2965,
      "paren": 2966,
      "cean": 2967,
      "exten": 2968,
      "ishop": 2969,
      "percent": 2970,
      "mostly": 2971,
      "themselves": 2972,
      "stein": 2973,
      "metres": 2974,
      "Haifa": 2975,
      "48": 2976,
      "Bro": 2977,
      "Ot": 2978,
      "Year": 2979,
      "makes": 2980,
      "orial": 2981,
      "assi": 2982,
      "champion": 2983,
      "otion": 2984,
      "lies": 2985,
      "quare": 2986,
      "2016": 2987,
      "minutes": 2988,
      "ize": 2989,
      "referred": 2990,
      "favor": 2991,
      "Bri": 2992,
      "Dan": 2993,
      "Gro": 2994,
      "Since": 2995,
      "flow": 2996,
      "hop": 2997,
      "ners": 2998,
      "edy": 2999,
      "enon": 3000,
      "apo": 3001,
      "atest": 3002,
      "affic": 3003,
      "create": 3004,
      "musical": 3005,
      "office": 3006,
      "largely": 3007,
      "stitute": 3008,
      "alifor": 3009,
      "professional": 3010,
      "problems": 3011,
      "Croat": 3012,
      "Association": 3013,
      "pers": 3014,
      "entered": 3015,
      "ranked": 3016,
      "rael": 3017,
      "Under": 3018,
      "indic": 3019,
      "media": 3020,
      "Parliament": 3021,
      "Lord": 3022,
      "secur": 3023,
      "pole": 3024,
      "conf": 3025,
      "contr": 3026,
      "reser": 3027,
      "contains": 3028,
      "Frank": 3029,
      "radio": 3030,
      "Califor": 3031,
      "Not": 3032,
      "Oper": 3033,
      "fill": 3034,
      "kan": 3035,
      "link": 3036,
      "ns": 3037,
      "pi": 3038,
      "send": 3039,
      "demon": 3040,
      "imp": 3041,
      "artment": 3042,
      "aker": 3043,
      "1999": 3044,
      "appears": 3045,
      "experience": 3046,
      "Galve": 3047,
      "closed": 3048,
      "fell": 3049,
      "mas": 3050,
      "money": 3051,
      "guitar": 3052,
      "relative": 3053,
      "effects": 3054,
      "How": 3055,
      "Mal": 3056,
      "bio": 3057,
      "nature": 3058,
      "zz": 3059,
      "ergy": 3060,
      "asy": 3061,
      "ully": 3062,
      "1950": 3063,
      "ume": 3064,
      "tray": 3065,
      "sian": 3066,
      "grant": 3067,
      "jected": 3068,
      "stories": 3069,
      "Israel": 3070,
      "majority": 3071,
      "voice": 3072,
      "Earth": 3073,
      "Jewish": 3074,
      "Council": 3075,
      "adop": 3076,
      "Galveston": 3077,
      "Camp": 3078,
      "Tur": 3079,
      "Wood": 3080,
      "eding": 3081,
      "reme": 3082,
      "orm": 3083,
      "roll": 3084,
      "leaving": 3085,
      "strict": 3086,
      "critical": 3087,
      "market": 3088,
      "culture": 3089,
      "bodies": 3090,
      "Bal": 3091,
      "Bel": 3092,
      "ML": 3093,
      "Var": 3094,
      "cred": 3095,
      "ga": 3096,
      "gins": 3097,
      "mir": 3098,
      "sil": 3099,
      "Chic": 3100,
      "colon": 3101,
      "Record": 3102,
      "primary": 3103,
      "Tri": 3104,
      "gods": 3105,
      "schol": 3106,
      "always": 3107,
      "lyrics": 3108,
      "lived": 3109,
      "Another": 3110,
      "writers": 3111,
      "election": 3112,
      "Brad": 3113,
      "married": 3114,
      "bal": 3115,
      "ox": 3116,
      "rare": 3117,
      "attract": 3118,
      "depart": 3119,
      "pring": 3120,
      "Station": 3121,
      "ept": 3122,
      "films": 3123,
      "officers": 3124,
      "runs": 3125,
      "launched": 3126,
      "brief": 3127,
      "California": 3128,
      "39": 3129,
      "mel": 3130,
      "rup": 3131,
      "umb": 3132,
      "teams": 3133,
      "Bey": 3134,
      "course": 3135,
      "quickly": 3136,
      "Catholic": 3137,
      "uter": 3138,
      "deep": 3139,
      "verse": 3140,
      "proposed": 3141,
      "spital": 3142,
      "meant": 3143,
      "minute": 3144,
      "episodes": 3145,
      "occurred": 3146,
      "37": 3147,
      "Ale": 3148,
      "If": 3149,
      "Mer": 3150,
      "increase": 3151,
      "equip": 3152,
      "settle": 3153,
      "mitted": 3154,
      "daughter": 3155,
      "whether": 3156,
      "Saint": 3157,
      "fans": 3158,
      "pian": 3159,
      "ugu": 3160,
      "adap": 3161,
      "irl": 3162,
      "traffic": 3163,
      "exper": 3164,
      "illery": 3165,
      "fected": 3166,
      "northeast": 3167,
      "destroyed": 3168,
      "47": 3169,
      "Mr": 3170,
      "Nix": 3171,
      "Qu": 3172,
      "ben": 3173,
      "hol": 3174,
      "takes": 3175,
      "insp": 3176,
      "rein": 3177,
      "earth": 3178,
      "bring": 3179,
      "longer": 3180,
      "fighting": 3181,
      "meaning": 3182,
      "Central": 3183,
      "Chicago": 3184,
      "hus": 3185,
      "job": 3186,
      "kind": 3187,
      "throw": 3188,
      "theme": 3189,
      "ream": 3190,
      "twent": 3191,
      "upper": 3192,
      "iva": 3193,
      "meth": 3194,
      "syl": 3195,
      "numbers": 3196,
      "Battle": 3197,
      "ville": 3198,
      "aught": 3199,
      "competition": 3200,
      "soldiers": 3201,
      "Haw": 3202,
      "mom": 3203,
      "andon": 3204,
      "leave": 3205,
      "secut": 3206,
      "administ": 3207,
      "determin": 3208,
      "trade": 3209,
      "overnor": 3210,
      "awarded": 3211,
      "Alice": 3212,
      "ario": 3213,
      "Northern": 3214,
      "McC": 3215,
      "carried": 3216,
      "celebr": 3217,
      "Latin": 3218,
      "hou": 3219,
      "pet": 3220,
      "zy": 3221,
      "undred": 3222,
      "fles": 3223,
      "Enter": 3224,
      "1998": 3225,
      "private": 3226,
      "directly": 3227,
      "conducted": 3228,
      "Lou": 3229,
      "nis": 3230,
      "inal": 3231,
      "sey": 3232,
      "ports": 3233,
      "Ital": 3234,
      "newsp": 3235,
      "records": 3236,
      "attacks": 3237,
      "request": 3238,
      "subsequently": 3239,
      "400": 3240,
      "Tour": 3241,
      "Villa": 3242,
      "gent": 3243,
      "tom": 3244,
      "tourn": 3245,
      "1930": 3246,
      "plans": 3247,
      "emer": 3248,
      "earned": 3249,
      "onym": 3250,
      "issued": 3251,
      "corpor": 3252,
      "Dj": 3253,
      "Tex": 3254,
      "ses": 3255,
      "ying": 3256,
      "onto": 3257,
      "ases": 3258,
      "ites": 3259,
      "neg": 3260,
      "vie": 3261,
      "hero": 3262,
      "20th": 3263,
      "overall": 3264,
      "Alkan": 3265,
      "1993": 3266,
      "Second": 3267,
      "industry": 3268,
      "influence": 3269,
      "Polish": 3270,
      "stream": 3271,
      "commented": 3272,
      "Otto": 3273,
      "49": 3274,
      "Fore": 3275,
      "Land": 3276,
      "Liver": 3277,
      "RA": 3278,
      "rat": 3279,
      "dem": 3280,
      "igg": 3281,
      "aging": 3282,
      "serious": 3283,
      "finally": 3284,
      "fully": 3285,
      "books": 3286,
      "Nixon": 3287,
      "Liverpool": 3288,
      "Tay": 3289,
      "kil": 3290,
      "load": 3291,
      "compared": 3292,
      "whole": 3293,
      "greater": 3294,
      "scenes": 3295,
      "network": 3296,
      "Over": 3297,
      "Sar": 3298,
      "Sever": 3299,
      "done": 3300,
      "mig": 3301,
      "unable": 3302,
      "image": 3303,
      "plot": 3304,
      "Its": 3305,
      "Span": 3306,
      "piece": 3307,
      "double": 3308,
      "Ross": 3309,
      "Texas": 3310,
      "Ca": 3311,
      "uk": 3312,
      "erset": 3313,
      "health": 3314,
      "vement": 3315,
      "concert": 3316,
      "ett": 3317,
      "div": 3318,
      "necess": 3319,
      "expected": 3320,
      "mium": 3321,
      "buildings": 3322,
      "Somerset": 3323,
      "Lady": 3324,
      "Fow": 3325,
      "Spe": 3326,
      "Tropical": 3327,
      "gian": 3328,
      "jud": 3329,
      "sus": 3330,
      "yet": 3331,
      "sets": 3332,
      "centre": 3333,
      "Mosley": 3334,
      "Bow": 3335,
      "Cour": 3336,
      "Mil": 3337,
      "Squadron": 3338,
      "bi": 3339,
      "begins": 3340,
      "confl": 3341,
      "living": 3342,
      "actor": 3343,
      "prison": 3344,
      "Studi": 3345,
      "party": 3346,
      "finan": 3347,
      "aily": 3348,
      "1996": 3349,
      "legal": 3350,
      "personal": 3351,
      "rapid": 3352,
      "nucle": 3353,
      "Busch": 3354,
      "300": 3355,
      "Tenn": 3356,
      "purch": 3357,
      "waters": 3358,
      "terms": 3359,
      "ump": 3360,
      "classi": 3361,
      "discover": 3362,
      "3rd": 3363,
      "Lake": 3364,
      "Mart": 3365,
      "cé": 3366,
      "fa": 3367,
      "ency": 3368,
      "mode": 3369,
      "anger": 3370,
      "Christmas": 3371,
      "advant": 3372,
      "movement": 3373,
      "marriage": 3374,
      "status": 3375,
      "sylvan": 3376,
      "Taylor": 3377,
      "Spanish": 3378,
      "Back": 3379,
      "mur": 3380,
      "wing": 3381,
      "ato": 3382,
      "withdraw": 3383,
      "concept": 3384,
      "weight": 3385,
      "mith": 3386,
      "helped": 3387,
      "portray": 3388,
      "screen": 3389,
      "dollar": 3390,
      "Several": 3391,
      "Fowler": 3392,
      "Los": 3393,
      "NC": 3394,
      "Ter": 3395,
      "bs": 3396,
      "batter": 3397,
      "bomb": 3398,
      "sched": 3399,
      "information": 3400,
      "istics": 3401,
      "possess": 3402,
      "Three": 3403,
      "starting": 3404,
      "standard": 3405,
      "sequence": 3406,
      "schools": 3407,
      "join": 3408,
      "African": 3409,
      "traditional": 3410,
      "planned": 3411,
      "suffered": 3412,
      "32": 3413,
      "bad": 3414,
      "ds": 3415,
      "dark": 3416,
      "han": 3417,
      "wound": 3418,
      "escap": 3419,
      "itor": 3420,
      "demand": 3421,
      "Infantry": 3422,
      "bery": 3423,
      "speed": 3424,
      "venue": 3425,
      "giving": 3426,
      "collection": 3427,
      "performances": 3428,
      "activity": 3429,
      "figure": 3430,
      "associated": 3431,
      "inspired": 3432,
      "Jane": 3433,
      "Sam": 3434,
      "pow": 3435,
      "path": 3436,
      "thick": 3437,
      "forts": 3438,
      "ultim": 3439,
      "abandon": 3440,
      "division": 3441,
      "ously": 3442,
      "athan": 3443,
      "regard": 3444,
      "Common": 3445,
      "leaders": 3446,
      "presented": 3447,
      "Sovi": 3448,
      "sembly": 3449,
      "condoms": 3450,
      "source": 3451,
      "Party": 3452,
      "machine": 3453,
      "husband": 3454,
      "inner": 3455,
      "anal": 3456,
      "edge": 3457,
      "bey": 3458,
      "dev": 3459,
      "lock": 3460,
      "presence": 3461,
      "raised": 3462,
      "tracks": 3463,
      "allowing": 3464,
      "greatest": 3465,
      "Soci": 3466,
      "initial": 3467,
      "Series": 3468,
      "expand": 3469,
      "Foot": 3470,
      "companies": 3471,
      "Bob": 3472,
      "Fle": 3473,
      "gal": 3474,
      "pal": 3475,
      "slight": 3476,
      "ering": 3477,
      "unit": 3478,
      "ican": 3479,
      "deb": 3480,
      "suit": 3481,
      "except": 3482,
      "portion": 3483,
      "viewers": 3484,
      "continue": 3485,
      "nearby": 3486,
      "Paris": 3487,
      "Anderson": 3488,
      "Carolina": 3489,
      "education": 3490,
      "document": 3491,
      "Virginia": 3492,
      "sylvania": 3493,
      "Boy": 3494,
      "Gi": 3495,
      "Im": 3496,
      "Live": 3497,
      "Mill": 3498,
      "ding": 3499,
      "fit": 3500,
      "ius": 3501,
      "kick": 3502,
      "ederal": 3503,
      "genus": 3504,
      "cyclone": 3505,
      "44": 3506,
      "Do": 3507,
      "Jam": 3508,
      "Just": 3509,
      "dated": 3510,
      "hundred": 3511,
      "chall": 3512,
      "olk": 3513,
      "confir": 3514,
      "ulated": 3515,
      "composed": 3516,
      "web": 3517,
      "weap": 3518,
      "annual": 3519,
      "complex": 3520,
      "services": 3521,
      "Queen": 3522,
      "College": 3523,
      "76": 3524,
      "Games": 3525,
      "Sha": 3526,
      "Tre": 3527,
      "Vict": 3528,
      "cad": 3529,
      "oncé": 3530,
      "really": 3531,
      "atre": 3532,
      "step": 3533,
      "resc": 3534,
      "abs": 3535,
      "boy": 3536,
      "1997": 3537,
      "numerous": 3538,
      "producer": 3539,
      "polic": 3540,
      "cathedral": 3541,
      "extended": 3542,
      "commander": 3543,
      "figures": 3544,
      "territory": 3545,
      "Beyoncé": 3546,
      "Ottoman": 3547,
      "Ever": 3548,
      "Museum": 3549,
      "Open": 3550,
      "Six": 3551,
      "gas": 3552,
      "park": 3553,
      "things": 3554,
      "iser": 3555,
      "heav": 3556,
      "essa": 3557,
      "Germany": 3558,
      "proteins": 3559,
      "friends": 3560,
      "vocals": 3561,
      "Miami": 3562,
      "enjoy": 3563,
      "Nations": 3564,
      "pson": 3565,
      "rical": 3566,
      "arc": 3567,
      "beat": 3568,
      "something": 3569,
      "ensity": 3570,
      "Meyer": 3571,
      "Club": 3572,
      "stitut": 3573,
      "Jackson": 3574,
      "nuclear": 3575,
      "target": 3576,
      "Sol": 3577,
      "Ty": 3578,
      "ón": 3579,
      "anas": 3580,
      "vey": 3581,
      "Their": 3582,
      "olf": 3583,
      "estival": 3584,
      "gue": 3585,
      "Through": 3586,
      "highly": 3587,
      "Sea": 3588,
      "attacked": 3589,
      "promin": 3590,
      "attempts": 3591,
      "Service": 3592,
      "types": 3593,
      "morning": 3594,
      "strength": 3595,
      "investig": 3596,
      "responsible": 3597,
      "impact": 3598,
      "Ill": 3599,
      "Os": 3600,
      "aspect": 3601,
      "orders": 3602,
      "stra": 3603,
      "dise": 3604,
      "metal": 3605,
      "issues": 3606,
      "Prince": 3607,
      "individual": 3608,
      "immediately": 3609,
      "Pennsylvania": 3610,
      "AI": 3611,
      "Sur": 3612,
      "bid": 3613,
      "pil": 3614,
      "wal": 3615,
      "removed": 3616,
      "ademy": 3617,
      "beer": 3618,
      "uries": 3619,
      "artist": 3620,
      "anta": 3621,
      "owned": 3622,
      "itect": 3623,
      "scoring": 3624,
      "severe": 3625,
      "itting": 3626,
      "distin": 3627,
      "distance": 3628,
      "advan": 3629,
      "situation": 3630,
      "piano": 3631,
      "Che": 3632,
      "Hum": 3633,
      "Nico": 3634,
      "Water": 3635,
      "dig": 3636,
      "hic": 3637,
      "mouth": 3638,
      "inside": 3639,
      "selected": 3640,
      "artillery": 3641,
      "Storm": 3642,
      "variety": 3643,
      "advance": 3644,
      "studies": 3645,
      "Scotland": 3646,
      "needed": 3647,
      "offered": 3648,
      "peaked": 3649,
      "utch": 3650,
      "progress": 3651,
      "Chris": 3652,
      "creation": 3653,
      "means": 3654,
      "1991": 3655,
      "singer": 3656,
      "observ": 3657,
      "Jose": 3658,
      "thens": 3659,
      "headquarters": 3660,
      "countries": 3661,
      "attempted": 3662,
      "copies": 3663,
      "Cross": 3664,
      "Pat": 3665,
      "adium": 3666,
      "oting": 3667,
      "plant": 3668,
      "shire": 3669,
      "focus": 3670,
      "China": 3671,
      "princi": 3672,
      "struction": 3673,
      "casual": 3674,
      "ribution": 3675,
      "horse": 3676,
      "respectively": 3677,
      "MS": 3678,
      "Out": 3679,
      "alo": 3680,
      "itude": 3681,
      "acing": 3682,
      "ili": 3683,
      "cting": 3684,
      "mole": 3685,
      "ousand": 3686,
      "symb": 3687,
      "higher": 3688,
      "appearances": 3689,
      "describes": 3690,
      "rule": 3691,
      "Both": 3692,
      "Major": 3693,
      "widely": 3694,
      "Department": 3695,
      "touchdown": 3696,
      "Crit": 3697,
      "Tem": 3698,
      "hanna": 3699,
      "ti": 3700,
      "andid": 3701,
      "semi": 3702,
      "1992": 3703,
      "observed": 3704,
      "missed": 3705,
      "powerful": 3706,
      "completely": 3707,
      "sexual": 3708,
      "Corps": 3709,
      "Braa": 3710,
      "Football": 3711,
      "heavily": 3712,
      "6th": 3713,
      "Are": 3714,
      "La": 3715,
      "bour": 3716,
      "bank": 3717,
      "crow": 3718,
      "pick": 3719,
      "tic": 3720,
      "xenon": 3721,
      "adult": 3722,
      "below": 3723,
      "managed": 3724,
      "quality": 3725,
      "portun": 3726,
      "1994": 3727,
      "chester": 3728,
      "middle": 3729,
      "meeting": 3730,
      "reduced": 3731,
      "relief": 3732,
      "Alex": 3733,
      "BA": 3734,
      "bon": 3735,
      "cis": 3736,
      "iny": 3737,
      "affected": 3738,
      "sixth": 3739,
      "resulted": 3740,
      "matches": 3741,
      "Like": 3742,
      "Minnes": 3743,
      "ricket": 3744,
      "concluded": 3745,
      "audience": 3746,
      "parents": 3747,
      "Minnesota": 3748,
      "34": 3749,
      "Lan": 3750,
      "Time": 3751,
      "inn": 3752,
      "true": 3753,
      "akapo": 3754,
      "Force": 3755,
      "inkel": 3756,
      "activities": 3757,
      "Offic": 3758,
      "Victor": 3759,
      "Center": 3760,
      "Del": 3761,
      "Hot": 3762,
      "Young": 3763,
      "gain": 3764,
      "stating": 3765,
      "contemporary": 3766,
      "opportun": 3767,
      "award": 3768,
      "words": 3769,
      "Townsend": 3770,
      "revealed": 3771,
      "houses": 3772,
      "Rosebery": 3773,
      "Southern": 3774,
      "Fre": 3775,
      "mile": 3776,
      "rect": 3777,
      "secret": 3778,
      "residents": 3779,
      "opin": 3780,
      "sole": 3781,
      "eway": 3782,
      "vised": 3783,
      "write": 3784,
      "calling": 3785,
      "150": 3786,
      "Colon": 3787,
      "refused": 3788,
      "levels": 3789,
      "declared": 3790,
      "separate": 3791,
      "trees": 3792,
      "viron": 3793,
      "Italian": 3794,
      "Finkel": 3795,
      "Long": 3796,
      "Sto": 3797,
      "Sir": 3798,
      "drew": 3799,
      "eu": 3800,
      "za": 3801,
      "armed": 3802,
      "ado": 3803,
      "aware": 3804,
      "wealth": 3805,
      "drum": 3806,
      "annel": 3807,
      "Because": 3808,
      "1970": 3809,
      "faced": 3810,
      "stitution": 3811,
      "blue": 3812,
      "Walpole": 3813,
      "question": 3814,
      "photo": 3815,
      "Hawai": 3816,
      "Meyerbeer": 3817,
      "Finkelstein": 3818,
      "Dou": 3819,
      "Tessa": 3820,
      "fast": 3821,
      "rated": 3822,
      "spl": 3823,
      "university": 3824,
      "today": 3825,
      "peror": 3826,
      "eval": 3827,
      "grand": 3828,
      "rane": 3829,
      "athus": 3830,
      "offensive": 3831,
      "background": 3832,
      "featuring": 3833,
      "Shiva": 3834,
      "carry": 3835,
      "historical": 3836,
      "typically": 3837,
      "contrast": 3838,
      "Cal": 3839,
      "Cast": 3840,
      "Met": 3841,
      "Smith": 3842,
      "Wel": 3843,
      "Yue": 3844,
      "mes": 3845,
      "paper": 3846,
      "icts": 3847,
      "iron": 3848,
      "odon": 3849,
      "acting": 3850,
      "eves": 3851,
      "conditions": 3852,
      "elected": 3853,
      "hands": 3854,
      "Society": 3855,
      "Nicole": 3856,
      "bing": 3857,
      "rhy": 3858,
      "tax": 3859,
      "reception": 3860,
      "alty": 3861,
      "ros": 3862,
      "becomes": 3863,
      "peace": 3864,
      "excl": 3865,
      "assault": 3866,
      "worth": 3867,
      "attention": 3868,
      "weaken": 3869,
      "mainly": 3870,
      "efforts": 3871,
      "organized": 3872,
      "initi": 3873,
      "sites": 3874,
      "Jim": 3875,
      "Mem": 3876,
      "brown": 3877,
      "rum": 3878,
      "scient": 3879,
      "wear": 3880,
      "chor": 3881,
      "vehic": 3882,
      "log": 3883,
      "prise": 3884,
      "strugg": 3885,
      "charge": 3886,
      "produce": 3887,
      "specim": 3888,
      "controver": 3889,
      "divided": 3890,
      "Highway": 3891,
      "Braathens": 3892,
      "Civ": 3893,
      "Ven": 3894,
      "corn": 3895,
      "mat": 3896,
      "rich": 3897,
      "sail": 3898,
      "sense": 3899,
      "ufact": 3900,
      "incorpor": 3901,
      "isl": 3902,
      "actually": 3903,
      "titles": 3904,
      "Hait": 3905,
      "mentioned": 3906,
      "evolution": 3907,
      "Adam": 3908,
      "Dire": 3909,
      "Nes": 3910,
      "bury": 3911,
      "sci": 3912,
      "roles": 3913,
      "strated": 3914,
      "rend": 3915,
      "color": 3916,
      "cannot": 3917,
      "1990": 3918,
      "seasons": 3919,
      "struck": 3920,
      "Johnson": 3921,
      "defend": 3922,
      "extreme": 3923,
      "combat": 3924,
      "tellig": 3925,
      "Blue": 3926,
      "accepted": 3927,
      "Green": 3928,
      "achieved": 3929,
      "Court": 3930,
      "Illino": 3931,
      "5th": 3932,
      "border": 3933,
      "girl": 3934,
      "hu": 3935,
      "hed": 3936,
      "pul": 3937,
      "winter": 3938,
      "instr": 3939,
      "ils": 3940,
      "Indu": 3941,
      "180": 3942,
      "athlet": 3943,
      "tainment": 3944,
      "tower": 3945,
      "protein": 3946,
      "Portugu": 3947,
      "capture": 3948,
      "vocal": 3949,
      "Vietnam": 3950,
      "practice": 3951,
      "deliver": 3952,
      "Captain": 3953,
      "advantage": 3954,
      "analys": 3955,
      "Portuguese": 3956,
      "4th": 3957,
      "Government": 3958,
      "Jul": 3959,
      "Rad": 3960,
      "Van": 3961,
      "cam": 3962,
      "zer": 3963,
      "thousand": 3964,
      "sec": 3965,
      "lif": 3966,
      "ements": 3967,
      "havi": 3968,
      "fiction": 3969,
      "iving": 3970,
      "finals": 3971,
      "Thunder": 3972,
      "forest": 3973,
      "flank": 3974,
      "ledge": 3975,
      "helm": 3976,
      "Fey": 3977,
      "Academy": 3978,
      "primarily": 3979,
      "Soviet": 3980,
      "Fur": 3981,
      "Prote": 3982,
      "Tod": 3983,
      "Tran": 3984,
      "Up": 3985,
      "cere": 3986,
      "lb": 3987,
      "lers": 3988,
      "push": 3989,
      "paid": 3990,
      "infantry": 3991,
      "spread": 3992,
      "architect": 3993,
      "hood": 3994,
      "1986": 3995,
      "mountain": 3996,
      "twenty": 3997,
      "slightly": 3998,
      "Civil": 3999,
      "Ka": 4000,
      "Ram": 4001,
      "Sal": 4002,
      "pun": 4003,
      "sales": 4004,
      "sister": 4005,
      "vation": 4006,
      "concent": 4007,
      "expressed": 4008,
      "scale": 4009,
      "Engine": 4010,
      "rights": 4011,
      "Spain": 4012,
      "blood": 4013,
      "inches": 4014,
      "extens": 4015,
      "Ben": 4016,
      "Mog": 4017,
      "Ocean": 4018,
      "mist": 4019,
      "wild": 4020,
      "ulpt": 4021,
      "die": 4022,
      "neigh": 4023,
      "clim": 4024,
      "estic": 4025,
      "serve": 4026,
      "preser": 4027,
      "sculpt": 4028,
      "shell": 4029,
      "colour": 4030,
      "transl": 4031,
      "showed": 4032,
      "officer": 4033,
      "protest": 4034,
      "arent": 4035,
      "ceeded": 4036,
      "commissioned": 4037,
      "Horse": 4038,
      "Group": 4039,
      "Louis": 4040,
      "Emp": 4041,
      "Little": 4042,
      "Tint": 4043,
      "Zhou": 4044,
      "nic": 4045,
      "pup": 4046,
      "older": 4047,
      "visions": 4048,
      "themes": 4049,
      "Leg": 4050,
      "Secret": 4051,
      "county": 4052,
      "defense": 4053,
      "battalion": 4054,
      "window": 4055,
      "looking": 4056,
      "combined": 4057,
      "Varanas": 4058,
      "Welsh": 4059,
      "Empire": 4060,
      "Tintin": 4061,
      "Varanasi": 4062,
      "Pit": 4063,
      "bitt": 4064,
      "folk": 4065,
      "nh": 4066,
      "ensi": 4067,
      "sust": 4068,
      "rance": 4069,
      "Though": 4070,
      "iction": 4071,
      "diff": 4072,
      "titled": 4073,
      "Andrew": 4074,
      "cultural": 4075,
      "represented": 4076,
      "Apple": 4077,
      "fruit": 4078,
      "onymous": 4079,
      "casualties": 4080,
      "Nesbitt": 4081,
      "Bol": 4082,
      "Dist": 4083,
      "Oda": 4084,
      "bat": 4085,
      "hi": 4086,
      "ram": 4087,
      "sides": 4088,
      "square": 4089,
      "tation": 4090,
      "ancient": 4091,
      "recomm": 4092,
      "enathus": 4093,
      "alone": 4094,
      "ications": 4095,
      "ems": 4096,
      "avoid": 4097,
      "grass": 4098,
      "spect": 4099,
      "founded": 4100,
      "Form": 4101,
      "continues": 4102,
      "castle": 4103,
      "says": 4104,
      "street": 4105,
      "earliest": 4106,
      "Eva": 4107,
      "Angeles": 4108,
      "excav": 4109,
      "Ceres": 4110,
      "newspaper": 4111,
      "murder": 4112,
      "vironment": 4113,
      "Odaenathus": 4114,
      "42": 4115,
      "9th": 4116,
      "Home": 4117,
      "SR": 4118,
      "Turn": 4119,
      "jun": 4120,
      "thir": 4121,
      "omer": 4122,
      "1920": 4123,
      "artists": 4124,
      "manufact": 4125,
      "Commun": 4126,
      "doing": 4127,
      "maxim": 4128,
      "identified": 4129,
      "pedo": 4130,
      "officially": 4131,
      "places": 4132,
      "northwest": 4133,
      "Book": 4134,
      "resulting": 4135,
      "Francis": 4136,
      "authorities": 4137,
      "influenced": 4138,
      "function": 4139,
      "DuMont": 4140,
      "flooding": 4141,
      "Olympic": 4142,
      "adopted": 4143,
      "Records": 4144,
      "Sarnia": 4145,
      "disease": 4146,
      "ceremon": 4147,
      "Bul": 4148,
      "Dam": 4149,
      "Er": 4150,
      "Fam": 4151,
      "MD": 4152,
      "Tele": 4153,
      "Way": 4154,
      "wa": 4155,
      "alle": 4156,
      "itation": 4157,
      "tru": 4158,
      "18th": 4159,
      "anning": 4160,
      "captain": 4161,
      "reports": 4162,
      "basis": 4163,
      "Simpson": 4164,
      "Illinois": 4165,
      "Bet": 4166,
      "cers": 4167,
      "ker": 4168,
      "repe": 4169,
      "toward": 4170,
      "ulf": 4171,
      "perman": 4172,
      "raid": 4173,
      "letters": 4174,
      "southeast": 4175,
      "Wilhelm": 4176,
      "Manchester": 4177,
      "Week": 4178,
      "broken": 4179,
      "apparent": 4180,
      "soundtrack": 4181,
      "tournament": 4182,
      "Mogad": 4183,
      "7th": 4184,
      "Burn": 4185,
      "Fred": 4186,
      "Pen": 4187,
      "Wash": 4188,
      "kakapo": 4189,
      "rush": 4190,
      "zed": 4191,
      "reign": 4192,
      "encour": 4193,
      "advert": 4194,
      "oppon": 4195,
      "mob": 4196,
      "exhib": 4197,
      "workers": 4198,
      "alongside": 4199,
      "Add": 4200,
      "delay": 4201,
      "osaurus": 4202,
      "torpedo": 4203,
      "occasion": 4204,
      "relatively": 4205,
      "Washington": 4206,
      "Four": 4207,
      "Lar": 4208,
      "Night": 4209,
      "cities": 4210,
      "patter": 4211,
      "yellow": 4212,
      "ono": 4213,
      "edition": 4214,
      "iled": 4215,
      "chair": 4216,
      "otional": 4217,
      "ression": 4218,
      "losing": 4219,
      "attended": 4220,
      "content": 4221,
      "contain": 4222,
      "mechan": 4223,
      "mond": 4224,
      "direction": 4225,
      "popul": 4226,
      "1988": 4227,
      "tried": 4228,
      "Post": 4229,
      "individuals": 4230,
      "narrow": 4231,
      "transferred": 4232,
      "cadmium": 4233,
      "Di": 4234,
      "Oma": 4235,
      "Produ": 4236,
      "farm": 4237,
      "mess": 4238,
      "ovic": 4239,
      "wick": 4240,
      "abama": 4241,
      "umn": 4242,
      "proved": 4243,
      "contact": 4244,
      "Alabama": 4245,
      "effort": 4246,
      "News": 4247,
      "require": 4248,
      "Clark": 4249,
      "royal": 4250,
      "officials": 4251,
      "measure": 4252,
      "dedicated": 4253,
      "surrounding": 4254,
      "physical": 4255,
      "Middle": 4256,
      "determined": 4257,
      "Omaha": 4258,
      "candid": 4259,
      "nast": 4260,
      "union": 4261,
      "atives": 4262,
      "energy": 4263,
      "ises": 4264,
      "height": 4265,
      "opposed": 4266,
      "lives": 4267,
      "couple": 4268,
      "rainfall": 4269,
      "eye": 4270,
      "conflict": 4271,
      "53": 4272,
      "Sen": 4273,
      "restor": 4274,
      "adel": 4275,
      "dete": 4276,
      "uled": 4277,
      "illu": 4278,
      "ishu": 4279,
      "timore": 4280,
      "intensity": 4281,
      "Reception": 4282,
      "follows": 4283,
      "1960s": 4284,
      "designated": 4285,
      "Mean": 4286,
      "shortly": 4287,
      "Perón": 4288,
      "possibly": 4289,
      "Helms": 4290,
      "financial": 4291,
      "Mogadishu": 4292,
      "Fant": 4293,
      "Sch": 4294,
      "bin": 4295,
      "your": 4296,
      "images": 4297,
      "lip": 4298,
      "Innis": 4299,
      "shore": 4300,
      "shape": 4301,
      "osen": 4302,
      "phen": 4303,
      "door": 4304,
      "albums": 4305,
      "1980s": 4306,
      "1940": 4307,
      "1964": 4308,
      "simply": 4309,
      "vention": 4310,
      "society": 4311,
      "Edward": 4312,
      "gradu": 4313,
      "sources": 4314,
      "security": 4315,
      "science": 4316,
      "maximum": 4317,
      "Kent": 4318,
      "iel": 4319,
      "kept": 4320,
      "ores": 4321,
      "uzz": 4322,
      "voy": 4323,
      "revol": 4324,
      "oft": 4325,
      "behavi": 4326,
      "comedy": 4327,
      "Independ": 4328,
      "emphas": 4329,
      "ordin": 4330,
      "serving": 4331,
      "spot": 4332,
      "dissip": 4333,
      "visited": 4334,
      "phil": 4335,
      "orses": 4336,
      "Assembly": 4337,
      "Demo": 4338,
      "successfully": 4339,
      "Histor": 4340,
      "potential": 4341,
      "journal": 4342,
      "necessary": 4343,
      "Joseph": 4344,
      "Jour": 4345,
      "Jup": 4346,
      "ares": 4347,
      "dress": 4348,
      "kes": 4349,
      "kare": 4350,
      "nown": 4351,
      "sac": 4352,
      "wen": 4353,
      "rem": 4354,
      "seek": 4355,
      "igan": 4356,
      "movie": 4357,
      "boat": 4358,
      "Commission": 4359,
      "systems": 4360,
      "buried": 4361,
      "pieces": 4362,
      "spirit": 4363,
      "argued": 4364,
      "pounds": 4365,
      "McCall": 4366,
      "Fleet": 4367,
      "46": 4368,
      "Bu": 4369,
      "happ": 4370,
      "rating": 4371,
      "heart": 4372,
      "ada": 4373,
      "shap": 4374,
      "boats": 4375,
      "guest": 4376,
      "Argent": 4377,
      "suppl": 4378,
      "passes": 4379,
      "depth": 4380,
      "domestic": 4381,
      "grew": 4382,
      "suggests": 4383,
      "authority": 4384,
      "management": 4385,
      "projects": 4386,
      "Hamels": 4387,
      "PlayStation": 4388,
      "Rihanna": 4389,
      "Baltimore": 4390,
      "600": 4391,
      "Dest": 4392,
      "dro": 4393,
      "dut": 4394,
      "gained": 4395,
      "museum": 4396,
      "paint": 4397,
      "rub": 4398,
      "wave": 4399,
      "inth": 4400,
      "unique": 4401,
      "entrance": 4402,
      "belong": 4403,
      "consecut": 4404,
      "twice": 4405,
      "weak": 4406,
      "rence": 4407,
      "phy": 4408,
      "Conf": 4409,
      "legisl": 4410,
      "causing": 4411,
      "placement": 4412,
      "letter": 4413,
      "cases": 4414,
      "structures": 4415,
      "frag": 4416,
      "criticized": 4417,
      "invas": 4418,
      "Valley": 4419,
      "Bowl": 4420,
      "ultimately": 4421,
      "website": 4422,
      "65": 4423,
      "Cra": 4424,
      "cat": 4425,
      "fung": 4426,
      "hill": 4427,
      "vince": 4428,
      "edkare": 4429,
      "oud": 4430,
      "verted": 4431,
      "propos": 4432,
      "neut": 4433,
      "share": 4434,
      "extra": 4435,
      "containing": 4436,
      "condition": 4437,
      "vessel": 4438,
      "results": 4439,
      "Palest": 4440,
      "debuted": 4441,
      "doub": 4442,
      "homes": 4443,
      "Djedkare": 4444,
      "negative": 4445,
      "Jupiter": 4446,
      "Der": 4447,
      "Dis": 4448,
      "Def": 4449,
      "Mass": 4450,
      "Writ": 4451,
      "big": 4452,
      "kg": 4453,
      "smo": 4454,
      "spring": 4455,
      "chief": 4456,
      "chosen": 4457,
      "deploy": 4458,
      "artic": 4459,
      "actors": 4460,
      "premi": 4461,
      "foreign": 4462,
      "obtain": 4463,
      "hospital": 4464,
      "1947": 4465,
      "Constant": 4466,
      "passing": 4467,
      "Short": 4468,
      "defence": 4469,
      "defensive": 4470,
      "battles": 4471,
      "favour": 4472,
      "Torres": 4473,
      "wounded": 4474,
      "51": 4475,
      "DV": 4476,
      "Horn": 4477,
      "Hib": 4478,
      "Kore": 4479,
      "Lis": 4480,
      "ert": 4481,
      "rejected": 4482,
      "else": 4483,
      "brigade": 4484,
      "bute": 4485,
      "normal": 4486,
      "plement": 4487,
      "reaching": 4488,
      "reference": 4489,
      "graphic": 4490,
      "holds": 4491,
      "Eastern": 4492,
      "growing": 4493,
      "borough": 4494,
      "mounted": 4495,
      "animal": 4496,
      "connected": 4497,
      "granted": 4498,
      "abandoned": 4499,
      "prominent": 4500,
      "consecutive": 4501,
      "DVD": 4502,
      "64": 4503,
      "Kh": 4504,
      "Ly": 4505,
      "Sil": 4506,
      "Tru": 4507,
      "ban": 4508,
      "din": 4509,
      "eigh": 4510,
      "fish": 4511,
      "ging": 4512,
      "beach": 4513,
      "quake": 4514,
      "iple": 4515,
      "Ann": 4516,
      "temple": 4517,
      "aired": 4518,
      "colony": 4519,
      "Once": 4520,
      "saur": 4521,
      "calls": 4522,
      "therefore": 4523,
      "1941": 4524,
      "operated": 4525,
      "organization": 4526,
      "claims": 4527,
      "cells": 4528,
      "currently": 4529,
      "Scottish": 4530,
      "Forest": 4531,
      "confirmed": 4532,
      "analysis": 4533,
      "Applewhite": 4534,
      "Bank": 4535,
      "Cre": 4536,
      "cies": 4537,
      "alleg": 4538,
      "model": 4539,
      "Chap": 4540,
      "iana": 4541,
      "phia": 4542,
      "regions": 4543,
      "singles": 4544,
      "seconds": 4545,
      "1987": 4546,
      "student": 4547,
      "broke": 4548,
      "Airport": 4549,
      "independent": 4550,
      "symbol": 4551,
      "adelphia": 4552,
      "43": 4553,
      "GA": 4554,
      "Isa": 4555,
      "Pop": 4556,
      "Ra": 4557,
      "ahead": 4558,
      "bud": 4559,
      "bishop": 4560,
      "eth": 4561,
      "intellig": 4562,
      "enemy": 4563,
      "ingu": 4564,
      "ilies": 4565,
      "advent": 4566,
      "chance": 4567,
      "imony": 4568,
      "Institute": 4569,
      "fox": 4570,
      "gency": 4571,
      "1970s": 4572,
      "famous": 4573,
      "controlled": 4574,
      "solo": 4575,
      "versions": 4576,
      "explained": 4577,
      "planet": 4578,
      "collabor": 4579,
      "nominated": 4580,
      "seems": 4581,
      "install": 4582,
      "Egyptian": 4583,
      "temperature": 4584,
      "equipment": 4585,
      "moment": 4586,
      "Background": 4587,
      "95": 4588,
      "BBC": 4589,
      "Baby": 4590,
      "Due": 4591,
      "FE": 4592,
      "Gall": 4593,
      "Greek": 4594,
      "Kar": 4595,
      "branch": 4596,
      "greg": 4597,
      "lane": 4598,
      "males": 4599,
      "tank": 4600,
      "resol": 4601,
      "prop": 4602,
      "foc": 4603,
      "ultural": 4604,
      "osop": 4605,
      "newly": 4606,
      "element": 4607,
      "1984": 4608,
      "1989": 4609,
      "Before": 4610,
      "1972": 4611,
      "laid": 4612,
      "returning": 4613,
      "supporting": 4614,
      "growth": 4615,
      "knowledge": 4616,
      "problem": 4617,
      "SAFE": 4618,
      "freeway": 4619,
      "selling": 4620,
      "prepared": 4621,
      "Croatia": 4622,
      "Further": 4623,
      "Bir": 4624,
      "CA": 4625,
      "Card": 4626,
      "Each": 4627,
      "Lew": 4628,
      "Lock": 4629,
      "Ob": 4630,
      "Sky": 4631,
      "ec": 4632,
      "fair": 4633,
      "lap": 4634,
      "mic": 4635,
      "mical": 4636,
      "ror": 4637,
      "tur": 4638,
      "eds": 4639,
      "rear": 4640,
      "repair": 4641,
      "arms": 4642,
      "unknown": 4643,
      "tomb": 4644,
      "uten": 4645,
      "fired": 4646,
      "interpre": 4647,
      "mind": 4648,
      "address": 4649,
      "1985": 4650,
      "pursu": 4651,
      "Mike": 4652,
      "employed": 4653,
      "increasingly": 4654,
      "literature": 4655,
      "Operation": 4656,
      "Big": 4657,
      "Field": 4658,
      "HMS": 4659,
      "fres": 4660,
      "ires": 4661,
      "rative": 4662,
      "tun": 4663,
      "tact": 4664,
      "theory": 4665,
      "edar": 4666,
      "environment": 4667,
      "agan": 4668,
      "tex": 4669,
      "trail": 4670,
      "commonly": 4671,
      "Anth": 4672,
      "speak": 4673,
      "writes": 4674,
      "views": 4675,
      "ideas": 4676,
      "1960": 4677,
      "Cardiff": 4678,
      "council": 4679,
      "breeding": 4680,
      "Barrow": 4681,
      "historian": 4682,
      "believe": 4683,
      "burns": 4684,
      "settlement": 4685,
      "120": 4686,
      "Abu": 4687,
      "Ox": 4688,
      "Public": 4689,
      "Sum": 4690,
      "cricket": 4691,
      "mort": 4692,
      "oil": 4693,
      "pack": 4694,
      "atmo": 4695,
      "stations": 4696,
      "stood": 4697,
      "arrest": 4698,
      "shif": 4699,
      "perfect": 4700,
      "herself": 4701,
      "Child": 4702,
      "singing": 4703,
      "Only": 4704,
      "More": 4705,
      "1944": 4706,
      "roads": 4707,
      "servation": 4708,
      "prompt": 4709,
      "females": 4710,
      "Michigan": 4711,
      "experienced": 4712,
      "Philadelphia": 4713,
      "consisted": 4714,
      "property": 4715,
      "economic": 4716,
      "advanced": 4717,
      "atmosp": 4718,
      "96": 4719,
      "Even": 4720,
      "Far": 4721,
      "Jon": 4722,
      "NH": 4723,
      "Never": 4724,
      "Vide": 4725,
      "hang": 4726,
      "master": 4727,
      "ras": 4728,
      "yle": 4729,
      "alions": 4730,
      "deities": 4731,
      "umber": 4732,
      "intensi": 4733,
      "ranged": 4734,
      "weather": 4735,
      "1990s": 4736,
      "parliament": 4737,
      "Origin": 4738,
      "failure": 4739,
      "Keats": 4740,
      "Mounted": 4741,
      "Swed": 4742,
      "dropped": 4743,
      "maintained": 4744,
      "happen": 4745,
      "kilomet": 4746,
      "Meanwhile": 4747,
      "Dutch": 4748,
      "Rol": 4749,
      "cin": 4750,
      "dates": 4751,
      "glo": 4752,
      "rise": 4753,
      "sand": 4754,
      "tav": 4755,
      "arrang": 4756,
      "rie": 4757,
      "elim": 4758,
      "oppos": 4759,
      "loy": 4760,
      "landfall": 4761,
      "serves": 4762,
      "awards": 4763,
      "compar": 4764,
      "evil": 4765,
      "Album": 4766,
      "filmed": 4767,
      "ologist": 4768,
      "leader": 4769,
      "risk": 4770,
      "killing": 4771,
      "strike": 4772,
      "popularity": 4773,
      "flying": 4774,
      "honor": 4775,
      "collap": 4776,
      "injury": 4777,
      "pitched": 4778,
      "frequently": 4779,
      "Addition": 4780,
      "Nathan": 4781,
      "Slam": 4782,
      "Tu": 4783,
      "bul": 4784,
      "cited": 4785,
      "horses": 4786,
      "tional": 4787,
      "wit": 4788,
      "thr": 4789,
      "aling": 4790,
      "adem": 4791,
      "usual": 4792,
      "exped": 4793,
      "actress": 4794,
      "Italy": 4795,
      "retired": 4796,
      "families": 4797,
      "value": 4798,
      "km2": 4799,
      "promoted": 4800,
      "humans": 4801,
      "Steve": 4802,
      "Andy": 4803,
      "launch": 4804,
      "urban": 4805,
      "phase": 4806,
      "belief": 4807,
      "Premi": 4808,
      "rapidly": 4809,
      "battery": 4810,
      "weapons": 4811,
      "nasty": 4812,
      "budget": 4813,
      "Ali": 4814,
      "Good": 4815,
      "Tim": 4816,
      "federal": 4817,
      "pict": 4818,
      "decre": 4819,
      "imag": 4820,
      "resist": 4821,
      "Head": 4822,
      "creating": 4823,
      "Americans": 4824,
      "description": 4825,
      "Conference": 4826,
      "marks": 4827,
      "promotion": 4828,
      "publication": 4829,
      "organis": 4830,
      "Minister": 4831,
      "cougar": 4832,
      "significantly": 4833,
      "suffic": 4834,
      "religion": 4835,
      "recognized": 4836,
      "multiple": 4837,
      "straight": 4838,
      "invasion": 4839,
      "Cy": 4840,
      "Fl": 4841,
      "Line": 4842,
      "Mort": 4843,
      "Pan": 4844,
      "SP": 4845,
      "Sor": 4846,
      "data": 4847,
      "matter": 4848,
      "sought": 4849,
      "asure": 4850,
      "iles": 4851,
      "oms": 4852,
      "lying": 4853,
      "chose": 4854,
      "prot": 4855,
      "attend": 4856,
      "regarded": 4857,
      "ify": 4858,
      "producers": 4859,
      "highlight": 4860,
      "publish": 4861,
      "Develop": 4862,
      "volume": 4863,
      "domin": 4864,
      "restaur": 4865,
      "allows": 4866,
      "asket": 4867,
      "Max": 4868,
      "seventh": 4869,
      "agreement": 4870,
      "walls": 4871,
      "Final": 4872,
      "strengthen": 4873,
      "haps": 4874,
      "scheduled": 4875,
      "aspects": 4876,
      "Video": 4877,
      "56": 4878,
      "Cle": 4879,
      "Jef": 4880,
      "Si": 4881,
      "Ve": 4882,
      "cust": 4883,
      "catch": 4884,
      "tend": 4885,
      "tree": 4886,
      "theless": 4887,
      "reaction": 4888,
      "iced": 4889,
      "accompan": 4890,
      "agric": 4891,
      "agement": 4892,
      "landing": 4893,
      "ached": 4894,
      "crete": 4895,
      "1981": 4896,
      "starts": 4897,
      "industri": 4898,
      "namese": 4899,
      "Vietnamese": 4900,
      "Congress": 4901,
      "filled": 4902,
      "nucleus": 4903,
      "sustained": 4904,
      "41": 4905,
      "Gulf": 4906,
      "Hart": 4907,
      "Haven": 4908,
      "Op": 4909,
      "fought": 4910,
      "labor": 4911,
      "tin": 4912,
      "uan": 4913,
      "altar": 4914,
      "isy": 4915,
      "lection": 4916,
      "beaut": 4917,
      "otes": 4918,
      "rival": 4919,
      "strate": 4920,
      "Stan": 4921,
      "computer": 4922,
      "note": 4923,
      "miner": 4924,
      "izing": 4925,
      "simple": 4926,
      "Among": 4927,
      "Cambodi": 4928,
      "occupied": 4929,
      "scholar": 4930,
      "Thunderbirds": 4931,
      "philosop": 4932,
      "55": 4933,
      "Ath": 4934,
      "Ban": 4935,
      "Eli": 4936,
      "Greg": 4937,
      "Mat": 4938,
      "Men": 4939,
      "gather": 4940,
      "govern": 4941,
      "nur": 4942,
      "onom": 4943,
      "oration": 4944,
      "outer": 4945,
      "aine": 4946,
      "emb": 4947,
      "afety": 4948,
      "firm": 4949,
      "awa": 4950,
      "contained": 4951,
      "guan": 4952,
      "underground": 4953,
      "supply": 4954,
      "trial": 4955,
      "1939": 4956,
      "facilities": 4957,
      "teenth": 4958,
      "victim": 4959,
      "drive": 4960,
      "virt": 4961,
      "Athlet": 4962,
      "Dun": 4963,
      "Down": 4964,
      "Festival": 4965,
      "Gord": 4966,
      "Nich": 4967,
      "Naz": 4968,
      "Pho": 4969,
      "Revolution": 4970,
      "fat": 4971,
      "gree": 4972,
      "task": 4973,
      "recon": 4974,
      "ening": 4975,
      "stages": 4976,
      "degree": 4977,
      "composition": 4978,
      "contributed": 4979,
      "save": 4980,
      "insula": 4981,
      "17th": 4982,
      "1942": 4983,
      "clean": 4984,
      "collected": 4985,
      "reflect": 4986,
      "improve": 4987,
      "executive": 4988,
      "bottom": 4989,
      "Oxford": 4990,
      "Gordon": 4991,
      "Nichol": 4992,
      "130": 4993,
      "8th": 4994,
      "97": 4995,
      "Den": 4996,
      "Friend": 4997,
      "NBA": 4998,
      "bb": 4999,
      "cu": 5000,
      "cake": 5001,
      "1918": 5002,
      "moves": 5003,
      "extr": 5004,
      "illo": 5005,
      "owners": 5006,
      "ween": 5007,
      "minim": 5008,
      "angers": 5009,
      "Coast": 5010,
      "opera": 5011,
      "Juan": 5012,
      "fields": 5013,
      "kills": 5014,
      "effective": 5015,
      "missions": 5016,
      "animals": 5017,
      "entirely": 5018,
      "sports": 5019,
      "improved": 5020,
      "subsequent": 5021,
      "multi": 5022,
      "1950s": 5023,
      "Entertainment": 5024,
      "Studios": 5025,
      "beyond": 5026,
      "Turner": 5027,
      "Between": 5028,
      "shaped": 5029,
      "Crazy": 5030,
      "utenant": 5031,
      "Premier": 5032,
      "94": 5033,
      "Fish": 5034,
      "Mario": 5035,
      "PA": 5036,
      "Ru": 5037,
      "Ry": 5038,
      "oth": 5039,
      "var": 5040,
      "thur": 5041,
      "edding": 5042,
      "atop": 5043,
      "stock": 5044,
      "icip": 5045,
      "plat": 5046,
      "umes": 5047,
      "train": 5048,
      "coal": 5049,
      "notable": 5050,
      "finish": 5051,
      "disp": 5052,
      "Alli": 5053,
      "Arthur": 5054,
      "draft": 5055,
      "sses": 5056,
      "medical": 5057,
      "capable": 5058,
      "ropium": 5059,
      "1968": 5060,
      "1969": 5061,
      "Boise": 5062,
      "Boston": 5063,
      "ashion": 5064,
      "gives": 5065,
      "finding": 5066,
      "Muslim": 5067,
      "Williams": 5068,
      "gradually": 5069,
      "recently": 5070,
      "responded": 5071,
      "Today": 5072,
      "extensive": 5073,
      "Lewis": 5074,
      "kilometres": 5075,
      "700": 5076,
      "Cold": 5077,
      "Chel": 5078,
      "Gard": 5079,
      "Governor": 5080,
      "Jain": 5081,
      "Well": 5082,
      "egg": 5083,
      "thew": 5084,
      "assu": 5085,
      "iments": 5086,
      "aret": 5087,
      "astic": 5088,
      "antimony": 5089,
      "icks": 5090,
      "secondary": 5091,
      "1975": 5092,
      "headed": 5093,
      "distingu": 5094,
      "Class": 5095,
      "People": 5096,
      "apping": 5097,
      "historic": 5098,
      "programs": 5099,
      "Russian": 5100,
      "Martin": 5101,
      "expanded": 5102,
      "CE": 5103,
      "Han": 5104,
      "Jes": 5105,
      "Lie": 5106,
      "Rail": 5107,
      "Upon": 5108,
      "hunt": 5109,
      "sort": 5110,
      "unte": 5111,
      "stable": 5112,
      "isol": 5113,
      "items": 5114,
      "heard": 5115,
      "ental": 5116,
      "irls": 5117,
      "conve": 5118,
      "ria": 5119,
      "centuries": 5120,
      "presents": 5121,
      "display": 5122,
      "Cole": 5123,
      "12th": 5124,
      "1965": 5125,
      "1974": 5126,
      "southwest": 5127,
      "campus": 5128,
      "finds": 5129,
      "Magazine": 5130,
      "Philip": 5131,
      "System": 5132,
      "goti": 5133,
      "Evita": 5134,
      "possibility": 5135,
      "Turk": 5136,
      "Democr": 5137
    },
    "merges": [
      "t h",
      "i n",
      "th e",
      "a n",
      "e r",
      "o n",
      "e d",
      "r e",
      "u n",
      "a t",
      "o r",
      "e n",
      "s t",
      "a l",
      "a r",
      "o f",
      "an d",
      "a s",
      "un k",
      "i s",
      "e s",
      "t o",
      "in g",
      "i t",
      "i c",
      "r o",
      "i on",
      "h e",
      "l e",
      "o u",
      "a c",
      "en t",
      "i l",
      "s e",
      "a d",
      "a m",
      "o m",
      "b e",
      "l y",
      "w as",
      "f or",
      "c h",
      "u r",
      "v e",
      "d e",
      "T he",
      "i r",
      "o l",
      "- @",
      "@ -@",
      "i m",
      "w h",
      "v er",
      "o w",
      "i g",
      "w i",
      "t er",
      "c e",
      "a y",
      "th at",
      "wi th",
      "c on",
      "at ion",
      "c t",
      "a g",
      "b y",
      "t e",
      "i d",
      "u s",
      "o t",
      "r i",
      "u l",
      "e l",
      "1 9",
      "a p",
      "re s",
      "er e",
      "a in",
      "ro m",
      "c om",
      "e t",
      "o p",
      "p l",
      "h is",
      "u t",
      "0 0",
      "m o",
      "s u",
      "al l",
      "a b",
      "a re",
      "er s",
      "u m",
      "l i",
      "the r",
      "f rom",
      "p ro",
      "p e",
      "d i",
      "I n",
      "n e",
      "s h",
      "un d",
      "c l",
      "at e",
      "p o",
      "t r",
      "ar t",
      "w ere",
      "e m",
      "s o",
      "on g",
      "ig h",
      "e x",
      "e st",
      "i es",
      "l d",
      "i st",
      "ic h",
      "il l",
      "a k",
      "a st",
      "is h",
      "ar d",
      "g h",
      "am e",
      "b er",
      "l o",
      "or t",
      "c o",
      "o d",
      "at ed",
      "it y",
      "an t",
      "p er",
      "f e",
      "i ve",
      "m ent",
      "m an",
      "ou t",
      "h ad",
      "q u",
      "es s",
      "e ar",
      "ac k",
      "on e",
      "v i",
      "t w",
      "en d",
      "wh ich",
      "or d",
      "ou r",
      "h a",
      "n ot",
      "u p",
      "a f",
      "b ut",
      "g e",
      "r it",
      "st r",
      "f o",
      "al ly",
      "in e",
      "it s",
      "s i",
      "ac t",
      "c i",
      "igh t",
      "f ir",
      "h er",
      "C h",
      "ar y",
      "2 00",
      "u d",
      "ow n",
      "d u",
      "v ed",
      "b o",
      "2 0",
      "p r",
      "a v",
      "o ver",
      "p ort",
      "the ir",
      "as s",
      "l and",
      "i p",
      "e w",
      "i an",
      "S t",
      "fir st",
      "ou s",
      "ac h",
      "ou ld",
      "e p",
      "ic al",
      "w or",
      "f ic",
      "o ther",
      "ag e",
      "al so",
      "l ow",
      "un t",
      "it ion",
      "s er",
      "t im",
      "h as",
      "for m",
      "ct ion",
      "at er",
      "u b",
      "ig n",
      "a u",
      "p t",
      "a w",
      "com p",
      "l l",
      "u re",
      "e v",
      "ha ve",
      "pl ay",
      "at t",
      "in t",
      "wh o",
      "1 8",
      "i a",
      "k e",
      "H e",
      "i v",
      "c re",
      "po s",
      "be en",
      "om e",
      "g r",
      "tw o",
      "p art",
      "n o",
      "s p",
      ". @",
      "@ .@",
      "en ce",
      "con t",
      "ur ing",
      "g u",
      "ou gh",
      "re e",
      "c ent",
      "r an",
      "p res",
      "o k",
      "th is",
      "d es",
      "or y",
      "I t",
      "i le",
      "o c",
      "m e",
      "the y",
      "y ear",
      "ad e",
      "20 1",
      "f in",
      "af ter",
      "d is",
      "com m",
      "ul t",
      "it e",
      "c ord",
      "p re",
      "an s",
      "ve l",
      "f er",
      "ro u",
      "T h",
      "f i",
      "w e",
      "in cl",
      "re n",
      ", @",
      "@ ,@",
      "A n",
      "u e",
      "el l",
      "e ver",
      "wor k",
      "o s",
      "ur n",
      "ation s",
      "ac e",
      "tim e",
      "r a",
      "m er",
      "r ic",
      "ar k",
      "in to",
      "s c",
      "mo re",
      "rou gh",
      "ab le",
      "i al",
      "U n",
      "c ed",
      "s pe",
      "mo st",
      "s ion",
      "sh ip",
      "an y",
      "an ce",
      "te m",
      "ol d",
      "s he",
      "w ould",
      "h im",
      "as on",
      "c es",
      "con d",
      "m ain",
      "g ro",
      "us ed",
      "am p",
      "r ed",
      "in ter",
      "it ed",
      "ct ed",
      "ic e",
      "as ed",
      "be c",
      "A l",
      "incl ud",
      "fo re",
      "b r",
      "th ough",
      "c k",
      "er n",
      "f l",
      "a th",
      "ing s",
      "m in",
      "ne w",
      "g an",
      "t en",
      "il d",
      "w ay",
      "m on",
      "on ly",
      "s ong",
      "ub l",
      "wh en",
      "c ess",
      "ak e",
      "i z",
      "i e",
      "A u",
      "und er",
      "a ir",
      "v is",
      "R o",
      "at es",
      "as e",
      "ent s",
      "the m",
      "al s",
      "b u",
      "d uring",
      "t s",
      "a il",
      "p h",
      "ion s",
      "ar ch",
      "re g",
      "g ame",
      "g o",
      "t ed",
      "il m",
      "in d",
      "an g",
      "e en",
      "c ol",
      "w ard",
      "l es",
      "o g",
      "E n",
      "A r",
      "ol low",
      "c an",
      "19 9",
      "ab out",
      "re t",
      "n or",
      "s on",
      "d ay",
      "ou th",
      "se ason",
      "s ome",
      "r y",
      "th an",
      "k n",
      "w rit",
      "b le",
      "wh ile",
      "ag ain",
      "l ar",
      "g en",
      "s y",
      "th ree",
      "s ing",
      "o b",
      "i f",
      "or s",
      "O n",
      "str u",
      "e f",
      "ch ar",
      "be tw",
      "betw een",
      "re cord",
      "J o",
      "n um",
      "wh ere",
      "pro du",
      "ation al",
      "th rough",
      "R e",
      "ul ar",
      "c r",
      "W h",
      "d r",
      "en s",
      "ic k",
      "l ater",
      "l ed",
      "re le",
      "C om",
      "i ver",
      "f ilm",
      "vi ew",
      "A f",
      "an n",
      "am es",
      "t y",
      "er ed",
      "f ul",
      "m ade",
      "ish ed",
      "u st",
      "m i",
      "se t",
      "s a",
      "the n",
      "con s",
      "e le",
      "re l",
      "N ew",
      "d o",
      "A s",
      "r on",
      "A mer",
      "Amer ic",
      "ur y",
      "1 0",
      "c all",
      "b um",
      "i re",
      "ro w",
      "of f",
      "m y",
      "f ollow",
      "ic t",
      "ap pe",
      "s s",
      "00 0",
      "h igh",
      "su ch",
      "se cond",
      "at ing",
      "se l",
      "m ed",
      "su b",
      "f our",
      "o se",
      "p ubl",
      "t on",
      "L e",
      "c ap",
      "T his",
      "v ing",
      "c ri",
      "w ell",
      "ter s",
      ". .",
      "al bum",
      "be fore",
      "ar i",
      "A t",
      "m a",
      "c ur",
      "m us",
      "il y",
      "ro p",
      "be ing",
      "b ack",
      "s ur",
      "j e",
      "ur ch",
      "u al",
      "year s",
      "1 6",
      "su p",
      "lo c",
      "v en",
      "the re",
      "En g",
      "ow ever",
      "N o",
      "appe ar",
      "he l",
      "ar ri",
      "man y",
      "ic s",
      "u se",
      "fo und",
      "in s",
      "n ing",
      "l ong",
      "num ber",
      "C o",
      "ser ies",
      "D e",
      "1 2",
      "ad d",
      "li ke",
      "si de",
      "at ive",
      "au se",
      "vel op",
      "m ber",
      "po int",
      "in ce",
      "re at",
      "ir d",
      "1 7",
      "N or",
      "M o",
      "bo th",
      "an e",
      "se ver",
      "p ar",
      "it ies",
      "d er",
      "1 5",
      "ch o",
      "f t",
      "includ ing",
      "ce pt",
      "ep is",
      "a ve",
      "B rit",
      "h o",
      "di re",
      "al e",
      "again st",
      "kn own",
      "ig in",
      "bec ame",
      "l ine",
      "p op",
      "u ary",
      "h n",
      "o und",
      "char ac",
      "o y",
      "fe at",
      "I I",
      "es e",
      "19 8",
      "di f",
      "d own",
      "co ver",
      "el d",
      "ment s",
      "des cri",
      "id ent",
      "Un ited",
      "e k",
      "t ain",
      "en g",
      "at ch",
      "on d",
      "te am",
      "Jo hn",
      "3 0",
      "su c",
      "de velop",
      "tr ans",
      "ol og",
      "cent ury",
      "is e",
      "Af ter",
      "per i",
      "o de",
      "sh ow",
      "or igin",
      "le ad",
      "B r",
      "c er",
      "p ed",
      "cont in",
      "ci al",
      "u res",
      "st ar",
      "of fic",
      "h ist",
      "call ed",
      "i de",
      "un g",
      "st or",
      "19 4",
      "b ed",
      "m em",
      "l ack",
      "m ill",
      "c le",
      "w est",
      "sever al",
      "op er",
      "u ch",
      "comp le",
      "l an",
      "s ign",
      "be gan",
      "19 6",
      "b all",
      "m ay",
      "B e",
      "19 7",
      "C on",
      "v es",
      "ro ad",
      "de c",
      "is ed",
      "p ol",
      "re main",
      "u ally",
      "s m",
      "ne ar",
      "ear ly",
      "he ad",
      "pres ent",
      "c ould",
      "c rit",
      "S he",
      "d id",
      "i fic",
      "r un",
      "epis ode",
      "er al",
      "w ar",
      "l a",
      "p le",
      "end ed",
      "je ct",
      "un e",
      "st e",
      "d am",
      "re ce",
      "op le",
      "sel f",
      "al ong",
      "lar ge",
      "n am",
      "spe c",
      "W or",
      "tr y",
      "res s",
      "o re",
      "sa id",
      "Americ an",
      "suc cess",
      "v id",
      "the se",
      "F or",
      "i th",
      "gu st",
      "ak ing",
      "M ay",
      "m il",
      "pos ition",
      "op en",
      "M ar",
      "m s",
      "p or",
      "p ass",
      "de p",
      "st em",
      "Brit ish",
      "m et",
      "le y",
      "ers on",
      "S h",
      "unt il",
      "W ar",
      "f am",
      "le g",
      "n ow",
      "rele ased",
      "st art",
      "c ity",
      "in es",
      "o od",
      "G er",
      "mus ic",
      "s ame",
      "to w",
      "v al",
      "S e",
      "ther n",
      "i ved",
      "ret urn",
      "C ar",
      "The y",
      "5 0",
      "g g",
      "k m",
      "c y",
      "are a",
      "des ign",
      "r u",
      "j or",
      "mill ion",
      "t ri",
      "or n",
      "st ate",
      "bec ause",
      "m is",
      "c a",
      "a ther",
      "form ed",
      "x t",
      "e ach",
      "s im",
      "pl ac",
      "Au gust",
      "1 4",
      "in k",
      "over n",
      "ri st",
      "com e",
      "v ol",
      "h y",
      "fe ct",
      "re ad",
      "vi de",
      "li fe",
      "pe ople",
      "1 3",
      "e ast",
      "ow er",
      "gr ap",
      "S ep",
      "ro ss",
      "cho ol",
      "J u",
      "n ational",
      "ser v",
      "c ar",
      "sup port",
      "si x",
      "co un",
      "i o",
      "ar ound",
      "le t",
      "str al",
      "H owever",
      "it t",
      "i b",
      "gro up",
      "I s",
      "is ion",
      "ro te",
      "fi eld",
      "nor th",
      "iz ed",
      "B o",
      "att ack",
      "li st",
      "ou se",
      "tem ber",
      "Sep tember",
      "cons id",
      "F e",
      "sm all",
      "di st",
      "bo ok",
      "follow ing",
      "m en",
      "charac ter",
      "contin u",
      "l ight",
      "w ill",
      "l ess",
      "m ark",
      "Wor ld",
      "ur ed",
      "en n",
      "pro te",
      "cont ro",
      "E u",
      "as h",
      "Au stral",
      "to p",
      "ver y",
      "f ive",
      "s ou",
      "l ate",
      "w in",
      "res ult",
      "gro und",
      "v ent",
      "al es",
      "l ish",
      "d om",
      "re qu",
      "g et",
      "wh at",
      "s ol",
      "cord ing",
      "t it",
      "st and",
      "an k",
      "ag ue",
      "re st",
      "tr ack",
      "iver s",
      "C ol",
      "re port",
      "U S",
      "a im",
      "ur al",
      "b ers",
      "a z",
      "od y",
      "vis ion",
      "J une",
      "re ach",
      "Nor th",
      "play ed",
      "ag ed",
      "ir ed",
      "fin al",
      "i ed",
      "ct or",
      "bu ild",
      "we ek",
      "l ast",
      "p on",
      "H er",
      "n ame",
      "v ari",
      "at ter",
      "co unt",
      "i ous",
      "F ran",
      "overn ment",
      "all ow",
      "c he",
      "p rom",
      "sy stem",
      "1 1",
      "g un",
      "s ince",
      "St ates",
      "O c",
      "spec ies",
      "c are",
      "publ ic",
      "t al",
      "s outh",
      "rece ived",
      "om an",
      "de f",
      "ist s",
      "ma jor",
      "0 s",
      "as k",
      "to ok",
      "W il",
      "c our",
      "g y",
      "J an",
      "ate ly",
      "so ci",
      "ev en",
      "c ut",
      "oc k",
      "in ed",
      "ch ild",
      "part ic",
      "S outh",
      "w on",
      "2 5",
      "ag es",
      "b att",
      "ain ed",
      "Ch rist",
      "K ing",
      "ap pro",
      "fi ed",
      "ward s",
      "descri bed",
      "c ast",
      "to ber",
      "Oc tober",
      "wor ld",
      "pl ace",
      "im e",
      "M an",
      "j ust",
      "mo ved",
      "G u",
      "m b",
      "on y",
      "g iv",
      "P l",
      "in cre",
      "il t",
      "h am",
      "rop ical",
      "A c",
      "or k",
      "con stru",
      "M e",
      "g re",
      "r is",
      "or gan",
      "li am",
      "vi ous",
      "w rote",
      "ion al",
      "ain s",
      "Ju ly",
      "Y ork",
      "b and",
      "k ill",
      "in a",
      "nam ed",
      "tow n",
      "u de",
      "g in",
      "se qu",
      "b re",
      "ard s",
      "dif fer",
      "G r",
      "D uring",
      "m uch",
      "p ri",
      "c amp",
      "w ater",
      "du e",
      "C an",
      "li e",
      "A pr",
      "u te",
      "pos ed",
      "sing le",
      "Apr il",
      "M on",
      "af t",
      ".. .",
      "de ath",
      "p ower",
      "Eu ro",
      "an other",
      "ver sion",
      "includ ed",
      "h and",
      "y s",
      "il ity",
      "19 5",
      "ord er",
      "tem pt",
      "at ure",
      "Ger man",
      "st on",
      "Jan uary",
      "sh ort",
      "W est",
      "et s",
      "P ar",
      "with in",
      "est ab",
      "ev ent",
      "Eng land",
      "st ud",
      "gen er",
      "ant s",
      "ship s",
      "u di",
      "or ed",
      "le ft",
      "bu ilt",
      "M a",
      "b ased",
      "f ur",
      "al though",
      "s ed",
      "at tempt",
      "l ing",
      "p erson",
      "ro und",
      "fam ily",
      "r ight",
      "er y",
      "h al",
      "th ird",
      "cl aim",
      "em ent",
      "g ames",
      "h ome",
      "C l",
      "M arch",
      "it al",
      "A ll",
      "s ent",
      "ak es",
      "pe ct",
      "p en",
      "pre vious",
      "f all",
      "ve mber",
      "No vember",
      "re view",
      "tr a",
      "peri od",
      "be st",
      "19 3",
      "is su",
      "s chool",
      "st ory",
      "c as",
      "Euro pe",
      "h um",
      "H is",
      "g overnment",
      "t urn",
      "at s",
      "ex pl",
      "ad v",
      "ce mber",
      "De cember",
      "m ake",
      "o ve",
      "il ar",
      "th ose",
      "j o",
      "t ing",
      "ro y",
      "ur ric",
      "de st",
      "av y",
      "B y",
      "Th ere",
      "origin al",
      "S te",
      "us ing",
      "stor m",
      "C ity",
      "st er",
      "An d",
      "th ing",
      "ch an",
      "ul ation",
      "is m",
      "comp any",
      "ex t",
      "comm and",
      "G e",
      "row n",
      "mon th",
      "re al",
      "Wh en",
      "f act",
      "i ally",
      "k ing",
      "en se",
      "n er",
      "it ary",
      "m atch",
      "on s",
      "200 9",
      "au th",
      "fl u",
      "et y",
      "ren ch",
      "vide o",
      "N ational",
      "r al",
      "ar m",
      "cl ub",
      "200 8",
      "201 0",
      "S c",
      "tr ad",
      "o ung",
      "f ac",
      "ro le",
      "col le",
      "c or",
      "ch urch",
      "In di",
      "iv ision",
      "gr am",
      "S o",
      "W e",
      "re f",
      "R iver",
      "en ces",
      "for man",
      "st ill",
      "mo ve",
      "c us",
      "play er",
      "M c",
      "ic ally",
      "pos si",
      "st it",
      "b ro",
      "ivers ity",
      "add ition",
      "ri end",
      "L i",
      "c ame",
      "i x",
      "ent ly",
      "ch ed",
      "cl ass",
      "loc al",
      "i um",
      "of ten",
      "hist ory",
      "2 4",
      "l s",
      "al i",
      "form er",
      "s ite",
      "hal f",
      "urric ane",
      "2 6",
      "l im",
      "st ri",
      "1 00",
      "m ag",
      "tr act",
      "ak en",
      "continu ed",
      "2 1",
      "ian s",
      "dr aw",
      "S p",
      "2 3",
      "ne xt",
      "200 7",
      "gg est",
      "consid ered",
      "A d",
      "ro du",
      "ef fect",
      "2 8",
      "su ggest",
      "a e",
      "p ut",
      "s ay",
      "record ed",
      "F rench",
      "z e",
      "re fer",
      "fe w",
      "qu e",
      "qu ar",
      "publ ished",
      "sim ilar",
      "care er",
      "O ne",
      "m id",
      "D y",
      "b ody",
      "m ar",
      "Eng lish",
      "he ld",
      "per forman",
      "plac ed",
      "t ake",
      "in it",
      "im port",
      "produ ction",
      "G en",
      "end ing",
      "a h",
      "m p",
      "P r",
      "el t",
      "B att",
      "ar ed",
      "differ ent",
      "T r",
      "v o",
      "ri but",
      "ut ion",
      "ch ang",
      "us h",
      "O r",
      "m and",
      "id ge",
      "E ar",
      "w ind",
      "y ou",
      "im es",
      "lar g",
      "with out",
      "comm un",
      "song s",
      "d en",
      "amp ion",
      "P e",
      "W ith",
      "ar s",
      "ain ing",
      "writ ten",
      "ic o",
      "am ong",
      "st y",
      "le vel",
      "l er",
      "str ong",
      "St ate",
      "pol it",
      "l or",
      "for ce",
      "se ven",
      "for t",
      "ber t",
      "h ouse",
      "act ion",
      "ever y",
      "t ro",
      "id ed",
      "In ter",
      "D ivision",
      "v il",
      "201 1",
      "rele ase",
      "wh ite",
      "stru ct",
      "fur ther",
      "t ropical",
      "im ent",
      "be come",
      "day s",
      "200 6",
      "Ac cording",
      "Al though",
      "Ch urch",
      "ste ad",
      "h owever",
      "fin d",
      "2 2",
      "Can ad",
      "B ar",
      "g ed",
      "ast er",
      "f r",
      "p ite",
      "M us",
      "it ar",
      "T e",
      "tit le",
      "auth or",
      "st udi",
      "op s",
      "cr aft",
      "partic ular",
      "n ess",
      "mil itary",
      "res pon",
      "S er",
      "b ird",
      "h ow",
      "fo ot",
      "au gh",
      "grap h",
      "2 7",
      "mem bers",
      "R oman",
      "f lo",
      "Ch ar",
      "Le ague",
      "pop ular",
      "P er",
      "P ort",
      "g n",
      "wi de",
      "m m",
      "sc en",
      "w ent",
      "S ong",
      "h old",
      "ap p",
      "br uary",
      "hist or",
      "Fe bruary",
      "a i",
      "lo st",
      "tim es",
      "mis sion",
      "it er",
      "dire ct",
      "b ar",
      "g ave",
      "s it",
      "ive ly",
      "itt le",
      "produ ced",
      "success ful",
      "f an",
      "te le",
      "report ed",
      "M is",
      "Dy lan",
      "f riend",
      "pro vid",
      "Ge or",
      "ser ved",
      "olog y",
      "cle ar",
      "pr of",
      "201 2",
      "fi re",
      "el s",
      "mo d",
      "cap t",
      "to tal",
      "di vid",
      "comm on",
      "O ld",
      "P o",
      "P ark",
      "c ult",
      "te st",
      "se arch",
      "w ood",
      "cover ed",
      "child ren",
      "om in",
      "n ight",
      "for ces",
      "de cl",
      "giv en",
      "ent er",
      "p s",
      "se en",
      "for d",
      "J ap",
      "at or",
      "st ated",
      "Jap an",
      "su re",
      "cept ion",
      "M in",
      "ha ving",
      "incl ude",
      "crit ic",
      "to ur",
      "dep end",
      "f ace",
      "f ail",
      "se e",
      "g reat",
      "in du",
      "in vol",
      "ction s",
      "in flu",
      "al ion",
      "cl ose",
      "aw ay",
      "w ant",
      "re present",
      "Co unt",
      "an no",
      "Af ric",
      "T o",
      "y oung",
      "comp et",
      "coun try",
      "b as",
      "sign ific",
      "man ag",
      "Com p",
      "P ol",
      "m aking",
      "st re",
      "om en",
      "201 3",
      "S im",
      "n et",
      "ic es",
      "ne y",
      "f ron",
      "contro l",
      "it ch",
      "D es",
      "r ad",
      "ed er",
      "ch n",
      "ri ver",
      "pro gram",
      "lo ok",
      "oc cur",
      "f ather",
      "ne ver",
      "com b",
      "pl oy",
      "Gen eral",
      "a ur",
      "l ished",
      "v ict",
      "sh ould",
      "pro ject",
      "Wh ile",
      "constru ction",
      "po st",
      "writ ing",
      "g l",
      "pl an",
      "od s",
      "return ed",
      "n ed",
      "ist er",
      "Un iversity",
      "chan ge",
      "T w",
      "b l",
      "are n",
      "mi x",
      "f em",
      "x im",
      "develop ed",
      "estab lished",
      "i ther",
      "Sc ot",
      "2 9",
      "P h",
      "id es",
      "reach ed",
      "a x",
      "to o",
      "ch art",
      "19 0",
      "Th ese",
      "Americ a",
      "om et",
      "be lie",
      "ens ive",
      "c ing",
      "is land",
      "so und",
      "act iv",
      "D av",
      "I re",
      "pop ulation",
      "anno un",
      "B C",
      "e qu",
      "l aw",
      "work s",
      "way s",
      "H a",
      "J ack",
      "h our",
      "am a",
      "com ing",
      "ear li",
      "no vel",
      "di ed",
      "w ord",
      "ab ly",
      "ant ic",
      "not ed",
      "int rodu",
      "Ire land",
      "4 0",
      "A ir",
      "b ur",
      "t ail",
      "ig ade",
      "te ll",
      "ran ge",
      "g es",
      "ac ross",
      "though t",
      "through out",
      "build ing",
      "b lo",
      "c ou",
      "ag re",
      "ition s",
      "ond on",
      "V i",
      "P ro",
      "L ondon",
      "an ces",
      "su m",
      "g ar",
      "ex p",
      "him self",
      "ful l",
      "f elt",
      "develop ment",
      "Wil liam",
      "te en",
      "E ast",
      "at ic",
      "bo ard",
      "um ent",
      "per formed",
      "gro w",
      "comple te",
      "M ich",
      "r ap",
      "import ant",
      "signific ant",
      "ren t",
      "Austral ia",
      "ain t",
      "ty p",
      "p ur",
      "ad es",
      "e ight",
      "At l",
      "hum an",
      "dest roy",
      "mil es",
      "ro om",
      "li ve",
      "tele vision",
      "B lack",
      "inter est",
      "vari ous",
      "sty le",
      "f le",
      "are as",
      "b lack",
      "ke y",
      "s k",
      "set t",
      "E d",
      "appear ed",
      "R ich",
      "b us",
      "other s",
      "rel ation",
      "b or",
      "h ip",
      "do es",
      "offic ial",
      "a ign",
      "de l",
      "ev ents",
      "m arri",
      "ne ed",
      "H ar",
      "d a",
      "su f",
      "Ro ad",
      "Re g",
      "med i",
      "i or",
      "am b",
      "play ers",
      "start ed",
      "J ames",
      "n d",
      "on es",
      "id ence",
      "Ro y",
      "mod ern",
      "h ind",
      "ge ther",
      "pr a",
      "t ion",
      "ot s",
      "ap point",
      "ex peri",
      "fe et",
      "olog ical",
      "H igh",
      "i fied",
      "it ive",
      "po em",
      "a ver",
      "c il",
      "op e",
      "cre ated",
      "performan ce",
      "Count y",
      "fron t",
      "n u",
      "pr im",
      "loc ated",
      "W al",
      "ca used",
      "af f",
      "iv es",
      "ce ll",
      "te chn",
      "K e",
      "f un",
      "f ig",
      "18 9",
      "Mo unt",
      "6 0",
      "Y ou",
      "v ill",
      "al th",
      "se x",
      "mo ther",
      "mo unt",
      "ag o",
      "ab or",
      "ric k",
      "B er",
      "st ant",
      "co ast",
      "200 4",
      "P al",
      "200 5",
      "form ation",
      "pres sion",
      "go od",
      "T V",
      "n a",
      "ac y",
      "amp le",
      "polit ical",
      "C or",
      "H o",
      "ro ck",
      "charac ters",
      "m it",
      "the ast",
      "rel ig",
      "M ag",
      "S ci",
      "b es",
      "N e",
      "n al",
      "t aken",
      "r ul",
      "re w",
      "be gin",
      "m un",
      "in ess",
      "b orn",
      "co re",
      "cr u",
      "S u",
      "T own",
      "go al",
      "Mon t",
      "b urn",
      "C are",
      "f ight",
      "v ic",
      "on ce",
      "ver t",
      "av es",
      "gr ad",
      "sc ri",
      "f ar",
      "n ia",
      "pr ed",
      "remain ed",
      "f av",
      "r ing",
      "in ation",
      "is on",
      "it ing",
      "comple ted",
      "batt le",
      "kill ed",
      "Ph il",
      "y ard",
      "qu ad",
      "fic ult",
      "sc ored",
      "reg ion",
      "dif ficult",
      "King dom",
      "H ist",
      "O f",
      "i ble",
      "m or",
      "s ess",
      "of fer",
      "ard ed",
      "gun s",
      "in v",
      "me et",
      "Is land",
      "Austral ian",
      "camp aign",
      "trad ition",
      "announ ced",
      "F eder",
      "v an",
      "de but",
      "ubl ic",
      "Mus ic",
      "k ed",
      "om b",
      "B l",
      "k s",
      "an im",
      "star s",
      "C up",
      "ho st",
      "Comp any",
      "S y",
      "l ittle",
      "is ing",
      "pro cess",
      "pe ak",
      "ex ist",
      "add ed",
      "in stead",
      "hel p",
      "S om",
      "l ines",
      "n ames",
      "st at",
      "as ing",
      "P a",
      "a el",
      "ci ent",
      "possi ble",
      "rough t",
      "le ast",
      "con ne",
      "co gn",
      "follow ed",
      "H am",
      "red u",
      "s aw",
      "ent ire",
      "be t",
      "pt ion",
      "kn ow",
      "mem ber",
      "E x",
      "a id",
      "c ause",
      "or ies",
      "to gether",
      "origin ally",
      "month s",
      "al ity",
      "wi fe",
      "com ment",
      "reg ular",
      "Ar my",
      "u es",
      "sou thern",
      "Dav id",
      "S ome",
      "r ain",
      "res ident",
      "lo ss",
      "ree k",
      "An g",
      "Gr and",
      "stud y",
      "h urricane",
      "u g",
      "en ced",
      "c ir",
      "t ar",
      "w omen",
      "as soci",
      "pres s",
      "er a",
      "east ern",
      "Fran ce",
      "B ill",
      "ap e",
      "av ing",
      "open ed",
      "m ass",
      "le ct",
      "Ch ampion",
      "200 3",
      "crit ics",
      "st one",
      "play ing",
      "event ually",
      "cons ist",
      "feat ures",
      "O ther",
      "ut es",
      "201 5",
      "b ase",
      "b road",
      "p air",
      "ve st",
      "fi f",
      "L ove",
      "c arri",
      "d ri",
      "h or",
      "re cogn",
      "rou te",
      "four th",
      "h ab",
      "s port",
      "ab ility",
      "Tw o",
      "g ot",
      "v oc",
      "for ced",
      "dec ided",
      "s l",
      "ough t",
      "ac cept",
      "ot a",
      "est im",
      "dam age",
      "prof ess",
      "F o",
      "n on",
      "al y",
      "he avy",
      "ap er",
      "point s",
      "bird s",
      "e ither",
      "w all",
      "Batt alion",
      "ter min",
      "pro ble",
      "tem por",
      "ele ct",
      "A b",
      "be hind",
      "fin ished",
      "comm er",
      "lead ing",
      "cer t",
      "bre ak",
      "c op",
      "se mb",
      "am ent",
      "ul l",
      "az ine",
      "belie ved",
      "Care y",
      "s old",
      "se par",
      "form s",
      "spe ci",
      "writ er",
      "cur rent",
      "M i",
      "i que",
      "n at",
      "t re",
      "cond om",
      "in divid",
      "liam ent",
      "claim ed",
      "in c",
      "im pro",
      "E l",
      "us es",
      "appear ance",
      "F in",
      "M or",
      "em ploy",
      "ex ample",
      "spe cial",
      "fan try",
      "Roy al",
      "d on",
      "al most",
      "18 8",
      "u ck",
      "st s",
      "comp an",
      "M ex",
      "v ir",
      "y ards",
      "iz ation",
      "dire cted",
      "Europe an",
      "u c",
      "ar a",
      "res pect",
      "lan gu",
      "serv ice",
      "gener ally",
      "Feder er",
      "m ater",
      "p ie",
      "to wards",
      "vi er",
      "ign ed",
      "Ro bert",
      "ele ments",
      "west ern",
      "od es",
      "2 nd",
      "b rought",
      "c ase",
      "d ou",
      "s our",
      "low er",
      "Br igade",
      "week s",
      "c up",
      "m ph",
      "con cl",
      "end s",
      "up on",
      "Inter national",
      "E v",
      "H en",
      "O li",
      "W ales",
      "m ot",
      "ill a",
      "St re",
      "ll ed",
      "cent ral",
      "la un",
      "3 1",
      "ic ated",
      "be l",
      "ce ed",
      "str y",
      "bo di",
      "high way",
      "feat ured",
      "3 5",
      "st age",
      "air craft",
      "read y",
      "Vi et",
      "F lor",
      "ter m",
      "ass ist",
      "dire ctor",
      "G od",
      "id a",
      "cre w",
      "me an",
      "D u",
      "d le",
      "vi a",
      "gen eral",
      "Wh ite",
      "sur vi",
      "P art",
      "re search",
      "am o",
      "de fe",
      "ver s",
      "con tract",
      "appro ach",
      "G ame",
      "S A",
      "p ly",
      "s w",
      "provid ed",
      "Geor ge",
      "D ay",
      "ord an",
      "me as",
      "A ct",
      "e y",
      "f und",
      "i er",
      "com pl",
      "cre t",
      "grap hy",
      "Pl ay",
      "V al",
      "F ollow",
      "J ordan",
      "f ly",
      "le ar",
      "ot ed",
      "part s",
      "Her o",
      "earli er",
      "F rom",
      "f ree",
      "re ve",
      "Th om",
      "allow ed",
      "C ent",
      "h on",
      "201 4",
      "ra ther",
      "fem ale",
      "Atl antic",
      "H ouse",
      "n ar",
      "p at",
      "r ation",
      "ing ton",
      "se a",
      "in o",
      "open ing",
      "larg est",
      "vict ory",
      "Follow ing",
      "J ew",
      "re ason",
      "he el",
      "work ed",
      "sub sequ",
      "use um",
      "cer tain",
      "oper ations",
      "Christ ian",
      "particular ly",
      "manag er",
      "D r",
      "M ad",
      "R ep",
      "19 th",
      "ci ally",
      "tra vel",
      "tro ops",
      "F ir",
      "M ary",
      "au di",
      "sp ir",
      "work ing",
      "ra il",
      "II I",
      "jo ined",
      "want ed",
      "se ction",
      "ur b",
      "con du",
      "R ed",
      "ev idence",
      "stand ing",
      "S an",
      "re li",
      "nor thern",
      "Com mand",
      "Flor ida",
      "Pa ul",
      "7 0",
      "I r",
      "R ock",
      "l eng",
      "n ine",
      "he st",
      "ant i",
      "out side",
      "eng ine",
      "Stre et",
      "st ren",
      "lo ve",
      "say ing",
      "M ed",
      "c ross",
      "is sion",
      "el low",
      "pr act",
      "f re",
      "wh om",
      "em y",
      "issu e",
      "hour s",
      "at ors",
      "ent ial",
      "con om",
      "col l",
      "A A",
      "G re",
      "h ar",
      "at a",
      "ac count",
      "200 1",
      "av ail",
      "18 5",
      "sou ri",
      "Mis souri",
      "C r",
      "stren g",
      "3 8",
      "5 00",
      "B ra",
      "at in",
      "de al",
      "ter rit",
      "leng th",
      "M y",
      "S w",
      "m ach",
      "n omin",
      "te l",
      "cour t",
      "Te ch",
      "G al",
      "L o",
      "in ch",
      "st ay",
      "te e",
      "pl ann",
      "mater ial",
      "g old",
      "p ing",
      "po or",
      "cy cl",
      "design ed",
      "B ay",
      "C ro",
      "se em",
      "pro b",
      "po ol",
      "min ist",
      "quar ter",
      "th ink",
      "ar gu",
      "so on",
      "pra ised",
      "D on",
      "M ark",
      "g er",
      "n es",
      "ish ing",
      "qu est",
      "remain s",
      "Indi an",
      "foot ball",
      "Fir st",
      "B est",
      "d ed",
      "d rop",
      "al and",
      "coun ter",
      "suf fer",
      "amo unt",
      "Z e",
      "b ill",
      "d ate",
      "h ous",
      "t ies",
      "st ation",
      "fl ight",
      "wind s",
      "Mich ael",
      "R os",
      "p has",
      "sh o",
      "qu ick",
      "iv al",
      "dis cus",
      "ty pe",
      "incre ased",
      "P ri",
      "c ul",
      "p ast",
      "s cre",
      "vi ol",
      "Co un",
      "previous ly",
      "appoint ed",
      "4 5",
      "B us",
      "E gy",
      "d ol",
      "in j",
      "re placed",
      "un its",
      "ic a",
      "ac c",
      "de li",
      "ab ove",
      "pres sed",
      "C ap",
      "e cut",
      "Rich ard",
      "D ep",
      "er ous",
      "land s",
      "ran ch",
      "main tain",
      "pass ed",
      "relation ship",
      "A m",
      "s po",
      "en ed",
      "al ter",
      "id s",
      "cl os",
      "ci vil",
      "Des pite",
      "bus iness",
      "p ain",
      "r id",
      "in vest",
      "ar ies",
      "ig hest",
      "inter view",
      "sign ed",
      "flo od",
      "h ib",
      "t aking",
      "th reat",
      "ach ie",
      "go ing",
      "ribut ed",
      "Hen ry",
      "H ill",
      "18 6",
      "os aur",
      "Canad a",
      "quad ron",
      "estim ated",
      "speci fic",
      "F A",
      "Q ue",
      "a ult",
      "f f",
      "i k",
      "r ace",
      "v ice",
      "ran g",
      "avail able",
      "h ighest",
      "n ative",
      "s omet",
      "t or",
      "u el",
      "struct ure",
      "Japan ese",
      "st op",
      "se ll",
      "pl es",
      "Car ol",
      "sit u",
      "Old ham",
      "invol ved",
      "P resident",
      "T imes",
      "V er",
      "m ust",
      "t reat",
      "com es",
      "suggest ed",
      "mix ed",
      "T or",
      "V ir",
      "l ay",
      "sh ot",
      "estab lish",
      "turn ed",
      "introdu ced",
      "A p",
      "B rown",
      "in st",
      "re cent",
      "us ually",
      "go als",
      "like ly",
      "scen e",
      "scri pt",
      "Oli vier",
      "it self",
      "le ague",
      "ent ion",
      "pro per",
      "L ater",
      "c ern",
      "one y",
      "act ions",
      "Ch in",
      "bo und",
      "Mo st",
      "trans port",
      "Indi a",
      "aver age",
      "Mex ico",
      "g ive",
      "s is",
      "an a",
      "to lo",
      "Ar ab",
      "Egy pt",
      "R ac",
      "S chool",
      "l am",
      "al d",
      "ol ic",
      "lim ited",
      "9 0",
      "l in",
      "to ld",
      "su per",
      "si a",
      "who se",
      "record ing",
      "vill age",
      "C am",
      "C ong",
      "b ri",
      "it a",
      "trans fer",
      "bro ther",
      "respon si",
      "Thom as",
      "b ow",
      "m ing",
      "or ing",
      "si ze",
      "pre par",
      "possi b",
      "xim ately",
      "relig ious",
      "Ir ish",
      "h it",
      "v in",
      "ord ered",
      "oc cup",
      "blo ck",
      "tempor ary",
      "B ut",
      "P ac",
      "h om",
      "p ond",
      "be ll",
      "18 7",
      "Brit ain",
      "show s",
      "dam aged",
      "th us",
      "comm ission",
      "incre asing",
      "Rep ublic",
      "8 0",
      "H urricane",
      "N Y",
      "S tr",
      "W heel",
      "i ent",
      "k y",
      "m ult",
      "r ay",
      "ed uc",
      "to uch",
      "ic ted",
      "ist ic",
      "mark ed",
      "M ac",
      "M any",
      "the dr",
      "ir th",
      "sp ace",
      "des pite",
      "Ro se",
      "near ly",
      "Gu itar",
      "chang es",
      "H el",
      "H all",
      "w atch",
      "be li",
      "for ward",
      "cl o",
      "so cial",
      "fe el",
      "consid er",
      "commun ity",
      "Ze aland",
      "R ou",
      "S un",
      "a ut",
      "e conom",
      "m al",
      "in depend",
      "de fin",
      "sur round",
      "J er",
      "d augh",
      "er r",
      "le cted",
      "Un ion",
      "inter national",
      "ob ject",
      "ron ic",
      "list ed",
      "init ially",
      "commer cial",
      "r ate",
      "al ready",
      "ac es",
      "im medi",
      "ct s",
      "us ion",
      "Th at",
      "ask ed",
      "Pe ter",
      "h ard",
      "m ight",
      "ch ap",
      "de tail",
      "de pression",
      "arch ae",
      "ann a",
      "win ning",
      "Ear ly",
      "fail ed",
      "Champion ship",
      "Chin ese",
      "3 6",
      "G old",
      "g ress",
      "w oman",
      "st ates",
      "es pe",
      "ac cording",
      "pe cted",
      "tr aining",
      "rel ated",
      "cap ital",
      "langu age",
      "prob ably",
      "Pac ific",
      "espe cially",
      "E m",
      "h ere",
      "v ate",
      "ar ily",
      "ex ecut",
      "200 2",
      "oc cas",
      "min or",
      "vis it",
      "M os",
      "f ut",
      "en j",
      "il ities",
      "ch ol",
      "te xt",
      "co st",
      "comm it",
      "studi o",
      "nat ural",
      "i eld",
      "l iter",
      "p ot",
      "co ach",
      "ha ir",
      "sp ent",
      "includ es",
      "arri ved",
      "Hist ory",
      "Wheel er",
      "A wards",
      "J in",
      "g od",
      "en ough",
      "ar my",
      "res pond",
      "mo ving",
      "ph o",
      "remain ing",
      "partic ip",
      "Canad ian",
      "hab it",
      "thedr al",
      "C ath",
      "L aw",
      "N avy",
      "m ale",
      "art s",
      "ment ion",
      "cent er",
      "pre vent",
      "somet imes",
      "U K",
      "d y",
      "d oc",
      "p it",
      "at ory",
      "al ed",
      "ul a",
      "requ ired",
      "appro ximately",
      "review s",
      "quar ters",
      "R es",
      "f ru",
      "h ap",
      "l atter",
      "n ation",
      "n el",
      "s low",
      "am ed",
      "de ad",
      "ph ys",
      "position s",
      "S ing",
      "k en",
      "p an",
      "s at",
      "at ers",
      "ri es",
      "ne st",
      "As soci",
      "ton s",
      "Afric a",
      "begin ning",
      "ur t",
      "po und",
      "per form",
      "200 0",
      "run ning",
      "Ang el",
      "C reek",
      "F ilm",
      "M id",
      "l ot",
      "in ated",
      "en tolo",
      "ate g",
      "ex c",
      "not es",
      "ie f",
      "dec ision",
      "sol di",
      "Sci entolo",
      "defe ated",
      "P re",
      "b it",
      "s en",
      "y er",
      "St ar",
      "Ar t",
      "addition al",
      "Reg iment",
      "Su per",
      "L u",
      "j our",
      "o id",
      "ic ation",
      "ev ol",
      "pres ident",
      "respon se",
      "bet ter",
      "Vir gin",
      "Rac hel",
      "H ol",
      "ar ing",
      "con cern",
      "ud ed",
      "pos itive",
      "fer ence",
      "stud ents",
      "larg er",
      "L ight",
      "a by",
      "w he",
      "si p",
      "support ed",
      "Col le",
      "constru cted",
      "mag azine",
      "capt ured",
      "1 st",
      "A ward",
      "G l",
      "O ly",
      "b ot",
      "st aff",
      "fo od",
      "pres sure",
      "ric s",
      "br idge",
      "pol ice",
      "chang ed",
      "Scot t",
      "agre ed",
      "Oly mp",
      "L ad",
      "c al",
      "po et",
      "act ive",
      "Char les",
      "fle et",
      "R us",
      "b irth",
      "s core",
      "ce le",
      "sh own",
      "199 5",
      "Bill board",
      "H u",
      "f requ",
      "te ach",
      "av en",
      "ass igned",
      "play s",
      "fut ure",
      "F I",
      "P enn",
      "p ay",
      "ac cess",
      "pro vide",
      "pr int",
      "loc ation",
      "fif th",
      "7 5",
      "T om",
      "r d",
      "ac qu",
      "ct ive",
      "ag on",
      "um ents",
      "po se",
      "av al",
      "ke ep",
      "dis covered",
      "sel ves",
      "H or",
      "ap pl",
      "tem per",
      "sy n",
      "feat ure",
      "broad cast",
      "Rou te",
      "R i",
      "n y",
      "p itch",
      "s al",
      "is s",
      "it z",
      "am i",
      "be coming",
      "sub ject",
      "sur face",
      "ide a",
      "pri or",
      "cir c",
      "u als",
      "and er",
      "de feat",
      "Ar ch",
      "if a",
      "ris on",
      "3 3",
      "C er",
      "N A",
      "c m",
      "ex am",
      "bo x",
      "oper ation",
      "small er",
      "West ern",
      "F ort",
      "in ci",
      "id ents",
      "int ended",
      "group s",
      "sum mer",
      "Scientolo gy",
      "G o",
      "G reat",
      "S ou",
      "p aren",
      "ce an",
      "ex ten",
      "ish op",
      "per cent",
      "most ly",
      "them selves",
      "ste in",
      "met res",
      "Ha ifa",
      "4 8",
      "B ro",
      "O t",
      "Y ear",
      "m akes",
      "or ial",
      "as si",
      "ch ampion",
      "ot ion",
      "li es",
      "qu are",
      "201 6",
      "min utes",
      "iz e",
      "refer red",
      "fav or",
      "B ri",
      "D an",
      "G ro",
      "S ince",
      "f low",
      "h op",
      "n ers",
      "ed y",
      "en on",
      "ap o",
      "ate st",
      "af fic",
      "cre ate",
      "mus ical",
      "offic e",
      "large ly",
      "stit ute",
      "ali for",
      "profess ional",
      "proble ms",
      "Cro at",
      "Associ ation",
      "p ers",
      "ent ered",
      "ran ked",
      "ra el",
      "Un der",
      "ind ic",
      "med ia",
      "Par liament",
      "L ord",
      "se cur",
      "po le",
      "con f",
      "con tr",
      "res er",
      "cont ains",
      "Fran k",
      "rad io",
      "C alifor",
      "N ot",
      "O per",
      "f ill",
      "k an",
      "l ink",
      "n s",
      "p i",
      "s end",
      "de mon",
      "im p",
      "art ment",
      "ak er",
      "199 9",
      "appear s",
      "experi ence",
      "Gal ve",
      "clos ed",
      "f ell",
      "m as",
      "m oney",
      "gu itar",
      "rel ative",
      "effect s",
      "H ow",
      "M al",
      "b io",
      "n ature",
      "z z",
      "er gy",
      "as y",
      "ul ly",
      "19 50",
      "um e",
      "tr ay",
      "si an",
      "gr ant",
      "je cted",
      "stor ies",
      "Is rael",
      "major ity",
      "vo ice",
      "Ear th",
      "Jew ish",
      "Coun cil",
      "ad op",
      "Galve ston",
      "C amp",
      "T ur",
      "W ood",
      "ed ing",
      "re me",
      "or m",
      "ro ll",
      "le aving",
      "str ict",
      "crit ical",
      "mark et",
      "cult ure",
      "bodi es",
      "B al",
      "B el",
      "M L",
      "V ar",
      "c red",
      "g a",
      "g ins",
      "m ir",
      "s il",
      "Ch ic",
      "col on",
      "Re cord",
      "prim ary",
      "T ri",
      "g ods",
      "s chol",
      "al ways",
      "ly rics",
      "li ved",
      "An other",
      "writ ers",
      "ele ction",
      "Br ad",
      "marri ed",
      "b al",
      "o x",
      "r are",
      "at tract",
      "de part",
      "pr ing",
      "St ation",
      "ep t",
      "film s",
      "offic ers",
      "run s",
      "laun ched",
      "bri ef",
      "Califor nia",
      "3 9",
      "m el",
      "r up",
      "um b",
      "team s",
      "Be y",
      "cour se",
      "quick ly",
      "Cath olic",
      "u ter",
      "de ep",
      "ver se",
      "pro posed",
      "sp ital",
      "me ant",
      "min ute",
      "epis odes",
      "occur red",
      "3 7",
      "A le",
      "I f",
      "M er",
      "incre ase",
      "equ ip",
      "sett le",
      "mit ted",
      "daugh ter",
      "whe ther",
      "S aint",
      "f ans",
      "p ian",
      "u gu",
      "ad ap",
      "ir l",
      "tr affic",
      "ex per",
      "ill ery",
      "fe cted",
      "nor theast",
      "destroy ed",
      "4 7",
      "M r",
      "N ix",
      "Q u",
      "b en",
      "h ol",
      "t akes",
      "in sp",
      "re in",
      "ear th",
      "br ing",
      "long er",
      "fight ing",
      "mean ing",
      "Cent ral",
      "Chic ago",
      "h us",
      "j ob",
      "k ind",
      "th row",
      "the me",
      "re am",
      "tw ent",
      "up per",
      "iv a",
      "me th",
      "sy l",
      "num bers",
      "Batt le",
      "vil le",
      "augh t",
      "compet ition",
      "soldi ers",
      "H aw",
      "m om",
      "and on",
      "le ave",
      "se cut",
      "ad minist",
      "de termin",
      "tr ade",
      "over nor",
      "aw arded",
      "Al ice",
      "ari o",
      "Nor thern",
      "Mc C",
      "carri ed",
      "cele br",
      "L atin",
      "h ou",
      "p et",
      "z y",
      "und red",
      "fl es",
      "En ter",
      "199 8",
      "pri vate",
      "direct ly",
      "condu cted",
      "L ou",
      "n is",
      "in al",
      "se y",
      "port s",
      "It al",
      "new sp",
      "record s",
      "attack s",
      "requ est",
      "subsequ ently",
      "4 00",
      "T our",
      "V illa",
      "g ent",
      "to m",
      "to urn",
      "19 30",
      "pl ans",
      "em er",
      "ear ned",
      "ony m",
      "issu ed",
      "cor por",
      "D j",
      "T ex",
      "s es",
      "y ing",
      "on to",
      "as es",
      "it es",
      "ne g",
      "vi e",
      "her o",
      "20 th",
      "over all",
      "Al kan",
      "199 3",
      "Se cond",
      "indu stry",
      "influ ence",
      "Pol ish",
      "stre am",
      "comment ed",
      "Ot to",
      "4 9",
      "F ore",
      "L and",
      "L iver",
      "R A",
      "r at",
      "de m",
      "ig g",
      "ag ing",
      "ser ious",
      "fin ally",
      "ful ly",
      "book s",
      "Nix on",
      "Liver pool",
      "T ay",
      "k il",
      "lo ad",
      "comp ared",
      "who le",
      "gre ater",
      "scen es",
      "net work",
      "O ver",
      "S ar",
      "S ever",
      "d one",
      "m ig",
      "un able",
      "im age",
      "pl ot",
      "It s",
      "Sp an",
      "pie ce",
      "dou ble",
      "Ros s",
      "Tex as",
      "C a",
      "u k",
      "er set",
      "he alth",
      "ve ment",
      "con cert",
      "et t",
      "di v",
      "ne cess",
      "ex pected",
      "mi um",
      "build ings",
      "Som erset",
      "Lad y",
      "F ow",
      "S pe",
      "T ropical",
      "g ian",
      "j ud",
      "s us",
      "y et",
      "se ts",
      "cent re",
      "Mos ley",
      "B ow",
      "C our",
      "M il",
      "S quadron",
      "b i",
      "be gins",
      "con fl",
      "li ving",
      "act or",
      "pr ison",
      "St udi",
      "part y",
      "fin an",
      "ail y",
      "199 6",
      "leg al",
      "person al",
      "rap id",
      "nu cle",
      "Bus ch",
      "3 00",
      "T enn",
      "p urch",
      "w aters",
      "ter ms",
      "um p",
      "cl assi",
      "dis cover",
      "3 rd",
      "L ake",
      "M art",
      "c é",
      "f a",
      "en cy",
      "mo de",
      "ang er",
      "Christ mas",
      "adv ant",
      "move ment",
      "marri age",
      "stat us",
      "syl van",
      "Tay lor",
      "Span ish",
      "B ack",
      "m ur",
      "w ing",
      "at o",
      "with draw",
      "con cept",
      "we ight",
      "mi th",
      "hel ped",
      "por tray",
      "scre en",
      "dol lar",
      "Sever al",
      "Fow ler",
      "L os",
      "N C",
      "T er",
      "b s",
      "b atter",
      "b omb",
      "s ched",
      "in formation",
      "ist ics",
      "pos sess",
      "Th ree",
      "start ing",
      "stand ard",
      "sequ ence",
      "school s",
      "jo in",
      "Afric an",
      "tradition al",
      "plann ed",
      "suffer ed",
      "3 2",
      "b ad",
      "d s",
      "d ark",
      "h an",
      "w ound",
      "es cap",
      "it or",
      "de mand",
      "In fantry",
      "ber y",
      "spe ed",
      "ven ue",
      "giv ing",
      "colle ction",
      "performan ces",
      "activ ity",
      "fig ure",
      "associ ated",
      "insp ired",
      "J ane",
      "S am",
      "p ow",
      "p ath",
      "th ick",
      "for ts",
      "ul tim",
      "ab andon",
      "di vision",
      "ous ly",
      "ath an",
      "reg ard",
      "Com mon",
      "lead ers",
      "present ed",
      "So vi",
      "semb ly",
      "condom s",
      "sour ce",
      "Part y",
      "mach ine",
      "hus band",
      "in ner",
      "an al",
      "ed ge",
      "be y",
      "de v",
      "lo ck",
      "pres ence",
      "ra ised",
      "track s",
      "allow ing",
      "gre atest",
      "So ci",
      "init ial",
      "Ser ies",
      "exp and",
      "Fo ot",
      "compan ies",
      "B ob",
      "F le",
      "g al",
      "p al",
      "s light",
      "er ing",
      "un it",
      "ic an",
      "de b",
      "su it",
      "ex cept",
      "port ion",
      "view ers",
      "contin ue",
      "near by",
      "Par is",
      "And erson",
      "Carol ina",
      "educ ation",
      "doc ument",
      "Virgin ia",
      "sylvan ia",
      "B oy",
      "G i",
      "I m",
      "L ive",
      "M ill",
      "d ing",
      "f it",
      "i us",
      "k ick",
      "ed eral",
      "gen us",
      "cycl one",
      "4 4",
      "D o",
      "J am",
      "J ust",
      "d ated",
      "h undred",
      "ch all",
      "ol k",
      "con fir",
      "ul ated",
      "com posed",
      "we b",
      "we ap",
      "ann ual",
      "comple x",
      "serv ices",
      "Que en",
      "Colle ge",
      "7 6",
      "G ames",
      "S ha",
      "T re",
      "V ict",
      "c ad",
      "on cé",
      "re ally",
      "at re",
      "st ep",
      "res c",
      "ab s",
      "bo y",
      "199 7",
      "num erous",
      "produ cer",
      "pol ic",
      "ca thedral",
      "ext ended",
      "command er",
      "fig ures",
      "territ ory",
      "Bey oncé",
      "Otto man",
      "E ver",
      "M useum",
      "O pen",
      "S ix",
      "g as",
      "p ark",
      "th ings",
      "is er",
      "he av",
      "ess a",
      "Ger many",
      "prote ins",
      "friend s",
      "voc als",
      "Mi ami",
      "enj oy",
      "N ations",
      "p son",
      "r ical",
      "ar c",
      "be at",
      "some thing",
      "ens ity",
      "Me yer",
      "Cl ub",
      "stit ut",
      "Jack son",
      "nu clear",
      "tar get",
      "S ol",
      "T y",
      "ó n",
      "an as",
      "ve y",
      "The ir",
      "ol f",
      "est ival",
      "gu e",
      "Th rough",
      "high ly",
      "Se a",
      "attack ed",
      "prom in",
      "attempt s",
      "Ser vice",
      "typ es",
      "mor ning",
      "streng th",
      "invest ig",
      "responsi ble",
      "imp act",
      "I ll",
      "O s",
      "as pect",
      "ord ers",
      "str a",
      "dis e",
      "met al",
      "issu es",
      "Pr ince",
      "individ ual",
      "immedi ately",
      "Penn sylvania",
      "A I",
      "S ur",
      "b id",
      "p il",
      "w al",
      "re moved",
      "ad emy",
      "be er",
      "ur ies",
      "art ist",
      "ant a",
      "own ed",
      "ite ct",
      "sc oring",
      "sever e",
      "itt ing",
      "dist in",
      "dist ance",
      "adv an",
      "situ ation",
      "pian o",
      "C he",
      "H um",
      "N ico",
      "W ater",
      "d ig",
      "h ic",
      "m outh",
      "in side",
      "se lected",
      "art illery",
      "St orm",
      "vari ety",
      "adv ance",
      "studi es",
      "Scot land",
      "need ed",
      "offer ed",
      "peak ed",
      "ut ch",
      "pro gress",
      "Ch ris",
      "cre ation",
      "me ans",
      "199 1",
      "sing er",
      "ob serv",
      "Jo se",
      "then s",
      "head quarters",
      "count ries",
      "attempt ed",
      "cop ies",
      "C ross",
      "P at",
      "ad ium",
      "ot ing",
      "pl ant",
      "sh ire",
      "fo cus",
      "Ch ina",
      "pr inci",
      "stru ction",
      "cas ual",
      "ribut ion",
      "hor se",
      "respect ively",
      "M S",
      "O ut",
      "al o",
      "it ude",
      "ac ing",
      "il i",
      "ct ing",
      "mo le",
      "ous and",
      "sy mb",
      "high er",
      "appear ances",
      "descri bes",
      "ru le",
      "Bo th",
      "Ma jor",
      "wide ly",
      "Dep artment",
      "touch down",
      "C rit",
      "T em",
      "h anna",
      "t i",
      "and id",
      "se mi",
      "199 2",
      "ob served",
      "mis sed",
      "power ful",
      "complete ly",
      "sex ual",
      "Cor ps",
      "Bra a",
      "Foot ball",
      "heav ily",
      "6 th",
      "A re",
      "L a",
      "b our",
      "b ank",
      "c row",
      "p ick",
      "t ic",
      "x enon",
      "ad ult",
      "be low",
      "man aged",
      "qu ality",
      "port un",
      "199 4",
      "che ster",
      "mid dle",
      "meet ing",
      "redu ced",
      "reli ef",
      "Ale x",
      "B A",
      "b on",
      "c is",
      "in y",
      "af fected",
      "six th",
      "result ed",
      "match es",
      "Li ke",
      "Min nes",
      "rick et",
      "concl uded",
      "audi ence",
      "paren ts",
      "Minnes ota",
      "3 4",
      "L an",
      "T ime",
      "in n",
      "tr ue",
      "ak apo",
      "For ce",
      "ink el",
      "activ ities",
      "Of fic",
      "Vict or",
      "C enter",
      "D el",
      "H ot",
      "Y oung",
      "g ain",
      "st ating",
      "con temporary",
      "op portun",
      "aw ard",
      "word s",
      "Town send",
      "reve aled",
      "hous es",
      "Rose bery",
      "Sou thern",
      "F re",
      "m ile",
      "re ct",
      "se cret",
      "res idents",
      "op in",
      "so le",
      "ew ay",
      "vis ed",
      "writ e",
      "call ing",
      "15 0",
      "Col on",
      "ref used",
      "level s",
      "decl ared",
      "separ ate",
      "tre es",
      "vir on",
      "Ital ian",
      "F inkel",
      "L ong",
      "S to",
      "S ir",
      "d rew",
      "e u",
      "z a",
      "ar med",
      "ad o",
      "aw are",
      "we alth",
      "dr um",
      "ann el",
      "Be cause",
      "197 0",
      "fac ed",
      "stit ution",
      "bl ue",
      "Wal pole",
      "quest ion",
      "pho to",
      "Haw ai",
      "Meyer beer",
      "Finkel stein",
      "D ou",
      "T essa",
      "f ast",
      "r ated",
      "s pl",
      "un iversity",
      "to day",
      "per or",
      "ev al",
      "gr and",
      "ran e",
      "ath us",
      "off ensive",
      "back ground",
      "feat uring",
      "Sh iva",
      "car ry",
      "histor ical",
      "typ ically",
      "contr ast",
      "C al",
      "C ast",
      "M et",
      "S mith",
      "W el",
      "Y ue",
      "m es",
      "p aper",
      "ic ts",
      "ir on",
      "od on",
      "act ing",
      "ev es",
      "cond itions",
      "ele cted",
      "hand s",
      "Soci ety",
      "Nico le",
      "b ing",
      "r hy",
      "t ax",
      "re ception",
      "al ty",
      "ro s",
      "be comes",
      "pe ace",
      "ex cl",
      "ass ault",
      "wor th",
      "att ention",
      "we aken",
      "main ly",
      "ef forts",
      "organ ized",
      "init i",
      "sit es",
      "J im",
      "M em",
      "b rown",
      "r um",
      "s cient",
      "w ear",
      "ch or",
      "ve hic",
      "lo g",
      "pr ise",
      "stru gg",
      "char ge",
      "produ ce",
      "spec im",
      "contro ver",
      "divid ed",
      "High way",
      "Braa thens",
      "C iv",
      "V en",
      "c orn",
      "m at",
      "r ich",
      "s ail",
      "s ense",
      "u fact",
      "in corpor",
      "is l",
      "act ually",
      "tit les",
      "Ha it",
      "mention ed",
      "evol ution",
      "A dam",
      "D ire",
      "N es",
      "b ury",
      "s ci",
      "ro les",
      "str ated",
      "ren d",
      "col or",
      "can not",
      "199 0",
      "season s",
      "stru ck",
      "John son",
      "def end",
      "ext reme",
      "comb at",
      "tell ig",
      "Bl ue",
      "accept ed",
      "Gre en",
      "achie ved",
      "Cour t",
      "Ill ino",
      "5 th",
      "b order",
      "g irl",
      "h u",
      "h ed",
      "p ul",
      "w inter",
      "in str",
      "il s",
      "In du",
      "18 0",
      "ath let",
      "tain ment",
      "tow er",
      "prote in",
      "Port ugu",
      "capt ure",
      "voc al",
      "Viet nam",
      "pract ice",
      "deli ver",
      "Cap tain",
      "advant age",
      "anal ys",
      "Portugu ese",
      "4 th",
      "G overnment",
      "J ul",
      "R ad",
      "V an",
      "c am",
      "z er",
      "th ousand",
      "se c",
      "li f",
      "em ents",
      "ha vi",
      "fic tion",
      "iv ing",
      "fin als",
      "Th under",
      "fore st",
      "fl ank",
      "led ge",
      "hel m",
      "Fe y",
      "Ac ademy",
      "prim arily",
      "Sovi et",
      "F ur",
      "P rote",
      "T od",
      "T ran",
      "U p",
      "c ere",
      "l b",
      "l ers",
      "p ush",
      "p aid",
      "in fantry",
      "sp read",
      "arch itect",
      "ho od",
      "198 6",
      "mount ain",
      "twent y",
      "slight ly",
      "Civ il",
      "K a",
      "R am",
      "S al",
      "p un",
      "s ales",
      "s ister",
      "v ation",
      "con cent",
      "ex pressed",
      "sc ale",
      "Eng ine",
      "right s",
      "Sp ain",
      "blo od",
      "inch es",
      "exten s",
      "B en",
      "M og",
      "O cean",
      "m ist",
      "w ild",
      "ul pt",
      "di e",
      "ne igh",
      "cl im",
      "est ic",
      "ser ve",
      "pres er",
      "sc ulpt",
      "she ll",
      "col our",
      "trans l",
      "show ed",
      "offic er",
      "prote st",
      "aren t",
      "ceed ed",
      "commission ed",
      "Hor se",
      "Gro up",
      "Lou is",
      "E mp",
      "L ittle",
      "T int",
      "Z hou",
      "n ic",
      "p up",
      "old er",
      "vis ions",
      "them es",
      "Le g",
      "Se cret",
      "count y",
      "def ense",
      "batt alion",
      "wind ow",
      "look ing",
      "comb ined",
      "Var anas",
      "Wel sh",
      "Emp ire",
      "Tint in",
      "Varanas i",
      "P it",
      "b itt",
      "f olk",
      "n h",
      "en si",
      "su st",
      "ran ce",
      "Th ough",
      "ict ion",
      "dif f",
      "tit led",
      "And rew",
      "cult ural",
      "represent ed",
      "Ap ple",
      "fru it",
      "onym ous",
      "casual ties",
      "Nes bitt",
      "B ol",
      "D ist",
      "O da",
      "b at",
      "h i",
      "r am",
      "s ides",
      "s quare",
      "t ation",
      "an cient",
      "re comm",
      "en athus",
      "al one",
      "ic ations",
      "em s",
      "av oid",
      "gr ass",
      "spe ct",
      "found ed",
      "For m",
      "continu es",
      "cast le",
      "say s",
      "stre et",
      "earli est",
      "Ev a",
      "Angel es",
      "exc av",
      "Cer es",
      "newsp aper",
      "mur der",
      "viron ment",
      "Oda enathus",
      "4 2",
      "9 th",
      "H ome",
      "S R",
      "T urn",
      "j un",
      "th ir",
      "om er",
      "19 20",
      "art ists",
      "man ufact",
      "Com mun",
      "do ing",
      "ma xim",
      "ident ified",
      "ped o",
      "offic ially",
      "plac es",
      "north west",
      "Bo ok",
      "result ing",
      "Fran cis",
      "author ities",
      "influ enced",
      "fun ction",
      "Du Mont",
      "flood ing",
      "Olymp ic",
      "adop ted",
      "Record s",
      "Sar nia",
      "dise ase",
      "cere mon",
      "B ul",
      "D am",
      "E r",
      "F am",
      "M D",
      "T ele",
      "W ay",
      "w a",
      "al le",
      "it ation",
      "tr u",
      "18 th",
      "ann ing",
      "cap tain",
      "report s",
      "bas is",
      "Sim pson",
      "Illino is",
      "B et",
      "c ers",
      "k er",
      "re pe",
      "to ward",
      "ul f",
      "per man",
      "ra id",
      "let ters",
      "sou theast",
      "Wil helm",
      "Man chester",
      "We ek",
      "bro ken",
      "app arent",
      "sound track",
      "tourn ament",
      "Mog ad",
      "7 th",
      "B urn",
      "F red",
      "P en",
      "W ash",
      "k akapo",
      "r ush",
      "z ed",
      "re ign",
      "en cour",
      "ad vert",
      "op pon",
      "mo b",
      "ex hib",
      "work ers",
      "along side",
      "Ad d",
      "del ay",
      "osaur us",
      "tor pedo",
      "occas ion",
      "relative ly",
      "Wash ington",
      "F our",
      "L ar",
      "N ight",
      "c ities",
      "p atter",
      "y ellow",
      "on o",
      "ed ition",
      "il ed",
      "ch air",
      "ot ional",
      "res sion",
      "lo sing",
      "att ended",
      "cont ent",
      "cont ain",
      "me chan",
      "mon d",
      "dire ction",
      "pop ul",
      "198 8",
      "tri ed",
      "Po st",
      "individ uals",
      "nar row",
      "transfer red",
      "cad mium",
      "D i",
      "O ma",
      "P rodu",
      "f arm",
      "m ess",
      "o vic",
      "w ick",
      "ab ama",
      "um n",
      "pro ved",
      "cont act",
      "Al abama",
      "ef fort",
      "New s",
      "requ ire",
      "Cl ark",
      "roy al",
      "official s",
      "meas ure",
      "ded icated",
      "surround ing",
      "phys ical",
      "Mid dle",
      "determin ed",
      "Oma ha",
      "c andid",
      "n ast",
      "un ion",
      "at ives",
      "en ergy",
      "is es",
      "he ight",
      "op posed",
      "li ves",
      "cou ple",
      "rain fall",
      "ey e",
      "confl ict",
      "5 3",
      "S en",
      "re stor",
      "ad el",
      "de te",
      "ul ed",
      "ill u",
      "ish u",
      "tim ore",
      "int ensity",
      "Re ception",
      "follow s",
      "196 0s",
      "design ated",
      "Me an",
      "short ly",
      "Per ón",
      "possib ly",
      "Hel ms",
      "finan cial",
      "Mogad ishu",
      "F ant",
      "S ch",
      "b in",
      "y our",
      "im ages",
      "li p",
      "In nis",
      "sh ore",
      "sh ape",
      "os en",
      "ph en",
      "do or",
      "album s",
      "198 0s",
      "194 0",
      "196 4",
      "sim ply",
      "vent ion",
      "soci ety",
      "Ed ward",
      "grad u",
      "sour ces",
      "secur ity",
      "sci ence",
      "maxim um",
      "K ent",
      "i el",
      "k ept",
      "o res",
      "u zz",
      "v oy",
      "re vol",
      "of t",
      "be havi",
      "com edy",
      "In depend",
      "em phas",
      "ord in",
      "ser ving",
      "sp ot",
      "dis sip",
      "vis ited",
      "ph il",
      "ors es",
      "As sembly",
      "De mo",
      "successful ly",
      "Hist or",
      "pot ential",
      "jour nal",
      "necess ary",
      "Jose ph",
      "J our",
      "J up",
      "a res",
      "d ress",
      "k es",
      "k are",
      "n own",
      "s ac",
      "w en",
      "re m",
      "se ek",
      "ig an",
      "mo vie",
      "bo at",
      "Com mission",
      "system s",
      "bur ied",
      "pie ces",
      "spir it",
      "argu ed",
      "pound s",
      "McC all",
      "Fle et",
      "4 6",
      "B u",
      "h app",
      "r ating",
      "he art",
      "ad a",
      "sh ap",
      "bo ats",
      "gu est",
      "Ar gent",
      "sup pl",
      "pass es",
      "dep th",
      "dom estic",
      "gre w",
      "suggest s",
      "author ity",
      "manag ement",
      "project s",
      "Ham els",
      "Play Station",
      "Ri hanna",
      "Bal timore",
      "6 00",
      "D est",
      "d ro",
      "d ut",
      "g ained",
      "m useum",
      "p aint",
      "r ub",
      "w ave",
      "in th",
      "un ique",
      "ent rance",
      "be long",
      "con secut",
      "tw ice",
      "we ak",
      "ren ce",
      "ph y",
      "Con f",
      "leg isl",
      "ca using",
      "plac ement",
      "let ter",
      "cas es",
      "struct ures",
      "fr ag",
      "critic ized",
      "inv as",
      "Val ley",
      "Bow l",
      "ultim ately",
      "web site",
      "6 5",
      "C ra",
      "c at",
      "f ung",
      "h ill",
      "v ince",
      "ed kare",
      "ou d",
      "ver ted",
      "pro pos",
      "ne ut",
      "sh are",
      "ex tra",
      "cont aining",
      "cond ition",
      "ves sel",
      "result s",
      "Pal est",
      "debut ed",
      "dou b",
      "hom es",
      "Dj edkare",
      "neg ative",
      "Jup iter",
      "D er",
      "D is",
      "D ef",
      "M ass",
      "W rit",
      "b ig",
      "k g",
      "s mo",
      "s pring",
      "ch ief",
      "ch osen",
      "de ploy",
      "art ic",
      "act ors",
      "pre mi",
      "fore ign",
      "ob tain",
      "ho spital",
      "194 7",
      "Con stant",
      "pass ing",
      "Sh ort",
      "def ence",
      "def ensive",
      "batt les",
      "fav our",
      "Tor res",
      "wound ed",
      "5 1",
      "D V",
      "H orn",
      "H ib",
      "K ore",
      "L is",
      "er t",
      "re jected",
      "el se",
      "br igade",
      "bu te",
      "nor mal",
      "ple ment",
      "reach ing",
      "refer ence",
      "graph ic",
      "hold s",
      "East ern",
      "grow ing",
      "bor ough",
      "mount ed",
      "anim al",
      "conne cted",
      "grant ed",
      "abandon ed",
      "promin ent",
      "consecut ive",
      "DV D",
      "6 4",
      "K h",
      "L y",
      "S il",
      "T ru",
      "b an",
      "d in",
      "e igh",
      "f ish",
      "g ing",
      "be ach",
      "qu ake",
      "ip le",
      "An n",
      "tem ple",
      "air ed",
      "col ony",
      "On ce",
      "sa ur",
      "call s",
      "there fore",
      "194 1",
      "oper ated",
      "organ ization",
      "claim s",
      "cell s",
      "current ly",
      "Scott ish",
      "Fore st",
      "confir med",
      "analys is",
      "Apple white",
      "B ank",
      "C re",
      "c ies",
      "al leg",
      "mo del",
      "Ch ap",
      "ian a",
      "ph ia",
      "reg ions",
      "sing les",
      "second s",
      "198 7",
      "stud ent",
      "bro ke",
      "Air port",
      "independ ent",
      "symb ol",
      "adel phia",
      "4 3",
      "G A",
      "I sa",
      "P op",
      "R a",
      "a head",
      "b ud",
      "b ishop",
      "e th",
      "in tellig",
      "en emy",
      "ing u",
      "il ies",
      "ad vent",
      "ch ance",
      "im ony",
      "In stitute",
      "fo x",
      "gen cy",
      "197 0s",
      "fam ous",
      "contro lled",
      "sol o",
      "version s",
      "expl ained",
      "plan et",
      "coll abor",
      "nomin ated",
      "seem s",
      "inst all",
      "Egypt ian",
      "temper ature",
      "equip ment",
      "mom ent",
      "Back ground",
      "9 5",
      "B BC",
      "B aby",
      "D ue",
      "F E",
      "G all",
      "G reek",
      "K ar",
      "b ranch",
      "g reg",
      "l ane",
      "m ales",
      "t ank",
      "res ol",
      "pro p",
      "fo c",
      "ult ural",
      "os op",
      "new ly",
      "ele ment",
      "198 4",
      "198 9",
      "Be fore",
      "197 2",
      "la id",
      "return ing",
      "support ing",
      "grow th",
      "know ledge",
      "proble m",
      "SA FE",
      "fre eway",
      "sell ing",
      "prepar ed",
      "Croat ia",
      "Fur ther",
      "B ir",
      "C A",
      "C ard",
      "E ach",
      "L ew",
      "L ock",
      "O b",
      "S ky",
      "e c",
      "f air",
      "l ap",
      "m ic",
      "m ical",
      "r or",
      "t ur",
      "ed s",
      "re ar",
      "re pair",
      "ar ms",
      "unk nown",
      "to mb",
      "ut en",
      "fir ed",
      "inter pre",
      "min d",
      "add ress",
      "198 5",
      "pur su",
      "Mi ke",
      "employ ed",
      "increasing ly",
      "liter ature",
      "Oper ation",
      "B ig",
      "F ield",
      "H MS",
      "f res",
      "i res",
      "r ative",
      "t un",
      "t act",
      "the ory",
      "ed ar",
      "en vironment",
      "ag an",
      "te x",
      "tr ail",
      "comm only",
      "An th",
      "spe ak",
      "writ es",
      "view s",
      "ide as",
      "196 0",
      "Car diff",
      "coun cil",
      "bre eding",
      "Bar row",
      "histor ian",
      "belie ve",
      "burn s",
      "settle ment",
      "1 20",
      "A bu",
      "O x",
      "P ublic",
      "S um",
      "c ricket",
      "m ort",
      "o il",
      "p ack",
      "at mo",
      "st ations",
      "st ood",
      "ar rest",
      "sh if",
      "per fect",
      "her self",
      "Ch ild",
      "sing ing",
      "On ly",
      "Mo re",
      "194 4",
      "road s",
      "serv ation",
      "prom pt",
      "fem ales",
      "Mich igan",
      "experi enced",
      "Phil adelphia",
      "consist ed",
      "proper ty",
      "econom ic",
      "advan ced",
      "atmo sp",
      "9 6",
      "E ven",
      "F ar",
      "J on",
      "N H",
      "N ever",
      "V ide",
      "h ang",
      "m aster",
      "r as",
      "y le",
      "al ions",
      "de ities",
      "um ber",
      "int ensi",
      "ran ged",
      "we ather",
      "199 0s",
      "par liament",
      "Or igin",
      "fail ure",
      "Ke ats",
      "Mount ed",
      "Sw ed",
      "drop ped",
      "maintain ed",
      "hap pen",
      "kil omet",
      "Mean while",
      "D utch",
      "R ol",
      "c in",
      "d ates",
      "g lo",
      "r ise",
      "s and",
      "t av",
      "ar rang",
      "ri e",
      "el im",
      "op pos",
      "lo y",
      "land fall",
      "ser ves",
      "aw ards",
      "comp ar",
      "ev il",
      "Al bum",
      "film ed",
      "olog ist",
      "lead er",
      "ris k",
      "kill ing",
      "stri ke",
      "popular ity",
      "fly ing",
      "hon or",
      "coll ap",
      "inj ury",
      "pit ched",
      "frequ ently",
      "Add ition",
      "N athan",
      "S lam",
      "T u",
      "b ul",
      "c ited",
      "h orses",
      "t ional",
      "w it",
      "th r",
      "al ing",
      "ad em",
      "us ual",
      "ex ped",
      "act ress",
      "It aly",
      "ret ired",
      "fam ilies",
      "val ue",
      "km 2",
      "prom oted",
      "hum ans",
      "Ste ve",
      "And y",
      "laun ch",
      "urb an",
      "phas e",
      "beli ef",
      "Pre mi",
      "rapid ly",
      "batter y",
      "weap ons",
      "nast y",
      "bud get",
      "A li",
      "G ood",
      "T im",
      "f ederal",
      "p ict",
      "de cre",
      "im ag",
      "res ist",
      "He ad",
      "cre ating",
      "Americ ans",
      "descri ption",
      "Con ference",
      "mark s",
      "prom otion",
      "public ation",
      "organ is",
      "Min ister",
      "cou gar",
      "significant ly",
      "suf fic",
      "relig ion",
      "recogn ized",
      "mult iple",
      "stra ight",
      "invas ion",
      "C y",
      "F l",
      "L ine",
      "M ort",
      "P an",
      "S P",
      "S or",
      "d ata",
      "m atter",
      "s ought",
      "as ure",
      "il es",
      "om s",
      "ly ing",
      "ch ose",
      "pro t",
      "att end",
      "reg arded",
      "if y",
      "produ cers",
      "high light",
      "publ ish",
      "De velop",
      "vol ume",
      "dom in",
      "rest aur",
      "allow s",
      "ask et",
      "Ma x",
      "seven th",
      "agre ement",
      "wall s",
      "Fin al",
      "streng then",
      "hap s",
      "sched uled",
      "aspect s",
      "Vide o",
      "5 6",
      "C le",
      "J ef",
      "S i",
      "V e",
      "c ust",
      "c atch",
      "t end",
      "t ree",
      "the less",
      "re action",
      "ic ed",
      "ac compan",
      "ag ric",
      "ag ement",
      "land ing",
      "ach ed",
      "cre te",
      "198 1",
      "start s",
      "indu stri",
      "names e",
      "Viet namese",
      "Cong ress",
      "fill ed",
      "nucle us",
      "sust ained",
      "4 1",
      "G ulf",
      "H art",
      "H aven",
      "O p",
      "f ought",
      "l abor",
      "t in",
      "u an",
      "al tar",
      "is y",
      "le ction",
      "be aut",
      "ot es",
      "ri val",
      "str ate",
      "St an",
      "comp uter",
      "no te",
      "min er",
      "iz ing",
      "sim ple",
      "Am ong",
      "Cam bodi",
      "occup ied",
      "schol ar",
      "Thunder birds",
      "phil osop",
      "5 5",
      "A th",
      "B an",
      "E li",
      "G reg",
      "M at",
      "M en",
      "g ather",
      "g overn",
      "n ur",
      "on om",
      "or ation",
      "ou ter",
      "ain e",
      "em b",
      "af ety",
      "fir m",
      "aw a",
      "cont ained",
      "gu an",
      "under ground",
      "sup ply",
      "tri al",
      "193 9",
      "fac ilities",
      "teen th",
      "vic tim",
      "dri ve",
      "vir t",
      "Ath let",
      "D un",
      "D own",
      "F estival",
      "G ord",
      "N ich",
      "N az",
      "P ho",
      "R evolution",
      "f at",
      "g ree",
      "t ask",
      "re con",
      "en ing",
      "st ages",
      "de gree",
      "com position",
      "cont ributed",
      "sa ve",
      "ins ula",
      "17 th",
      "194 2",
      "cle an",
      "colle cted",
      "ref lect",
      "impro ve",
      "execut ive",
      "bot tom",
      "Ox ford",
      "Gord on",
      "Nich ol",
      "1 30",
      "8 th",
      "9 7",
      "D en",
      "F riend",
      "N BA",
      "b b",
      "c u",
      "c ake",
      "19 18",
      "mo ves",
      "ex tr",
      "ill o",
      "own ers",
      "we en",
      "min im",
      "ang ers",
      "Co ast",
      "oper a",
      "Ju an",
      "field s",
      "kill s",
      "effect ive",
      "mission s",
      "anim als",
      "entire ly",
      "sport s",
      "impro ved",
      "subsequ ent",
      "mult i",
      "1950 s",
      "Enter tainment",
      "Studi os",
      "bey ond",
      "Turn er",
      "Bet ween",
      "shap ed",
      "Cra zy",
      "uten ant",
      "Premi er",
      "9 4",
      "F ish",
      "M ario",
      "P A",
      "R u",
      "R y",
      "o th",
      "v ar",
      "th ur",
      "ed ding",
      "at op",
      "st ock",
      "ic ip",
      "pl at",
      "um es",
      "tr ain",
      "co al",
      "not able",
      "fin ish",
      "dis p",
      "Al li",
      "Ar thur",
      "dr aft",
      "ss es",
      "med ical",
      "cap able",
      "rop ium",
      "196 8",
      "196 9",
      "Bo ise",
      "Bo ston",
      "ash ion",
      "giv es",
      "find ing",
      "Mus lim",
      "William s",
      "grad ually",
      "recent ly",
      "respond ed",
      "Tod ay",
      "extens ive",
      "Lew is",
      "kilomet res",
      "7 00",
      "C old",
      "C hel",
      "G ard",
      "G overnor",
      "J ain",
      "W ell",
      "e gg",
      "the w",
      "as su",
      "im ents",
      "are t",
      "ast ic",
      "ant imony",
      "ick s",
      "second ary",
      "197 5",
      "head ed",
      "dist ingu",
      "Cl ass",
      "Pe ople",
      "app ing",
      "histor ic",
      "program s",
      "Rus sian",
      "Mart in",
      "expand ed",
      "C E",
      "H an",
      "J es",
      "L ie",
      "R ail",
      "U pon",
      "h unt",
      "s ort",
      "un te",
      "st able",
      "is ol",
      "it ems",
      "he ard",
      "ent al",
      "ir ls",
      "con ve",
      "ri a",
      "cent uries",
      "pres ents",
      "dis play",
      "Co le",
      "12 th",
      "196 5",
      "197 4",
      "south west",
      "camp us",
      "find s",
      "Mag azine",
      "Phil ip",
      "Sy stem",
      "got i",
      "Ev ita",
      "possib ility",
      "Tur k",
      "Demo cr"
    ]
  }
}