{
  "version": "1.0",
  "truncation": null,
  "padding": null,
  "added_tokens": [
    {
      "id": 0,
      "content": "[PAD]",
      "single_word": false,
      "lstrip": false,
      "rstrip": false,
      "normalized": false,
      "special": true
    },
    {
      "id": 1,
      "content": "[UNK]",
      "single_word": false,
      "lstrip": false,
      "rstrip": false,
      "normalized": false,
      "special": true
    }
  ],
  "normalizer": null,
  "pre_tokenizer": {
    "type": "Whitespace"
  },
  "post_processor": null,
  "decoder": null,
  "model": {
    "type": "WordPiece",
    "unk_token": "[UNK]",
    "continuing_subword_prefix": "##",
    "max_input_chars_per_word": 100,
    "vocab": {
      "[PAD]": 0,
      "[UNK]": 1,
      "!": 2,
      "\"": 3,
      "#": 4,
      "$": 5,
      "%": 6,
      "&": 7,
      "'": 8,
      "(": 9,
      ")": 10,
      "*": 11,
      "+": 12,
      ",": 13,
      "-": 14,
      ".": 15,
      "/": 16,
      "0": 17,
      "1": 18,
      "2": 19,
      "3": 20,
      "4": 21,
      "5": 22,
      "6": 23,
      "7": 24,
      "8": 25,
      "9": 26,
      ":": 27,
      ";": 28,
      "<": 29,
      "=": 30,
      ">": 31,
      "?": 32,
      "@": 33,
      "A": 34,
      "B": 35,
      "C": 36,
      "D": 37,
      "E": 38,
      "F": 39,
      "G": 40,
      "H": 41,
      "I": 42,
      "J": 43,
      "K": 44,
      "L": 45,
      "M": 46,
      "N": 47,
      "O": 48,
      "P": 49,
      "Q": 50,
      "R": 51,
      "S": 52,
      "T": 53,
      "U": 54,
      "V": 55,
      "W": 56,
      "X": 57,
      "Y": 58,
      "Z": 59,
      "[": 60,
      "\\": 61,
      "]": 62,
      "^": 63,
      "_": 64,
      "`": 65,
      "a": 66,
      "b": 67,
      "c": 68,
      "d": 69,
      "e": 70,
      "f": 71,
      "g": 72,
      "h": 73,
      "i": 74,
      "j": 75,
      "k": 76,
      "l": 77,
      "m": 78,
      "n": 79,
      "o": 80,
      "p": 81,
      "q": 82,
      "r": 83,
      "s": 84,
      "t": 85,
      "u": 86,
      "v": 87,
      "w": 88,
      "x": 89,
      "y": 90,
      "z": 91,
      "{": 92,
      "|": 93,
      "}": 94,
      "~": 95,
      "": 96,
      "": 97,
      "": 98,
      "": 99,
      "¡": 100,
      "¢": 101,
      "£": 102,
      "¥": 103,
      "§": 104,
      "©": 105,
      "«": 106,
      "­": 107,
      "®": 108,
      "¯": 109,
      "°": 110,
      "±": 111,
      "²": 112,
      "³": 113,
      "´": 114,
      "µ": 115,
      "¶": 116,
      "·": 117,
      "¹": 118,
      "º": 119,
      "»": 120,
      "¼": 121,
      "½": 122,
      "¾": 123,
      "¿": 124,
      "À": 125,
      "Á": 126,
      "Â": 127,
      "Ä": 128,
      "Å": 129,
      "Æ": 130,
      "Ç": 131,
      "È": 132,
      "É": 133,
      "Ì": 134,
      "Í": 135,
      "Î": 136,
      "Ñ": 137,
      "Ó": 138,
      "Ô": 139,
      "Ö": 140,
      "×": 141,
      "Ø": 142,
      "Ú": 143,
      "Ü": 144,
      "Ý": 145,
      "Þ": 146,
      "ß": 147,
      "à": 148,
      "á": 149,
      "â": 150,
      "ã": 151,
      "ä": 152,
      "å": 153,
      "æ": 154,
      "ç": 155,
      "è": 156,
      "é": 157,
      "ê": 158,
      "ë": 159,
      "ì": 160,
      "í": 161,
      "î": 162,
      "ï": 163,
      "ð": 164,
      "ñ": 165,
      "ò": 166,
      "ó": 167,
      "ô": 168,
      "õ": 169,
      "ö": 170,
      "÷": 171,
      "ø": 172,
      "ù": 173,
      "ú": 174,
      "û": 175,
      "ü": 176,
      "ý": 177,
      "þ": 178,
      "ÿ": 179,
      "Ā": 180,
      "ā": 181,
      "ă": 182,
      "ą": 183,
      "Ć": 184,
      "ć": 185,
      "Č": 186,
      "č": 187,
      "Ď": 188,
      "Đ": 189,
      "đ": 190,
      "ē": 191,
      "ė": 192,
      "ę": 193,
      "ě": 194,
      "ğ": 195,
      "ġ": 196,
      "Ħ": 197,
      "ħ": 198,
      "ĩ": 199,
      "Ī": 200,
      "ī": 201,
      "İ": 202,
      "ı": 203,
      "ķ": 204,
      "Ľ": 205,
      "ľ": 206,
      "Ł": 207,
      "ł": 208,
      "ń": 209,
      "ņ": 210,
      "ň": 211,
      "ŋ": 212,
      "Ō": 213,
      "ō": 214,
      "ŏ": 215,
      "ő": 216,
      "Œ": 217,
      "œ": 218,
      "Ř": 219,
      "ř": 220,
      "Ś": 221,
      "ś": 222,
      "Ş": 223,
      "ş": 224,
      "Š": 225,
      "š": 226,
      "Ţ": 227,
      "ţ": 228,
      "ť": 229,
      "ũ": 230,
      "ū": 231,
      "ŭ": 232,
      "ů": 233,
      "ų": 234,
      "ŵ": 235,
      "ŷ": 236,
      "Ź": 237,
      "ź": 238,
      "Ż": 239,
      "ż": 240,
      "Ž": 241,
      "ž": 242,
      "Ə": 243,
      "ƒ": 244,
      "ơ": 245,
      "ư": 246,
      "ǂ": 247,
      "ǎ": 248,
      "ǐ": 249,
      "ǒ": 250,
      "ǔ": 251,
      "ǫ": 252,
      "Ș": 253,
      "ș": 254,
      "Ț": 255,
      "ț": 256,
      "ɐ": 257,
      "ɑ": 258,
      "ɒ": 259,
      "ɓ": 260,
      "ɔ": 261,
      "ɕ": 262,
      "ɖ": 263,
      "ɗ": 264,
      "ə": 265,
      "ɛ": 266,
      "ɟ": 267,
      "ɡ": 268,
      "ɢ": 269,
      "ɣ": 270,
      "ɦ": 271,
      "ɧ": 272,
      "ɨ": 273,
      "ɪ": 274,
      "ɬ": 275,
      "ɯ": 276,
      "ɲ": 277,
      "ɴ": 278,
      "ɵ": 279,
      "ɸ": 280,
      "ɻ": 281,
      "ɾ": 282,
      "ʀ": 283,
      "ʁ": 284,
      "ʂ": 285,
      "ʃ": 286,
      "ʇ": 287,
      "ʈ": 288,
      "ʊ": 289,
      "ʋ": 290,
      "ʌ": 291,
      "ʍ": 292,
      "ʎ": 293,
      "ʒ": 294,
      "ʔ": 295,
      "ʕ": 296,
      "ʘ": 297,
      "ʝ": 298,
      "ʟ": 299,
      "ʰ": 300,
      "ʲ": 301,
      "ʷ": 302,
      "ʻ": 303,
      "ʼ": 304,
      "ʾ": 305,
      "ʿ": 306,
      "ˀ": 307,
      "ˁ": 308,
      "ˈ": 309,
      "ˌ": 310,
      "ː": 311,
      "˔": 312,
      "˘": 313,
      "˚": 314,
      "˞": 315,
      "ˠ": 316,
      "ˤ": 317,
      "˥": 318,
      "˦": 319,
      "˧": 320,
      "˨": 321,
      "˩": 322,
      "̀": 323,
      "́": 324,
      "̂": 325,
      "̃": 326,
      "̄": 327,
      "̆": 328,
      "̈": 329,
      "̊": 330,
      "̌": 331,
      "̍": 332,
      "̐": 333,
      "̚": 334,
      "̝": 335,
      "̞": 336,
      "̟": 337,
      "̠": 338,
      "̣": 339,
      "̤": 340,
      "̥": 341,
      "̧": 342,
      "̩": 343,
      "̪": 344,
      "̯": 345,
      "̰": 346,
      "̱": 347,
      "̲": 348,
      "̺": 349,
      "̽": 350,
      "͍": 351,
      "͘": 352,
      "͜": 353,
      "͡": 354,
      "Α": 355,
      "Β": 356,
      "Γ": 357,
      "Δ": 358,
      "Ε": 359,
      "Η": 360,
      "Θ": 361,
      "Ι": 362,
      "Κ": 363,
      "Λ": 364,
      "Μ": 365,
      "Ν": 366,
      "Ξ": 367,
      "Ο": 368,
      "Π": 369,
      "Σ": 370,
      "Τ": 371,
      "Φ": 372,
      "Χ": 373,
      "Ψ": 374,
      "Ω": 375,
      "ά": 376,
      "έ": 377,
      "ή": 378,
      "ί": 379,
      "α": 380,
      "β": 381,
      "γ": 382,
      "δ": 383,
      "ε": 384,
      "ζ": 385,
      "η": 386,
      "θ": 387,
      "ι": 388,
      "κ": 389,
      "λ": 390,
      "μ": 391,
      "ν": 392,
      "ξ": 393,
      "ο": 394,
      "π": 395,
      "ρ": 396,
      "ς": 397,
      "σ": 398,
      "τ": 399,
      "υ": 400,
      "φ": 401,
      "χ": 402,
      "ψ": 403,
      "ω": 404,
      "ό": 405,
      "ύ": 406,
      "ώ": 407,
      "ϕ": 408,
      "Ј": 409,
      "А": 410,
      "Б": 411,
      "В": 412,
      "Г": 413,
      "Д": 414,
      "Е": 415,
      "З": 416,
      "И": 417,
      "Й": 418,
      "К": 419,
      "М": 420,
      "Н": 421,
      "О": 422,
      "П": 423,
      "Р": 424,
      "С": 425,
      "Т": 426,
      "Ч": 427,
      "Ш": 428,
      "Я": 429,
      "а": 430,
      "б": 431,
      "в": 432,
      "г": 433,
      "д": 434,
      "е": 435,
      "ж": 436,
      "з": 437,
      "и": 438,
      "й": 439,
      "к": 440,
      "л": 441,
      "м": 442,
      "н": 443,
      "о": 444,
      "п": 445,
      "р": 446,
      "с": 447,
      "т": 448,
      "у": 449,
      "х": 450,
      "ц": 451,
      "ч": 452,
      "ш": 453,
      "ъ": 454,
      "ы": 455,
      "ь": 456,
      "э": 457,
      "ю": 458,
      "я": 459,
      "ё": 460,
      "і": 461,
      "ј": 462,
      "љ": 463,
      "ў": 464,
      "Կ": 465,
      "Հ": 466,
      "Մ": 467,
      "Ս": 468,
      "ա": 469,
      "բ": 470,
      "ե": 471,
      "թ": 472,
      "ի": 473,
      "կ": 474,
      "հ": 475,
      "ղ": 476,
      "յ": 477,
      "ն": 478,
      "շ": 479,
      "ո": 480,
      "պ": 481,
      "ս": 482,
      "վ": 483,
      "տ": 484,
      "ր": 485,
      "ց": 486,
      "ւ": 487,
      "ք": 488,
      "֤": 489,
      "֫": 490,
      "ֵ": 491,
      "ֶ": 492,
      "ּ": 493,
      "א": 494,
      "ב": 495,
      "ג": 496,
      "ד": 497,
      "ו": 498,
      "ח": 499,
      "י": 500,
      "כ": 501,
      "ל": 502,
      "ם": 503,
      "מ": 504,
      "ן": 505,
      "נ": 506,
      "ס": 507,
      "ע": 508,
      "צ": 509,
      "ר": 510,
      "ש": 511,
      "ת": 512,
      "،": 513,
      "ء": 514,
      "أ": 515,
      "إ": 516,
      "ا": 517,
      "ب": 518,
      "ة": 519,
      "ت": 520,
      "ث": 521,
      "ج": 522,
      "ح": 523,
      "خ": 524,
      "د": 525,
      "ر": 526,
      "ز": 527,
      "س": 528,
      "ش": 529,
      "ص": 530,
      "ط": 531,
      "ع": 532,
      "غ": 533,
      "ف": 534,
      "ق": 535,
      "ك": 536,
      "ل": 537,
      "م": 538,
      "ن": 539,
      "ه": 540,
      "و": 541,
      "ي": 542,
      "ی": 543,
      "ं": 544,
      "अ": 545,
      "आ": 546,
      "उ": 547,
      "क": 548,
      "ग": 549,
      "ट": 550,
      "ड": 551,
      "त": 552,
      "द": 553,
      "न": 554,
      "प": 555,
      "ब": 556,
      "भ": 557,
      "म": 558,
      "य": 559,
      "र": 560,
      "ल": 561,
      "श": 562,
      "ष": 563,
      "स": 564,
      "ह": 565,
      "़": 566,
      "ा": 567,
      "ि": 568,
      "ी": 569,
      "ु": 570,
      "े": 571,
      "ो": 572,
      "्": 573,
      "।": 574,
      "॥": 575,
      "ক": 576,
      "ত": 577,
      "ন": 578,
      "ব": 579,
      "ম": 580,
      "ল": 581,
      "়": 582,
      "া": 583,
      "ি": 584,
      "্": 585,
      "க": 586,
      "ன": 587,
      "ள": 588,
      "்": 589,
      "్": 590,
      "್": 591,
      "്": 592,
      "්": 593,
      "ก": 594,
      "ข": 595,
      "ง": 596,
      "จ": 597,
      "ช": 598,
      "ฐ": 599,
      "ณ": 600,
      "ต": 601,
      "ท": 602,
      "น": 603,
      "ป": 604,
      "พ": 605,
      "ม": 606,
      "ย": 607,
      "ร": 608,
      "ล": 609,
      "ว": 610,
      "ะ": 611,
      "ั": 612,
      "า": 613,
      "ิ": 614,
      "ี": 615,
      "ู": 616,
      "฿": 617,
      "เ": 618,
      "แ": 619,
      "็": 620,
      "่": 621,
      "้": 622,
      "์": 623,
      "་": 624,
      "།": 625,
      "င": 626,
      "ဆ": 627,
      "န": 628,
      "ရ": 629,
      "္": 630,
      "်": 631,
      "გ": 632,
      "დ": 633,
      "ვ": 634,
      "ზ": 635,
      "ი": 636,
      "კ": 637,
      "ო": 638,
      "რ": 639,
      "ს": 640,
      "უ": 641,
      "ც": 642,
      "ძ": 643,
      "წ": 644,
      "ხ": 645,
      "ჯ": 646,
      "჻": 647,
      "፡": 648,
      "ᛃ": 649,
      "ᛋ": 650,
      "ᛟ": 651,
      "ត": 652,
      "ន": 653,
      "ព": 654,
      "ម": 655,
      "រ": 656,
      "ស": 657,
      "ហ": 658,
      "ី": 659,
      "ុ": 660,
      "ោ": 661,
      "ះ": 662,
      "់": 663,
      "្": 664,
      "᷉": 665,
      "ḍ": 666,
      "ḑ": 667,
      "Ḥ": 668,
      "ḥ": 669,
      "ḩ": 670,
      "ḷ": 671,
      "ḻ": 672,
      "ṃ": 673,
      "ṅ": 674,
      "ṇ": 675,
      "ṉ": 676,
      "ṛ": 677,
      "ṟ": 678,
      "Ṣ": 679,
      "ṣ": 680,
      "ṭ": 681,
      "ṯ": 682,
      "ạ": 683,
      "ả": 684,
      "ấ": 685,
      "ầ": 686,
      "ẩ": 687,
      "ẫ": 688,
      "ậ": 689,
      "ắ": 690,
      "ằ": 691,
      "ẵ": 692,
      "ặ": 693,
      "ẹ": 694,
      "ế": 695,
      "ề": 696,
      "ể": 697,
      "ễ": 698,
      "ệ": 699,
      "ị": 700,
      "Ọ": 701,
      "ọ": 702,
      "ỏ": 703,
      "ố": 704,
      "ồ": 705,
      "ổ": 706,
      "ỗ": 707,
      "ộ": 708,
      "ớ": 709,
      "ờ": 710,
      "ở": 711,
      "ợ": 712,
      "ụ": 713,
      "ủ": 714,
      "ứ": 715,
      "ừ": 716,
      "ử": 717,
      "ữ": 718,
      "ự": 719,
      "ỳ": 720,
      "ỵ": 721,
      "ỹ": 722,
      "ἀ": 723,
      "ἄ": 724,
      "Ἀ": 725,
      "ἐ": 726,
      "Ἕ": 727,
      "ἡ": 728,
      "Ἠ": 729,
      "ἰ": 730,
      "ἱ": 731,
      "ἵ": 732,
      "ἶ": 733,
      "Ἰ": 734,
      "ὁ": 735,
      "Ὄ": 736,
      "ὐ": 737,
      "ὑ": 738,
      "ὡ": 739,
      "ὰ": 740,
      "ὲ": 741,
      "ὴ": 742,
      "ὶ": 743,
      "ὸ": 744,
      "ὺ": 745,
      "ὼ": 746,
      "ᾶ": 747,
      "ῆ": 748,
      "ῖ": 749,
      "ῦ": 750,
      "Ῥ": 751,
      "ῶ": 752,
      "ῷ": 753,
      "​": 754,
      "‌": 755,
      "‍": 756,
      "‐": 757,
      "‑": 758,
      "‒": 759,
      "–": 760,
      "—": 761,
      "―": 762,
      "‘": 763,
      "’": 764,
      "‚": 765,
      "“": 766,
      "”": 767,
      "„": 768,
      "†": 769,
      "‡": 770,
      "•": 771,
      "…": 772,
      "‰": 773,
      "′": 774,
      "″": 775,
      "※": 776,
      "‼": 777,
      "‿": 778,
      "⁄": 779,
      "⁊": 780,
      "⁡": 781,
      "⁺": 782,
      "₁": 783,
      "₂": 784,
      "₃": 785,
      "₡": 786,
      "₣": 787,
      "₤": 788,
      "₦": 789,
      "₨": 790,
      "₩": 791,
      "₫": 792,
      "€": 793,
      "₱": 794,
      "₹": 795,
      "℃": 796,
      "ℓ": 797,
      "№": 798,
      "™": 799,
      "⅓": 800,
      "⅔": 801,
      "⅛": 802,
      "⅜": 803,
      "⅝": 804,
      "⅞": 805,
      "←": 806,
      "↑": 807,
      "→": 808,
      "↓": 809,
      "↔": 810,
      "↗": 811,
      "↦": 812,
      "↪": 813,
      "⇄": 814,
      "⇌": 815,
      "∀": 816,
      "∂": 817,
      "∆": 818,
      "∈": 819,
      "∑": 820,
      "−": 821,
      "∕": 822,
      "∖": 823,
      "∗": 824,
      "∘": 825,
      "√": 826,
      "∝": 827,
      "∞": 828,
      "∩": 829,
      "∪": 830,
      "∴": 831,
      "∼": 832,
      "≈": 833,
      "≠": 834,
      "≡": 835,
      "≢": 836,
      "≤": 837,
      "≥": 838,
      "≪": 839,
      "⊂": 840,
      "⊕": 841,
      "⊗": 842,
      "⊙": 843,
      "⊥": 844,
      "⋅": 845,
      "⋯": 846,
      "⌊": 847,
      "⌋": 848,
      "①": 849,
      "②": 850,
      "④": 851,
      "█": 852,
      "▲": 853,
      "★": 854,
      "☆": 855,
      "☉": 856,
      "♀": 857,
      "♠": 858,
      "♣": 859,
      "♥": 860,
      "♦": 861,
      "♩": 862,
      "♪": 863,
      "♭": 864,
      "♮": 865,
      "♯": 866,
      "⟦": 867,
      "⟧": 868,
      "⟨": 869,
      "⟩": 870,
      "⩽": 871,
      "ⴷ": 872,
      "、": 873,
      "。": 874,
      "〈": 875,
      "〉": 876,
      "「": 877,
      "」": 878,
      "『": 879,
      "』": 880,
      "〜": 881,
      "あ": 882,
      "い": 883,
      "ぅ": 884,
      "う": 885,
      "お": 886,
      "か": 887,
      "が": 888,
      "き": 889,
      "く": 890,
      "ぐ": 891,
      "こ": 892,
      "さ": 893,
      "し": 894,
      "じ": 895,
      "す": 896,
      "ず": 897,
      "せ": 898,
      "た": 899,
      "ち": 900,
      "つ": 901,
      "て": 902,
      "と": 903,
      "ど": 904,
      "な": 905,
      "の": 906,
      "は": 907,
      "ば": 908,
      "ふ": 909,
      "へ": 910,
      "ぽ": 911,
      "ま": 912,
      "み": 913,
      "め": 914,
      "よ": 915,
      "ら": 916,
      "り": 917,
      "る": 918,
      "ん": 919,
      "ァ": 920,
      "ア": 921,
      "ィ": 922,
      "イ": 923,
      "ウ": 924,
      "ェ": 925,
      "エ": 926,
      "ォ": 927,
      "オ": 928,
      "カ": 929,
      "ガ": 930,
      "キ": 931,
      "ギ": 932,
      "ク": 933,
      "グ": 934,
      "ケ": 935,
      "コ": 936,
      "ゴ": 937,
      "サ": 938,
      "ザ": 939,
      "シ": 940,
      "ジ": 941,
      "ス": 942,
      "ズ": 943,
      "セ": 944,
      "ゼ": 945,
      "ソ": 946,
      "タ": 947,
      "ダ": 948,
      "チ": 949,
      "ッ": 950,
      "ツ": 951,
      "テ": 952,
      "デ": 953,
      "ト": 954,
      "ド": 955,
      "ナ": 956,
      "ニ": 957,
      "ノ": 958,
      "ハ": 959,
      "バ": 960,
      "パ": 961,
      "ヒ": 962,
      "ビ": 963,
      "フ": 964,
      "ブ": 965,
      "プ": 966,
      "ベ": 967,
      "ペ": 968,
      "ボ": 969,
      "ポ": 970,
      "マ": 971,
      "ミ": 972,
      "ム": 973,
      "メ": 974,
      "モ": 975,
      "ャ": 976,
      "ヤ": 977,
      "ュ": 978,
      "ユ": 979,
      "ョ": 980,
      "ラ": 981,
      "リ": 982,
      "ル": 983,
      "レ": 984,
      "ロ": 985,
      "ワ": 986,
      "ン": 987,
      "ヴ": 988,
      "・": 989,
      "ー": 990,
      "一": 991,
      "三": 992,
      "上": 993,
      "下": 994,
      "不": 995,
      "丑": 996,
      "世": 997,
      "个": 998,
      "久": 999,
      "之": 1000,
      "乙": 1001,
      "二": 1002,
      "五": 1003,
      "亦": 1004,
      "京": 1005,
      "人": 1006,
      "介": 1007,
      "仙": 1008,
      "令": 1009,
      "伝": 1010,
      "住": 1011,
      "佛": 1012,
      "作": 1013,
      "併": 1014,
      "侠": 1015,
      "個": 1016,
      "催": 1017,
      "像": 1018,
      "光": 1019,
      "内": 1020,
      "写": 1021,
      "冴": 1022,
      "净": 1023,
      "凪": 1024,
      "分": 1025,
      "列": 1026,
      "刘": 1027,
      "初": 1028,
      "判": 1029,
      "別": 1030,
      "前": 1031,
      "剛": 1032,
      "剣": 1033,
      "劇": 1034,
      "動": 1035,
      "勝": 1036,
      "北": 1037,
      "匹": 1038,
      "千": 1039,
      "卒": 1040,
      "南": 1041,
      "博": 1042,
      "厘": 1043,
      "双": 1044,
      "台": 1045,
      "号": 1046,
      "同": 1047,
      "名": 1048,
      "君": 1049,
      "呼": 1050,
      "哈": 1051,
      "四": 1052,
      "回": 1053,
      "国": 1054,
      "國": 1055,
      "土": 1056,
      "坂": 1057,
      "場": 1058,
      "境": 1059,
      "士": 1060,
      "外": 1061,
      "大": 1062,
      "天": 1063,
      "太": 1064,
      "女": 1065,
      "姉": 1066,
      "婷": 1067,
      "子": 1068,
      "字": 1069,
      "季": 1070,
      "孩": 1071,
      "守": 1072,
      "宋": 1073,
      "宗": 1074,
      "寔": 1075,
      "寺": 1076,
      "小": 1077,
      "少": 1078,
      "尾": 1079,
      "巨": 1080,
      "廷": 1081,
      "式": 1082,
      "弘": 1083,
      "张": 1084,
      "張": 1085,
      "彼": 1086,
      "後": 1087,
      "心": 1088,
      "思": 1089,
      "愛": 1090,
      "憲": 1091,
      "戦": 1092,
      "房": 1093,
      "所": 1094,
      "撃": 1095,
      "攻": 1096,
      "新": 1097,
      "方": 1098,
      "日": 1099,
      "旦": 1100,
      "早": 1101,
      "星": 1102,
      "春": 1103,
      "時": 1104,
      "書": 1105,
      "月": 1106,
      "朝": 1107,
      "木": 1108,
      "本": 1109,
      "李": 1110,
      "杜": 1111,
      "束": 1112,
      "条": 1113,
      "東": 1114,
      "松": 1115,
      "枚": 1116,
      "條": 1117,
      "植": 1118,
      "椎": 1119,
      "楽": 1120,
      "様": 1121,
      "機": 1122,
      "正": 1123,
      "武": 1124,
      "歩": 1125,
      "死": 1126,
      "殻": 1127,
      "氏": 1128,
      "民": 1129,
      "気": 1130,
      "氣": 1131,
      "水": 1132,
      "氷": 1133,
      "氾": 1134,
      "法": 1135,
      "活": 1136,
      "流": 1137,
      "浅": 1138,
      "海": 1139,
      "溜": 1140,
      "瀬": 1141,
      "火": 1142,
      "無": 1143,
      "版": 1144,
      "特": 1145,
      "王": 1146,
      "瓦": 1147,
      "生": 1148,
      "用": 1149,
      "田": 1150,
      "町": 1151,
      "界": 1152,
      "畫": 1153,
      "皮": 1154,
      "真": 1155,
      "礮": 1156,
      "神": 1157,
      "秋": 1158,
      "積": 1159,
      "空": 1160,
      "章": 1161,
      "箇": 1162,
      "節": 1163,
      "米": 1164,
      "約": 1165,
      "紋": 1166,
      "綾": 1167,
      "緑": 1168,
      "編": 1169,
      "群": 1170,
      "羽": 1171,
      "耕": 1172,
      "聖": 1173,
      "肖": 1174,
      "膺": 1175,
      "芝": 1176,
      "花": 1177,
      "草": 1178,
      "莊": 1179,
      "蛍": 1180,
      "街": 1181,
      "裁": 1182,
      "装": 1183,
      "西": 1184,
      "見": 1185,
      "語": 1186,
      "説": 1187,
      "議": 1188,
      "词": 1189,
      "谷": 1190,
      "路": 1191,
      "軍": 1192,
      "転": 1193,
      "輝": 1194,
      "逆": 1195,
      "進": 1196,
      "道": 1197,
      "遠": 1198,
      "邪": 1199,
      "部": 1200,
      "野": 1201,
      "量": 1202,
      "金": 1203,
      "銀": 1204,
      "銖": 1205,
      "錬": 1206,
      "隊": 1207,
      "隴": 1208,
      "隻": 1209,
      "雄": 1210,
      "集": 1211,
      "雪": 1212,
      "零": 1213,
      "靈": 1214,
      "青": 1215,
      "韓": 1216,
      "風": 1217,
      "鬼": 1218,
      "魂": 1219,
      "魄": 1220,
      "魔": 1221,
      "鼓": 1222,
      "거": 1223,
      "루": 1224,
      "마": 1225,
      "막": 1226,
      "말": 1227,
      "사": 1228,
      "인": 1229,
      "전": 1230,
      "지": 1231,
      "짓": 1232,
      "투": 1233,
      "하": 1234,
      "ﬁ": 1235,
      "﻿": 1236,
      "！": 1237,
      "＆": 1238,
      "（": 1239,
      "）": 1240,
      "，": 1241,
      "－": 1242,
      "：": 1243,
      "＝": 1244,
      "？": 1245,
      "～": 1246,
      "｢": 1247,
      "･": 1248,
      "￥": 1249,
      "##h": 1250,
      "##a": 1251,
      "##s": 1252,
      "##e": 1253,
      "##r": 1254,
      "##8": 1255,
      "##7": 1256,
      "##p": 1257,
      "##o": 1258,
      "##z": 1259,
      "##i": 1260,
      "##n": 1261,
      "##d": 1262,
      "##C": 1263,
      "##t": 1264,
      "##u": 1265,
      "##1": 1266,
      "##4": 1267,
      "##g": 1268,
      "##ü": 1269,
      "##m": 1270,
      "##l": 1271,
      "##w": 1272,
      "##k": 1273,
      "##v": 1274,
      "##c": 1275,
      "##y": 1276,
      "##b": 1277,
      "##f": 1278,
      "##9": 1279,
      "##R": 1280,
      "##P": 1281,
      "##M": 1282,
      "##N": 1283,
      "##B": 1284,
      "##j": 1285,
      "##ī": 1286,
      "##à": 1287,
      "##q": 1288,
      "##x": 1289,
      "##ḥ": 1290,
      "##K": 1291,
      "##T": 1292,
      "##L": 1293,
      "##O": 1294,
      "##S": 1295,
      "##E": 1296,
      "##G": 1297,
      "##é": 1298,
      "##H": 1299,
      "##I": 1300,
      "##A": 1301,
      "##2": 1302,
      "##6": 1303,
      "##ț": 1304,
      "##á": 1305,
      "##ö": 1306,
      "##F": 1307,
      "##D": 1308,
      "##V": 1309,
      "##5": 1310,
      "##č": 1311,
      "##ū": 1312,
      "##è": 1313,
      "##3": 1314,
      "##í": 1315,
      "##0": 1316,
      "##ć": 1317,
      "##ą": 1318,
      "##ô": 1319,
      "##ä": 1320,
      "##ō": 1321,
      "##η": 1322,
      "##ν": 1323,
      "##λ": 1324,
      "##α": 1325,
      "##τ": 1326,
      "##υ": 1327,
      "##ς": 1328,
      "##õ": 1329,
      "##ï": 1330,
      "##W": 1331,
      "##ı": 1332,
      "##ş": 1333,
      "##û": 1334,
      "##о": 1335,
      "##в": 1336,
      "##е": 1337,
      "##U": 1338,
      "##ó": 1339,
      "##ǐ": 1340,
      "##ầ": 1341,
      "##ă": 1342,
      "##ł": 1343,
      "##â": 1344,
      "##و": 1345,
      "##Z": 1346,
      "##Ö": 1347,
      "##ő": 1348,
      "##ë": 1349,
      "##X": 1350,
      "##ń": 1351,
      "##ţ": 1352,
      "##ñ": 1353,
      "##š": 1354,
      "##ã": 1355,
      "##î": 1356,
      "##ỹ": 1357,
      "##ð": 1358,
      "##ا": 1359,
      "##ā": 1360,
      "##ư": 1361,
      "##ơ": 1362,
      "##έ": 1363,
      "##ξ": 1364,
      "##ι": 1365,
      "##ο": 1366,
      "##æ": 1367,
      "##ッ": 1368,
      "##ド": 1369,
      "##ǫ": 1370,
      "##ー": 1371,
      "##ø": 1372,
      "##Y": 1373,
      "##м": 1374,
      "##п": 1375,
      "##р": 1376,
      "##а": 1377,
      "##т": 1378,
      "##и": 1379,
      "##ц": 1380,
      "##ś": 1381,
      "##σ": 1382,
      "##ή": 1383,
      "##ρ": 1384,
      "##β": 1385,
      "##ạ": 1386,
      "##ɪ": 1387,
      "##ʿ": 1388,
      "##ß": 1389,
      "##J": 1390,
      "##剛": 1391,
      "##ả": 1392,
      "##ē": 1393,
      "##ž": 1394,
      "##ê": 1395,
      "##Q": 1396,
      "##ε": 1397,
      "##ώ": 1398,
      "##γ": 1399,
      "##ú": 1400,
      "##љ": 1401,
      "##ė": 1402,
      "##ù": 1403,
      "##å": 1404,
      "##ě": 1405,
      "##韓": 1406,
      "##邪": 1407,
      "##ș": 1408,
      "##с": 1409,
      "##к": 1410,
      "##й": 1411,
      "##ç": 1412,
      "##đ": 1413,
      "##ぐ": 1414,
      "##ぅ": 1415,
      "##ո": 1416,
      "##ւ": 1417,
      "##ր": 1418,
      "##բ": 1419,
      "##ω": 1420,
      "##ن": 1421,
      "##ʰ": 1422,
      "##ị": 1423,
      "##ř": 1424,
      "##ì": 1425,
      "##ệ": 1426,
      "##º": 1427,
      "##ò": 1428,
      "##ร": 1429,
      "##ะ": 1430,
      "##ท": 1431,
      "##ี": 1432,
      "##ष": 1433,
      "##ṇ": 1434,
      "##ザ": 1435,
      "##ę": 1436,
      "##ə": 1437,
      "##ý": 1438,
      "##ụ": 1439,
      "##ż": 1440,
      "##ό": 1441,
      "##ų": 1442,
      "##編": 1443,
      "##ấ": 1444,
      "##ب": 1445,
      "##ر": 1446,
      "##ه": 1447,
      "##ي": 1448,
      "##م": 1449,
      "##ũ": 1450,
      "##ĩ": 1451,
      "##π": 1452,
      "##ắ": 1453,
      "##ɛ": 1454,
      "##ṣ": 1455,
      "##ÿ": 1456,
      "##ʻ": 1457,
      "##ṛ": 1458,
      "##ʾ": 1459,
      "##フ": 1460,
      "##ィ": 1461,
      "##ロ": 1462,
      "##ス": 1463,
      "##ː": 1464,
      "##у": 1465,
      "##נ": 1466,
      "##ג": 1467,
      "##ừ": 1468,
      "##ğ": 1469,
      "##.": 1470,
      "##瀬": 1471,
      "##ḻ": 1472,
      "##ず": 1473,
      "##ま": 1474,
      "##き": 1475,
      "##С": 1476,
      "##Р": 1477,
      "##н": 1478,
      "##ǔ": 1479,
      "##ʊ": 1480,
      "##ل": 1481,
      "##ی": 1482,
      "##ῦ": 1483,
      "##議": 1484,
      "##ウ": 1485,
      "##ル": 1486,
      "##シ": 1487,
      "##バ": 1488,
      "##勝": 1489,
      "##之": 1490,
      "##書": 1491,
      "##ǎ": 1492,
      "##φ": 1493,
      "##ế": 1494,
      "##ん": 1495,
      "##が": 1496,
      "##大": 1497,
      "##王": 1498,
      "##É": 1499,
      "##μ": 1500,
      "##κ": 1501,
      "##ḍ": 1502,
      "##े": 1503,
      "##ं": 1504,
      "##ˠ": 1505,
      "##ח": 1506,
      "##ם": 1507,
      "##ج": 1508,
      "##د": 1509,
      "##佛": 1510,
      "##女": 1511,
      "##孩": 1512,
      "##刘": 1513,
      "##亦": 1514,
      "##婷": 1515,
      "##方": 1516,
      "##武": 1517,
      "##侠": 1518,
      "##ア": 1519,
      "##ト": 1520,
      "##タ": 1521,
      "##ậ": 1522,
      "##б": 1523,
      "##л": 1524,
      "##ἱ": 1525,
      "##ŏ": 1526,
      "##鼓": 1527,
      "##じ": 1528,
      "##め": 1529,
      "##の": 1530,
      "##一": 1531,
      "##歩": 1532,
      "##ヴ": 1533,
      "##س": 1534,
      "##神": 1535,
      "##転": 1536,
      "##生": 1537,
      "##ά": 1538,
      "##χ": 1539,
      "##ṭ": 1540,
      "##क": 1541,
      "##म": 1542,
      "##ῆ": 1543,
      "##θ": 1544,
      "##ʲ": 1545,
      "##վ": 1546,
      "##հ": 1547,
      "##ա": 1548,
      "##ն": 1549,
      "##ե": 1550,
      "##ս": 1551,
      "##リ": 1552,
      "##オ": 1553,
      "##ở": 1554,
      "##ί": 1555,
      "##δ": 1556,
      "##Č": 1557,
      "##ỵ": 1558,
      "##я": 1559,
      "##ש": 1560,
      "##ר": 1561,
      "##א": 1562,
      "##ל": 1563,
      "##յ": 1564,
      "##œ": 1565,
      "##ὴ": 1566,
      "##ķ": 1567,
      "##ة": 1568,
      "##ा": 1569,
      "##स": 1570,
      "##ि": 1571,
      "##名": 1572,
      "##ṃ": 1573,
      "##þ": 1574,
      "##太": 1575,
      "##ὰ": 1576,
      "##ζ": 1577,
      "##ὺ": 1578,
      "##春": 1579,
      "##流": 1580,
      "##カ": 1581,
      "##ナ": 1582,
      "##ʀ": 1583,
      "##ン": 1584,
      "##谷": 1585,
      "##ộ": 1586,
      "##プ": 1587,
      "##ύ": 1588,
      "##イ": 1589,
      "##ニ": 1590,
      "##グ": 1591,
      "##ユ": 1592,
      "##マ": 1593,
      "##ャ": 1594,
      "##ク": 1595,
      "##ك": 1596,
      "##ョ": 1597,
      "##コ": 1598,
      "##ボ": 1599,
      "##不": 1600,
      "##思": 1601,
      "##な": 1602,
      "##ダ": 1603,
      "##ジ": 1604,
      "##ŷ": 1605,
      "##ք": 1606,
      "##ņ": 1607,
      "##と": 1608,
      "##巨": 1609,
      "##像": 1610,
      "##別": 1611,
      "##Σ": 1612,
      "##ḑ": 1613,
      "##ẵ": 1614,
      "##ṅ": 1615,
      "##ổ": 1616,
      "##ह": 1617,
      "##ẫ": 1618,
      "##ग": 1619,
      "##ल": 1620,
      "##ự": 1621,
      "##朝": 1622,
      "##サ": 1623,
      "##ラ": 1624,
      "##ز": 1625,
      "##紋": 1626,
      "##章": 1627,
      "##ギ": 1628,
      "##ḩ": 1629,
      "##本": 1630,
      "##д": 1631,
      "##ь": 1632,
      "##い": 1633,
      "##る": 1634,
      "##か": 1635,
      "##ら": 1636,
      "##ớ": 1637,
      "##Ō": 1638,
      "##ォ": 1639,
      "##Ω": 1640,
      "##ť": 1641,
      "##Ü": 1642,
      "##住": 1643,
      "##ч": 1644,
      "##ữ": 1645,
      "##ờ": 1646,
      "##ズ": 1647,
      "##ブ": 1648,
      "##ノ": 1649,
      "##セ": 1650,
      "##ก": 1651,
      "##า": 1652,
      "##ต": 1653,
      "##ป": 1654,
      "##ู": 1655,
      "##坂": 1656,
      "##ặ": 1657,
      "##ź": 1658,
      "##ố": 1659,
      "##木": 1660,
      "##ṉ": 1661,
      "##ṟ": 1662,
      "##法": 1663,
      "##ủ": 1664,
      "##ց": 1665,
      "##կ": 1666,
      "##ղ": 1667,
      "##ի": 1668,
      "##ゴ": 1669,
      "##エ": 1670,
      "##列": 1671,
      "##伝": 1672,
      "##ὸ": 1673,
      "##ァ": 1674,
      "##Λ": 1675,
      "##个": 1676,
      "##人": 1677,
      "##ふ": 1678,
      "##彼": 1679,
      "##氏": 1680,
      "##レ": 1681,
      "##秋": 1682,
      "##ʒ": 1683,
      "##ת": 1684,
      "##ɑ": 1685,
      "##ল": 1686,
      "##ি": 1687,
      "##ক": 1688,
      "##া": 1689,
      "##ত": 1690,
      "##ọ": 1691,
      "##ʼ": 1692,
      "##з": 1693,
      "##ж": 1694,
      "##ў": 1695,
      "##ы": 1696,
      "##束": 1697,
      "##場": 1698,
      "##所": 1699,
      "##ヒ": 1700,
      "##,": 1701,
      "##@": 1702,
      "##ء": 1703,
      "##ˈ": 1704,
      "##ɲ": 1705,
      "##ġ": 1706,
      "##`": 1707,
      "##士": 1708,
      "##ử": 1709,
      "##ी": 1710,
      "##त": 1711,
      "##ồ": 1712,
      "##ḷ": 1713,
      "##野": 1714,
      "##ֶ": 1715,
      "##ェ": 1716,
      "##ぽ": 1717,
      "##た": 1718,
      "##ف": 1719,
      "##ម": 1720,
      "##ط": 1721,
      "##Π": 1722,
      "##語": 1723,
      "##ὼ": 1724,
      "##ň": 1725,
      "##く": 1726,
      "##ˤ": 1727,
      "##メ": 1728,
      "##民": 1729,
      "##月": 1730,
      "##令": 1731,
      "##թ": 1732,
      "##外": 1733,
      "##-": 1734,
      "##ỳ": 1735,
      "##ứ": 1736,
      "##台": 1737,
      "##ů": 1738,
      "##西": 1739,
      "##李": 1740,
      "##国": 1741,
      "##天": 1742,
      "##守": 1743,
      "##र": 1744,
      "##ح": 1745,
      "##ľ": 1746,
      "##テ": 1747,
      "##ث": 1748,
      "##ق": 1749,
      "##ב": 1750,
      "##צ": 1751,
      "##ע": 1752,
      "##姉": 1753,
      "##さ": 1754,
      "##ῶ": 1755,
      "##ツ": 1756,
      "##ั": 1757,
      "##様": 1758,
      "##み": 1759,
      "##て": 1760,
      "##見": 1761,
      "##ɔ": 1762,
      "##剣": 1763,
      "##死": 1764,
      "##ᾶ": 1765,
      "##ŭ": 1766,
      "##э": 1767,
      "##і": 1768,
      "##ो": 1769,
      "##軍": 1770,
      "##ẩ": 1771,
      "##Θ": 1772,
      "##Ε": 1773,
      "##Ο": 1774,
      "##耕": 1775,
      "##群": 1776,
      "##世": 1777,
      "##界": 1778,
      "##ソ": 1779,
      "##ム": 1780,
      "##ล": 1781,
      "##ย": 1782,
      "##ณ": 1783,
      "##ม": 1784,
      "##ิ": 1785,
      "##京": 1786,
      "##ミ": 1787,
      "##ュ": 1788,
      "##ت": 1789,
      "##ῖ": 1790,
      "##ʁ": 1791,
      "##'": 1792,
      "##ǒ": 1793,
      "##ち": 1794,
      "##肖": 1795,
      "##ʃ": 1796,
      "##ʌ": 1797,
      "##ص": 1798,
      "##尾": 1799,
      "##ἰ": 1800,
      "##ј": 1801,
      "##ἶ": 1802,
      "##ϕ": 1803,
      "##င": 1804,
      "##動": 1805,
      "##写": 1806,
      "##真": 1807,
      "##ו": 1808,
      "##כ": 1809,
      "##國": 1810,
      "##無": 1811,
      "##双": 1812,
      "##ះ": 1813,
      "##ὐ": 1814,
      "##戦": 1815,
      "##ガ": 1816,
      "##膺": 1817,
      "##ן": 1818,
      "##ケ": 1819,
      "##モ": 1820,
      "##ɨ": 1821,
      "##ɬ": 1822,
      "##遠": 1823,
      "##պ": 1824,
      "##տ": 1825,
      "##房": 1826,
      "##Κ": 1827,
      "##Α": 1828,
      "##Ī": 1829,
      "##卒": 1830,
      "##活": 1831,
      "##心": 1832,
      "##ɡ": 1833,
      "##説": 1834,
      "##瓦": 1835,
      "##န": 1836,
      "##Đ": 1837,
      "##ю": 1838,
      "##撃": 1839,
      "##द": 1840,
      "##แ": 1841,
      "##魂": 1842,
      "##ằ": 1843,
      "##寔": 1844,
      "##ペ": 1845,
      "##ع": 1846,
      "##ẹ": 1847,
      "##ゼ": 1848,
      "##デ": 1849,
      "##ề": 1850,
      "##루": 1851,
      "##하": 1852,
      "##ễ": 1853,
      "##ỏ": 1854,
      "##จ": 1855,
      "##Μ": 1856,
      "##草": 1857,
      "##寺": 1858,
      "##境": 1859,
      "##内": 1860,
      "##ὶ": 1861,
      "##ベ": 1862,
      "##チ": 1863,
      "##ё": 1864,
      "##Š": 1865,
      "##ŋ": 1866,
      "##火": 1867,
      "##杜": 1868,
      "##へ": 1869,
      "##ŵ": 1870,
      "##г": 1871,
      "##芝": 1872,
      "##Ó": 1873,
      "##Ι": 1874,
      "##ῷ": 1875,
      "##子": 1876,
      "##사": 1877,
      "##Ú": 1878,
      "##キ": 1879,
      "##ば": 1880,
      "##し": 1881,
      "##こ": 1882,
      "##せ": 1883,
      "##海": 1884,
      "##弘": 1885,
      "##雄": 1886,
      "##町": 1887,
      "##词": 1888,
      "##շ": 1889,
      "##ъ": 1890,
      "##空": 1891,
      "##ψ": 1892,
      "##号": 1893,
      "##作": 1894,
      "##प": 1895,
      "##न": 1896,
      "##少": 1897,
      "##ど": 1898,
      "##ṯ": 1899,
      "##ش": 1900,
      "##銖": 1901,
      "##ள": 1902,
      "##零": 1903,
      "##式": 1904,
      "##Я": 1905,
      "##ˀ": 1906,
      "##版": 1907,
      "##裁": 1908,
      "##判": 1909,
      "##ข": 1910,
      "##พ": 1911,
      "##ช": 1912,
      "##ฐ": 1913,
      "##น": 1914,
      "##투": 1915,
      "##지": 1916,
      "##막": 1917,
      "##ὲ": 1918,
      "##រ": 1919,
      "##ោ": 1920,
      "##ត": 1921,
      "##ợ": 1922,
      "##י": 1923,
      "##ể": 1924,
      "##装": 1925,
      "##錬": 1926,
      "##金": 1927,
      "##礮": 1928,
      "##ম": 1929,
      "##ন": 1930,
      "##皮": 1931,
      "##憲": 1932,
      "##ш": 1933,
      "##Δ": 1934,
      "##殻": 1935,
      "##機": 1936,
      "##隊": 1937,
      "##ỗ": 1938,
      "##ֵ": 1939,
      "##ּ": 1940,
      "##ី": 1941,
      "##ហ": 1942,
      "##ន": 1943,
      "##ុ": 1944,
      "##Г": 1945,
      "##併": 1946,
      "##用": 1947,
      "##짓": 1948,
      "##말": 1949,
      "##季": 1950,
      "##節": 1951,
      "##ヤ": 1952,
      "##ˁ": 1953,
      "##溜": 1954,
      "##り": 1955,
      "##街": 1956,
      "##ビ": 1957,
      "##つ": 1958,
      "##積": 1959,
      "##回": 1960,
      "##路": 1961,
      "##ワ": 1962,
      "##ु": 1963,
      "##ʷ": 1964,
      "##he": 1965,
      "the": 1966,
      "##er": 1967,
      "##in": 1968,
      "##on": 1969,
      "##ed": 1970,
      "##nd": 1971,
      "##or": 1972,
      "##at": 1973,
      "##es": 1974,
      "##ar": 1975,
      "##en": 1976,
      "of": 1977,
      "##an": 1978,
      "##al": 1979,
      "in": 1980,
      "##ing": 1981,
      "##it": 1982,
      "##as": 1983,
      "and": 1984,
      "##is": 1985,
      "to": 1986,
      "##ic": 1987,
      "##ou": 1988,
      "##ion": 1989,
      "##re": 1990,
      "##om": 1991,
      "##il": 1992,
      "##el": 1993,
      "##ec": 1994,
      "##ent": 1995,
      "th": 1996,
      "##st": 1997,
      "##am": 1998,
      "##et": 1999,
      "##ro": 2000,
      "##ad": 2001,
      "##ac": 2002,
      "was": 2003,
      "##ur": 2004,
      "##le": 2005,
      "on": 2006,
      "The": 2007,
      "##ly": 2008,
      "##ol": 2009,
      "##ir": 2010,
      "for": 2011,
      "@-": 2012,
      "@-@": 2013,
      "##ter": 2014,
      "##id": 2015,
      "##iv": 2016,
      "##ig": 2017,
      "##ot": 2018,
      "as": 2019,
      "##ow": 2020,
      "##ut": 2021,
      "##im": 2022,
      "##ith": 2023,
      "##ay": 2024,
      "##em": 2025,
      "st": 2026,
      "##ation": 2027,
      "with": 2028,
      "be": 2029,
      "that": 2030,
      "un": 2031,
      "##ers": 2032,
      "wh": 2033,
      "re": 2034,
      "##ts": 2035,
      "by": 2036,
      "##us": 2037,
      "##ch": 2038,
      "##ce": 2039,
      "al": 2040,
      "##th": 2041,
      "##ver": 2042,
      "is": 2043,
      "con": 2044,
      "at": 2045,
      "##ul": 2046,
      "##ain": 2047,
      "19": 2048,
      "##and": 2049,
      "an": 2050,
      "##os": 2051,
      "##her": 2052,
      "fr": 2053,
      "##av": 2054,
      "##ag": 2055,
      "##um": 2056,
      "##est": 2057,
      "his": 2058,
      "unk": 2059,
      "##od": 2060,
      "he": 2061,
      "##ct": 2062,
      "##ess": 2063,
      "from": 2064,
      "com": 2065,
      "##ri": 2066,
      "20": 2067,
      "##un": 2068,
      "##ap": 2069,
      "pro": 2070,
      "##op": 2071,
      "##ere": 2072,
      "##ew": 2073,
      "##ill": 2074,
      "su": 2075,
      "##ist": 2076,
      "##igh": 2077,
      "##ear": 2078,
      "In": 2079,
      "##ies": 2080,
      "##ld": 2081,
      "##ect": 2082,
      "##ber": 2083,
      "de": 2084,
      "##ard": 2085,
      "##if": 2086,
      "were": 2087,
      "##all": 2088,
      "##ich": 2089,
      "##ate": 2090,
      "##oc": 2091,
      "##ak": 2092,
      "##ab": 2093,
      "##pp": 2094,
      "it": 2095,
      "se": 2096,
      "ex": 2097,
      "##ong": 2098,
      "##art": 2099,
      "##ud": 2100,
      "##ort": 2101,
      "or": 2102,
      "ch": 2103,
      "##gh": 2104,
      "##ated": 2105,
      "pl": 2106,
      "sh": 2107,
      "##ity": 2108,
      "##se": 2109,
      "##ive": 2110,
      "##ame": 2111,
      "##ore": 2112,
      "had": 2113,
      "##ant": 2114,
      "##our": 2115,
      "##ack": 2116,
      "##rou": 2117,
      "St": 2118,
      "##ip": 2119,
      "which": 2120,
      "##ast": 2121,
      "##ge": 2122,
      "##ov": 2123,
      "pr": 2124,
      "are": 2125,
      "##ian": 2126,
      "##ment": 2127,
      "##ial": 2128,
      "##ell": 2129,
      "not": 2130,
      "##ost": 2131,
      "sp": 2132,
      "tr": 2133,
      "##qu": 2134,
      "##ord": 2135,
      "##ust": 2136,
      "##ary": 2137,
      "##ia": 2138,
      "##pt": 2139,
      "##ther": 2140,
      "##ine": 2141,
      "##rit": 2142,
      "le": 2143,
      "##oun": 2144,
      "##ical": 2145,
      "##ave": 2146,
      "rec": 2147,
      "Ch": 2148,
      "en": 2149,
      "##ight": 2150,
      "##pl": 2151,
      "200": 2152,
      "##out": 2153,
      "##cc": 2154,
      "inc": 2155,
      "##ie": 2156,
      "##fter": 2157,
      "##ould": 2158,
      "but": 2159,
      "fir": 2160,
      "##ish": 2161,
      "##ous": 2162,
      "##ions": 2163,
      "int": 2164,
      "##ff": 2165,
      "##so": 2166,
      "cont": 2167,
      "ar": 2168,
      "whe": 2169,
      "##ure": 2170,
      "her": 2171,
      "first": 2172,
      "##ue": 2173,
      "cl": 2174,
      "##wo": 2175,
      "##ub": 2176,
      "its": 2177,
      "##per": 2178,
      "their": 2179,
      "##og": 2180,
      "##ass": 2181,
      "##ign": 2182,
      "##ork": 2183,
      "##orm": 2184,
      "res": 2185,
      "##ok": 2186,
      "##ome": 2187,
      "##oll": 2188,
      "##ru": 2189,
      "##ater": 2190,
      "also": 2191,
      "ab": 2192,
      "ad": 2193,
      "##ra": 2194,
      "##ond": 2195,
      "##00": 2196,
      "##age": 2197,
      "He": 2198,
      "##ide": 2199,
      "##mer": 2200,
      "##ry": 2201,
      "##hed": 2202,
      "rel": 2203,
      "##ire": 2204,
      "##ime": 2205,
      "per": 2206,
      "##ans": 2207,
      "who": 2208,
      "##own": 2209,
      "one": 2210,
      "have": 2211,
      "sc": 2212,
      "Th": 2213,
      "##du": 2214,
      "##ally": 2215,
      "##end": 2216,
      "##ence": 2217,
      "##ound": 2218,
      "18": 2219,
      "@.": 2220,
      "@.@": 2221,
      "##ance": 2222,
      "##ile": 2223,
      "two": 2224,
      "##ition": 2225,
      "##ough": 2226,
      "##ree": 2227,
      "##uring": 2228,
      "been": 2229,
      "bec": 2230,
      "has": 2231,
      "##iz": 2232,
      "ag": 2233,
      "Al": 2234,
      "##ely": 2235,
      "app": 2236,
      "201": 2237,
      "@,": 2238,
      "@,@": 2239,
      "##pr": 2240,
      "all": 2241,
      "dis": 2242,
      "this": 2243,
      "ser": 2244,
      "##lud": 2245,
      "##act": 2246,
      "##ory": 2247,
      "year": 2248,
      "##ice": 2249,
      "##ations": 2250,
      "##ember": 2251,
      "##ey": 2252,
      "off": 2253,
      "after": 2254,
      "part": 2255,
      "##ark": 2256,
      "comp": 2257,
      "##ach": 2258,
      "play": 2259,
      "It": 2260,
      "des": 2261,
      "over": 2262,
      "##ace": 2263,
      "##land": 2264,
      "out": 2265,
      "they": 2266,
      "att": 2267,
      "##ade": 2268,
      "##eas": 2269,
      "other": 2270,
      "man": 2271,
      "##ric": 2272,
      "##ult": 2273,
      "im": 2274,
      "##ib": 2275,
      "includ": 2276,
      "##over": 2277,
      "##ik": 2278,
      "##ced": 2279,
      "##ens": 2280,
      "##ail": 2281,
      "##urn": 2282,
      "##wn": 2283,
      "would": 2284,
      "##ee": 2285,
      "us": 2286,
      "up": 2287,
      "##ind": 2288,
      "time": 2289,
      "into": 2290,
      "##ang": 2291,
      "##man": 2292,
      "On": 2293,
      "##ount": 2294,
      "pre": 2295,
      "##ward": 2296,
      "Un": 2297,
      "him": 2298,
      "##oin": 2299,
      "##ite": 2300,
      "##oy": 2301,
      "##ates": 2302,
      "she": 2303,
      "##een": 2304,
      "ev": 2305,
      "##ilm": 2306,
      "##ited": 2307,
      "##able": 2308,
      "##nder": 2309,
      "##ever": 2310,
      "##ied": 2311,
      "##amp": 2312,
      "##ction": 2313,
      "comm": 2314,
      "##ors": 2315,
      "inter": 2316,
      "##ents": 2317,
      "##ose": 2318,
      "##rough": 2319,
      "##les": 2320,
      "##ons": 2321,
      "more": 2322,
      "##ood": 2323,
      "work": 2324,
      "##ces": 2325,
      "##aw": 2326,
      "##old": 2327,
      "Ar": 2328,
      "##form": 2329,
      "##ock": 2330,
      "Fr": 2331,
      "##ings": 2332,
      "##vel": 2333,
      "##one": 2334,
      "##etw": 2335,
      "##ild": 2336,
      "new": 2337,
      "##ick": 2338,
      "##eat": 2339,
      "An": 2340,
      "sec": 2341,
      "##ft": 2342,
      "when": 2343,
      "film": 2344,
      "##inal": 2345,
      "##fer": 2346,
      "##ious": 2347,
      "##way": 2348,
      "##ake": 2349,
      "##aus": 2350,
      "##reat": 2351,
      "Mar": 2352,
      "##ted": 2353,
      "cons": 2354,
      "##iss": 2355,
      "##round": 2356,
      "rem": 2357,
      "##gan": 2358,
      "##rib": 2359,
      "##ved": 2360,
      "##rop": 2361,
      "dec": 2362,
      "car": 2363,
      "##ss": 2364,
      "##att": 2365,
      "te": 2366,
      "during": 2367,
      "##ual": 2368,
      "##orth": 2369,
      "##eg": 2370,
      "again": 2371,
      "##ob": 2372,
      "##port": 2373,
      "most": 2374,
      "##ubl": 2375,
      "game": 2376,
      "char": 2377,
      "fl": 2378,
      "them": 2379,
      "199": 2380,
      "only": 2381,
      "##oth": 2382,
      "##ason": 2383,
      "##hip": 2384,
      "ear": 2385,
      "##eld": 2386,
      "##etween": 2387,
      "##ix": 2388,
      "##ollow": 2389,
      "than": 2390,
      "##ered": 2391,
      "##ational": 2392,
      "New": 2393,
      "about": 2394,
      "##ep": 2395,
      "produ": 2396,
      "cent": 2397,
      "kn": 2398,
      "ret": 2399,
      "##tern": 2400,
      "song": 2401,
      "can": 2402,
      "##fore": 2403,
      "##ev": 2404,
      "##outh": 2405,
      "between": 2406,
      "later": 2407,
      "##ug": 2408,
      "under": 2409,
      "##ict": 2410,
      "three": 2411,
      "##ters": 2412,
      "##orn": 2413,
      "##hn": 2414,
      "##iew": 2415,
      "##eb": 2416,
      "##ook": 2417,
      "##aid": 2418,
      "##ank": 2419,
      "through": 2420,
      "##orld": 2421,
      "releas": 2422,
      "En": 2423,
      "num": 2424,
      "acc": 2425,
      "##ath": 2426,
      "while": 2427,
      "end": 2428,
      "##meric": 2429,
      "so": 2430,
      "Americ": 2431,
      "act": 2432,
      "pos": 2433,
      "##ral": 2434,
      "sub": 2435,
      "ass": 2436,
      "ro": 2437,
      "##ex": 2438,
      "where": 2439,
      "##ular": 2440,
      "##ton": 2441,
      "bu": 2442,
      "day": 2443,
      "reg": 2444,
      "form": 2445,
      "second": 2446,
      "##ph": 2447,
      "##ener": 2448,
      "made": 2449,
      "Com": 2450,
      "##ames": 2451,
      "##ision": 2452,
      "##ived": 2453,
      "record": 2454,
      "##ve": 2455,
      "def": 2456,
      "##bum": 2457,
      "000": 2458,
      "ac": 2459,
      "four": 2460,
      "##te": 2461,
      "##red": 2462,
      "follow": 2463,
      "season": 2464,
      "##als": 2465,
      "bas": 2466,
      "##ating": 2467,
      "some": 2468,
      "ep": 2469,
      "such": 2470,
      "am": 2471,
      "##son": 2472,
      "ind": 2473,
      "pe": 2474,
      "##ished": 2475,
      "mov": 2476,
      "before": 2477,
      "##ool": 2478,
      "##ept": 2479,
      "##ained": 2480,
      "mus": 2481,
      "there": 2482,
      "writ": 2483,
      "mon": 2484,
      "##hes": 2485,
      "Jo": 2486,
      "spec": 2487,
      "##ics": 2488,
      "As": 2489,
      "10": 2490,
      "years": 2491,
      "team": 2492,
      "sy": 2493,
      "##hen": 2494,
      "##ode": 2495,
      "##ike": 2496,
      "This": 2497,
      "At": 2498,
      "lar": 2499,
      "album": 2500,
      "##ected": 2501,
      "##io": 2502,
      "gr": 2503,
      "##ont": 2504,
      "##owever": 2505,
      "##ily": 2506,
      "Pr": 2507,
      "Sp": 2508,
      "used": 2509,
      "el": 2510,
      "##ning": 2511,
      "call": 2512,
      "supp": 2513,
      "bl": 2514,
      "sur": 2515,
      "##ific": 2516,
      "Sh": 2517,
      "##ery": 2518,
      "high": 2519,
      "publ": 2520,
      "##ury": 2521,
      "##ection": 2522,
      "being": 2523,
      "epis": 2524,
      "then": 2525,
      "##anc": 2526,
      "##velop": 2527,
      "do": 2528,
      "inv": 2529,
      "loc": 2530,
      "me": 2531,
      "##air": 2532,
      "br": 2533,
      "against": 2534,
      "##ll": 2535,
      "17": 2536,
      "##other": 2537,
      "##ement": 2538,
      "##aj": 2539,
      "qu": 2540,
      "##ife": 2541,
      "##ten": 2542,
      "pres": 2543,
      "##ower": 2544,
      "number": 2545,
      "After": 2546,
      "charac": 2547,
      "sever": 2548,
      "show": 2549,
      "add": 2550,
      "set": 2551,
      "co": 2552,
      "##ince": 2553,
      "became": 2554,
      "we": 2555,
      "Brit": 2556,
      "air": 2557,
      "##au": 2558,
      "##ause": 2559,
      "##ane": 2560,
      "lead": 2561,
      "perform": 2562,
      "including": 2563,
      "no": 2564,
      "sing": 2565,
      "United": 2566,
      "found": 2567,
      "well": 2568,
      "min": 2569,
      "##ron": 2570,
      "back": 2571,
      "##erm": 2572,
      "both": 2573,
      "series": 2574,
      "198": 2575,
      "##ised": 2576,
      "##gr": 2577,
      "cap": 2578,
      "Sc": 2579,
      "rev": 2580,
      "15": 2581,
      "str": 2582,
      "12": 2583,
      "##ober": 2584,
      "war": 2585,
      "##ale": 2586,
      "##ise": 2587,
      "appear": 2588,
      "##ures": 2589,
      "Wh": 2590,
      "##pen": 2591,
      "##its": 2592,
      "##ier": 2593,
      "main": 2594,
      "##ivers": 2595,
      "194": 2596,
      "She": 2597,
      "##itt": 2598,
      "##ines": 2599,
      "##overn": 2600,
      "did": 2601,
      "Br": 2602,
      "dr": 2603,
      "##fl": 2604,
      "##iet": 2605,
      "##are": 2606,
      "##til": 2607,
      "##uc": 2608,
      "go": 2609,
      "develop": 2610,
      "##led": 2611,
      "##roup": 2612,
      "War": 2613,
      "##elf": 2614,
      "long": 2615,
      "Eng": 2616,
      "##ities": 2617,
      "met": 2618,
      "##ann": 2619,
      "Le": 2620,
      "##any": 2621,
      "##olog": 2622,
      "##ross": 2623,
      "John": 2624,
      "mill": 2625,
      "##ird": 2626,
      "em": 2627,
      "##ley": 2628,
      "##ful": 2629,
      "ship": 2630,
      "episode": 2631,
      "mat": 2632,
      "##az": 2633,
      "dire": 2634,
      "said": 2635,
      "stud": 2636,
      "ext": 2637,
      "cre": 2638,
      "##ert": 2639,
      "many": 2640,
      "##ield": 2641,
      "bro": 2642,
      "rece": 2643,
      "could": 2644,
      "##ative": 2645,
      "pol": 2646,
      "##uch": 2647,
      "orig": 2648,
      "16": 2649,
      "contin": 2650,
      "Cl": 2651,
      "several": 2652,
      "American": 2653,
      "##though": 2654,
      "##iver": 2655,
      "dif": 2656,
      "##ather": 2657,
      "inst": 2658,
      "pop": 2659,
      "Ind": 2660,
      "##ase": 2661,
      "##ouse": 2662,
      "##ash": 2663,
      "known": 2664,
      "##emb": 2665,
      "197": 2666,
      "##eng": 2667,
      "##der": 2668,
      "##ually": 2669,
      "196": 2670,
      "##sp": 2671,
      "Aust": 2672,
      "conc": 2673,
      "11": 2674,
      "feat": 2675,
      "##ident": 2676,
      "##eed": 2677,
      "par": 2678,
      "##erson": 2679,
      "##iam": 2680,
      "ob": 2681,
      "return": 2682,
      "##ued": 2683,
      "began": 2684,
      "any": 2685,
      "sm": 2686,
      "##ins": 2687,
      "design": 2688,
      "##ty": 2689,
      "prov": 2690,
      "##up": 2691,
      "##ks": 2692,
      "near": 2693,
      "##row": 2694,
      "compl": 2695,
      "desc": 2696,
      "sign": 2697,
      "##ople": 2698,
      "##chool": 2699,
      "est": 2700,
      "##ange": 2701,
      "##my": 2702,
      "##aking": 2703,
      "exp": 2704,
      "##ccess": 2705,
      "##0s": 2706,
      "trans": 2707,
      "##hy": 2708,
      "Bl": 2709,
      "run": 2710,
      "early": 2711,
      "art": 2712,
      "music": 2713,
      "own": 2714,
      "dist": 2715,
      "##ah": 2716,
      "##ism": 2717,
      "released": 2718,
      "##ided": 2719,
      "until": 2720,
      "##ern": 2721,
      "called": 2722,
      "##ized": 2723,
      "##ets": 2724,
      "eff": 2725,
      "##imes": 2726,
      "bel": 2727,
      "Con": 2728,
      "##enn": 2729,
      "US": 2730,
      "resp": 2731,
      "##oot": 2732,
      "pass": 2733,
      "##ured": 2734,
      "##stem": 2735,
      "fin": 2736,
      "For": 2737,
      "##els": 2738,
      "##ull": 2739,
      "##une": 2740,
      "##ially": 2741,
      "##rap": 2742,
      "May": 2743,
      "##ists": 2744,
      "down": 2745,
      "##ution": 2746,
      "prev": 2747,
      "disc": 2748,
      "crit": 2749,
      "##ars": 2750,
      "col": 2751,
      "##osed": 2752,
      "gener": 2753,
      "direct": 2754,
      "along": 2755,
      "sl": 2756,
      "million": 2757,
      "British": 2758,
      "Ger": 2759,
      "group": 2760,
      "offic": 2761,
      "fam": 2762,
      "Car": 2763,
      "13": 2764,
      "##ajor": 2765,
      "##ession": 2766,
      "these": 2767,
      "##ium": 2768,
      "mod": 2769,
      "##ax": 2770,
      "may": 2771,
      "imp": 2772,
      "open": 2773,
      "Tr": 2774,
      "mil": 2775,
      "poin": 2776,
      "Ad": 2777,
      "##ains": 2778,
      "land": 2779,
      "count": 2780,
      "hist": 2781,
      "sim": 2782,
      "##ently": 2783,
      "govern": 2784,
      "Aug": 2785,
      "##ments": 2786,
      "##und": 2787,
      "Sept": 2788,
      "success": 2789,
      "September": 2790,
      "August": 2791,
      "##amed": 2792,
      "States": 2793,
      "World": 2794,
      "oper": 2795,
      "attack": 2796,
      "##ible": 2797,
      "##ues": 2798,
      "same": 2799,
      "use": 2800,
      "##wards": 2801,
      "describ": 2802,
      "people": 2803,
      "character": 2804,
      "##aced": 2805,
      "because": 2806,
      "All": 2807,
      "serv": 2808,
      "##aining": 2809,
      "like": 2810,
      "##cept": 2811,
      "##ired": 2812,
      "arr": 2813,
      "14": 2814,
      "##ended": 2815,
      "Ju": 2816,
      "##ven": 2817,
      "around": 2818,
      "though": 2819,
      "##aving": 2820,
      "195": 2821,
      "win": 2822,
      "dep": 2823,
      "Is": 2824,
      "km": 2825,
      "gu": 2826,
      "const": 2827,
      "##yp": 2828,
      "took": 2829,
      "occ": 2830,
      "Pl": 2831,
      "Austral": 2832,
      "batt": 2833,
      "Oct": 2834,
      "German": 2835,
      "##ting": 2836,
      "##erv": 2837,
      "ann": 2838,
      "##por": 2839,
      "Col": 2840,
      "wee": 2841,
      "##ruct": 2842,
      "id": 2843,
      "Nov": 2844,
      "following": 2845,
      "six": 2846,
      "north": 2847,
      "##ove": 2848,
      "193": 2849,
      "However": 2850,
      "system": 2851,
      "##gg": 2852,
      "final": 2853,
      "adv": 2854,
      "received": 2855,
      "Gr": 2856,
      "class": 2857,
      "October": 2858,
      "##uss": 2859,
      "consid": 2860,
      "Pro": 2861,
      "##ects": 2862,
      "prom": 2863,
      "head": 2864,
      "##ives": 2865,
      "##ner": 2866,
      "complet": 2867,
      "support": 2868,
      "Dec": 2869,
      "191": 2870,
      "state": 2871,
      "ever": 2872,
      "each": 2873,
      "##ically": 2874,
      "five": 2875,
      "build": 2876,
      "##raft": 2877,
      "##ison": 2878,
      "century": 2879,
      "York": 2880,
      "aut": 2881,
      "area": 2882,
      "var": 2883,
      "will": 2884,
      "They": 2885,
      "##ink": 2886,
      "small": 2887,
      "##ately": 2888,
      "##res": 2889,
      "##ret": 2890,
      "partic": 2891,
      "North": 2892,
      "##iving": 2893,
      "bo": 2894,
      "##ored": 2895,
      "##ility": 2896,
      "start": 2897,
      "##oss": 2898,
      "June": 2899,
      "By": 2900,
      "##ject": 2901,
      "##ording": 2902,
      "life": 2903,
      "city": 2904,
      "Chr": 2905,
      "Jan": 2906,
      "mar": 2907,
      "contro": 2908,
      "major": 2909,
      "King": 2910,
      "public": 2911,
      "Har": 2912,
      "##inc": 2913,
      "##ians": 2914,
      "July": 2915,
      "##ission": 2916,
      "##ina": 2917,
      "vers": 2918,
      "band": 2919,
      "##ene": 2920,
      "November": 2921,
      "##sc": 2922,
      "coll": 2923,
      "##med": 2924,
      "##urch": 2925,
      "Can": 2926,
      "Comm": 2927,
      "Will": 2928,
      "##omet": 2929,
      "world": 2930,
      "##ble": 2931,
      "since": 2932,
      "ent": 2933,
      "##ute": 2934,
      "med": 2935,
      "single": 2936,
      "Apr": 2937,
      "rest": 2938,
      "April": 2939,
      "##ean": 2940,
      "det": 2941,
      "##lish": 2942,
      "##uary": 2943,
      "March": 2944,
      "just": 2945,
      "fe": 2946,
      "##enc": 2947,
      "result": 2948,
      "red": 2949,
      "##hest": 2950,
      "##ural": 2951,
      "##ried": 2952,
      "turn": 2953,
      "differ": 2954,
      "Ed": 2955,
      "##gin": 2956,
      "allow": 2957,
      "##ively": 2958,
      "##aim": 2959,
      "Mc": 2960,
      "hel": 2961,
      "##cl": 2962,
      "##ilt": 2963,
      "30": 2964,
      "last": 2965,
      "##ants": 2966,
      "##ext": 2967,
      "left": 2968,
      "##ague": 2969,
      "large": 2970,
      "po": 2971,
      "line": 2972,
      "##get": 2973,
      "##idge": 2974,
      "Or": 2975,
      "South": 2976,
      "##ger": 2977,
      "south": 2978,
      "During": 2979,
      "##ales": 2980,
      "##ified": 2981,
      "book": 2982,
      "school": 2983,
      "Bro": 2984,
      "December": 2985,
      "Ge": 2986,
      "third": 2987,
      "##avy": 2988,
      "incre": 2989,
      "month": 2990,
      "25": 2991,
      "due": 2992,
      "appro": 2993,
      "##ined": 2994,
      "played": 2995,
      "##..": 2996,
      "much": 2997,
      "##par": 2998,
      "event": 2999,
      "another": 3000,
      "if": 3001,
      "care": 3002,
      "##rote": 3003,
      "January": 3004,
      "included": 3005,
      "192": 3006,
      "what": 3007,
      "##ention": 3008,
      "##ke": 3009,
      "based": 3010,
      "##ench": 3011,
      "place": 3012,
      "Ph": 3013,
      "##aged": 3014,
      "II": 3015,
      "expl": 3016,
      "government": 3017,
      "##ient": 3018,
      "##ped": 3019,
      "##ograp": 3020,
      "person": 3021,
      "##side": 3022,
      "##by": 3023,
      "wrote": 3024,
      "Re": 3025,
      "When": 3026,
      "Eu": 3027,
      "track": 3028,
      "camp": 3029,
      "old": 3030,
      "##apan": 3031,
      "tit": 3032,
      "name": 3033,
      "death": 3034,
      "bre": 3035,
      "cr": 3036,
      "##alf": 3037,
      "ph": 3038,
      "##ages": 3039,
      "prot": 3040,
      "##ony": 3041,
      "report": 3042,
      "...": 3043,
      "short": 3044,
      "##ling": 3045,
      "Japan": 3046,
      "##ience": 3047,
      "won": 3048,
      "child": 3049,
      "Fl": 3050,
      "kill": 3051,
      "story": 3052,
      "##ideo": 3053,
      "##ott": 3054,
      "power": 3055,
      "##oad": 3056,
      "review": 3057,
      "##ody": 3058,
      "vis": 3059,
      "home": 3060,
      "conv": 3061,
      "##ital": 3062,
      "##oman": 3063,
      "led": 3064,
      "described": 3065,
      "previous": 3066,
      "requ": 3067,
      "cour": 3068,
      "family": 3069,
      "progr": 3070,
      "gun": 3071,
      "##ps": 3072,
      "way": 3073,
      "##tain": 3074,
      "eng": 3075,
      "named": 3076,
      "##urther": 3077,
      "now": 3078,
      "##ats": 3079,
      "Be": 3080,
      "##urr": 3081,
      "##ides": 3082,
      "dem": 3083,
      "del": 3084,
      "even": 3085,
      "##ister": 3086,
      "make": 3087,
      "Mus": 3088,
      "men": 3089,
      "##embers": 3090,
      "##ilar": 3091,
      "rep": 3092,
      "##iven": 3093,
      "El": 3094,
      "##omin": 3095,
      "De": 3096,
      "##iversity": 3097,
      "attem": 3098,
      "port": 3099,
      "##reen": 3100,
      "##oute": 3101,
      "##ested": 3102,
      "##ress": 3103,
      "##iod": 3104,
      "repl": 3105,
      "##itions": 3106,
      "100": 3107,
      "##ivision": 3108,
      "opp": 3109,
      "Gu": 3110,
      "leg": 3111,
      "games": 3112,
      "##ior": 3113,
      "##ached": 3114,
      "term": 3115,
      "##aff": 3116,
      "command": 3117,
      "hand": 3118,
      "poss": 3119,
      "##ival": 3120,
      "belie": 3121,
      "very": 3122,
      "dam": 3123,
      "those": 3124,
      "His": 3125,
      "best": 3126,
      "Feb": 3127,
      "Europ": 3128,
      "##ruary": 3129,
      "February": 3130,
      "##ged": 3131,
      "##ract": 3132,
      "iss": 3133,
      "ele": 3134,
      "still": 3135,
      "And": 3136,
      "organ": 3137,
      "##ren": 3138,
      "next": 3139,
      "top": 3140,
      "species": 3141,
      "##mp": 3142,
      "view": 3143,
      "Christ": 3144,
      "##ences": 3145,
      "There": 3146,
      "National": 3147,
      "##aken": 3148,
      "##ances": 3149,
      "original": 3150,
      "sk": 3151,
      "Par": 3152,
      "##akes": 3153,
      "##oci": 3154,
      "ed": 3155,
      "##ox": 3156,
      "##oyal": 3157,
      "water": 3158,
      "addition": 3159,
      "join": 3160,
      "infl": 3161,
      "##hor": 3162,
      "list": 3163,
      "##ne": 3164,
      "##ature": 3165,
      "within": 3166,
      "period": 3167,
      "members": 3168,
      "mark": 3169,
      "##ented": 3170,
      "built": 3171,
      "held": 3172,
      "ref": 3173,
      "French": 3174,
      "##rew": 3175,
      "deb": 3176,
      "exper": 3177,
      "Bar": 3178,
      "release": 3179,
      "Man": 3180,
      "although": 3181,
      "late": 3182,
      "former": 3183,
      "##ched": 3184,
      "great": 3185,
      "match": 3186,
      "##ness": 3187,
      "##augh": 3188,
      "Char": 3189,
      "sold": 3190,
      "dest": 3191,
      "2010": 3192,
      "conf": 3193,
      "##ared": 3194,
      "video": 3195,
      "##ney": 3196,
      "av": 3197,
      "caus": 3198,
      "storm": 3199,
      "##oon": 3200,
      "21": 3201,
      "##ights": 3202,
      "init": 3203,
      "role": 3204,
      "West": 3205,
      "##ropical": 3206,
      "William": 3207,
      "came": 3208,
      "Am": 3209,
      "estab": 3210,
      "##ards": 3211,
      "tri": 3212,
      "##sh": 3213,
      "days": 3214,
      "tw": 3215,
      "##eal": 3216,
      "##ech": 3217,
      "mid": 3218,
      "stand": 3219,
      "##yl": 3220,
      "real": 3221,
      "polit": 3222,
      "##ulation": 3223,
      "##uted": 3224,
      "##ipp": 3225,
      "##omb": 3226,
      "Air": 3227,
      "however": 3228,
      "##ple": 3229,
      "##hel": 3230,
      "##ead": 3231,
      "##itary": 3232,
      "Her": 3233,
      "2008": 3234,
      "my": 3235,
      "2009": 3236,
      "##ices": 3237,
      "##ased": 3238,
      "prop": 3239,
      "few": 3240,
      "Min": 3241,
      "town": 3242,
      "##line": 3243,
      "##af": 3244,
      "wind": 3245,
      "Geor": 3246,
      "##aster": 3247,
      "you": 3248,
      "24": 3249,
      "side": 3250,
      "##ham": 3251,
      "continued": 3252,
      "often": 3253,
      "##atic": 3254,
      "equ": 3255,
      "local": 3256,
      "2011": 3257,
      "Ear": 3258,
      "##ball": 3259,
      "repr": 3260,
      "post": 3261,
      "tel": 3262,
      "among": 3263,
      "say": 3264,
      "similar": 3265,
      "##ruction": 3266,
      "Des": 3267,
      "Mich": 3268,
      "claim": 3269,
      "##eter": 3270,
      "hum": 3271,
      "##estern": 3272,
      "sw": 3273,
      "##pite": 3274,
      "England": 3275,
      "##ator": 3276,
      "No": 3277,
      "different": 3278,
      "##ying": 3279,
      "##reet": 3280,
      "##read": 3281,
      "further": 3282,
      "##orts": 3283,
      "##urs": 3284,
      "##elt": 3285,
      "beh": 3286,
      "##gy": 3287,
      "typ": 3288,
      "##alk": 3289,
      "##ense": 3290,
      "sent": 3291,
      "Rec": 3292,
      "##ese": 3293,
      "level": 3294,
      "22": 3295,
      "considered": 3296,
      "take": 3297,
      "Dav": 3298,
      "##omen": 3299,
      "law": 3300,
      "##ology": 3301,
      "fre": 3302,
      "2007": 3303,
      "tot": 3304,
      "One": 3305,
      "career": 3306,
      "##ops": 3307,
      "week": 3308,
      "production": 3309,
      "cover": 3310,
      "half": 3311,
      "Park": 3312,
      "##press": 3313,
      "##lex": 3314,
      "having": 3315,
      "City": 3316,
      "##ampions": 3317,
      "##ves": 3318,
      "##app": 3319,
      "English": 3320,
      "Acc": 3321,
      "ant": 3322,
      "moved": 3323,
      "##ms": 3324,
      "east": 3325,
      "Ex": 3326,
      "road": 3327,
      "mag": 3328,
      "##ung": 3329,
      "cor": 3330,
      "##con": 3331,
      "##ittle": 3332,
      "without": 3333,
      "every": 3334,
      "enter": 3335,
      "west": 3336,
      "Although": 3337,
      "##ots": 3338,
      "##ea": 3339,
      "##rodu": 3340,
      "##na": 3341,
      "player": 3342,
      "2012": 3343,
      "##ler": 3344,
      "Ang": 3345,
      "position": 3346,
      "become": 3347,
      "plan": 3348,
      "Cent": 3349,
      "history": 3350,
      "version": 3351,
      "Co": 3352,
      "##ondon": 3353,
      "see": 3354,
      "Count": 3355,
      "influ": 3356,
      "elect": 3357,
      "London": 3358,
      "Cal": 3359,
      "##oard": 3360,
      "house": 3361,
      "##ones": 3362,
      "23": 3363,
      "sound": 3364,
      "star": 3365,
      "##ford": 3366,
      "commun": 3367,
      "sugg": 3368,
      "club": 3369,
      "##ize": 3370,
      "##yle": 3371,
      "Batt": 3372,
      "strong": 3373,
      "invol": 3374,
      "##ests": 3375,
      "cast": 3376,
      "##self": 3377,
      "written": 3378,
      "attempt": 3379,
      "##atter": 3380,
      "far": 3381,
      "With": 3382,
      "190": 3383,
      "##eder": 3384,
      "tem": 3385,
      "less": 3386,
      "stat": 3387,
      "announ": 3388,
      "##oung": 3389,
      "##etter": 3390,
      "Sw": 3391,
      "River": 3392,
      "foot": 3393,
      "order": 3394,
      "refer": 3395,
      "##iety": 3396,
      "##uck": 3397,
      "##craft": 3398,
      "##ript": 3399,
      "##ington": 3400,
      "Su": 3401,
      "##ape": 3402,
      "Canad": 3403,
      "##ck": 3404,
      "##ising": 3405,
      "prof": 3406,
      "point": 3407,
      "aff": 3408,
      "produc": 3409,
      "given": 3410,
      "##sequ": 3411,
      "##irc": 3412,
      "trad": 3413,
      "low": 3414,
      "hig": 3415,
      "want": 3416,
      "University": 3417,
      "##me": 3418,
      "gave": 3419,
      "Gener": 3420,
      "rad": 3421,
      "##iqu": 3422,
      "##iend": 3423,
      "never": 3424,
      "While": 3425,
      "chang": 3426,
      "##ailed": 3427,
      "returned": 3428,
      "pat": 3429,
      "##ories": 3430,
      "##aul": 3431,
      "soc": 3432,
      "##urric": 3433,
      "comb": 3434,
      "repres": 3435,
      "##ration": 3436,
      "##ald": 3437,
      "total": 3438,
      "vict": 3439,
      "fact": 3440,
      "##isc": 3441,
      "good": 3442,
      "High": 3443,
      "##ches": 3444,
      "control": 3445,
      "company": 3446,
      "went": 3447,
      "country": 3448,
      "capt": 3449,
      "##roy": 3450,
      "##int": 3451,
      "friend": 3452,
      "##aly": 3453,
      "import": 3454,
      "fire": 3455,
      "published": 3456,
      "hour": 3457,
      "Dr": 3458,
      "##aun": 3459,
      "##evision": 3460,
      "produced": 3461,
      "find": 3462,
      "reported": 3463,
      "##ges": 3464,
      "origin": 3465,
      "2006": 3466,
      "##ably": 3467,
      "lost": 3468,
      "stated": 3469,
      "##aign": 3470,
      "common": 3471,
      "program": 3472,
      "Sm": 3473,
      "particular": 3474,
      "ord": 3475,
      "adm": 3476,
      "include": 3477,
      "##ency": 3478,
      "sol": 3479,
      "According": 3480,
      "##echn": 3481,
      "larg": 3482,
      "##aised": 3483,
      "compet": 3484,
      "##ett": 3485,
      "recorded": 3486,
      "##hing": 3487,
      "building": 3488,
      "Ab": 3489,
      "##ai": 3490,
      "press": 3491,
      "##ief": 3492,
      "need": 3493,
      "forces": 3494,
      "bus": 3495,
      "##amb": 3496,
      "Sy": 3497,
      "nort": 3498,
      "##cess": 3499,
      "ships": 3500,
      "##iter": 3501,
      "should": 3502,
      "##vers": 3503,
      "using": 3504,
      "27": 3505,
      "##used": 3506,
      "eight": 3507,
      "performance": 3508,
      "28": 3509,
      "##raw": 3510,
      "service": 3511,
      "popular": 3512,
      "##ength": 3513,
      "father": 3514,
      "These": 3515,
      "50": 3516,
      "##ploy": 3517,
      "times": 3518,
      "##iment": 3519,
      "making": 3520,
      "##aur": 3521,
      "##ama": 3522,
      "##eth": 3523,
      "aircraft": 3524,
      "himself": 3525,
      "ten": 3526,
      "gl": 3527,
      "2013": 3528,
      "author": 3529,
      "##ned": 3530,
      "military": 3531,
      "fun": 3532,
      "##iness": 3533,
      "Australia": 3534,
      "right": 3535,
      "##earch": 3536,
      "anim": 3537,
      "##lear": 3538,
      "##ampionship": 3539,
      "Pol": 3540,
      "Sec": 3541,
      "Jack": 3542,
      "##ef": 3543,
      "lim": 3544,
      "songs": 3545,
      "Ass": 3546,
      "##osp": 3547,
      "somet": 3548,
      "##atch": 3549,
      "read": 3550,
      "##outher": 3551,
      "##ither": 3552,
      "critic": 3553,
      "surv": 3554,
      "##ensive": 3555,
      "development": 3556,
      "Pres": 3557,
      "##play": 3558,
      "##let": 3559,
      "##ords": 3560,
      "how": 3561,
      "General": 3562,
      "##ional": 3563,
      "##itive": 3564,
      "Af": 3565,
      "##quad": 3566,
      "State": 3567,
      "26": 3568,
      "inf": 3569,
      "##outhern": 3570,
      "cross": 3571,
      "James": 3572,
      "40": 3573,
      "189": 3574,
      "Cor": 3575,
      "ground": 3576,
      "ft": 3577,
      "remained": 3578,
      "light": 3579,
      "ins": 3580,
      "##astern": 3581,
      "##acy": 3582,
      "characters": 3583,
      "Army": 3584,
      "national": 3585,
      "months": 3586,
      "suff": 3587,
      "present": 3588,
      "get": 3589,
      "died": 3590,
      "gen": 3591,
      "developed": 3592,
      "title": 3593,
      "##ublic": 3594,
      "sum": 3595,
      "ter": 3596,
      "##ries": 3597,
      "campaign": 3598,
      "##urricane": 3599,
      "bar": 3600,
      "force": 3601,
      "League": 3602,
      "ne": 3603,
      "children": 3604,
      "##fic": 3605,
      "##ument": 3606,
      "field": 3607,
      "##utes": 3608,
      "introdu": 3609,
      "Gl": 3610,
      "##ream": 3611,
      "trav": 3612,
      "tour": 3613,
      "##ael": 3614,
      "##itted": 3615,
      "signific": 3616,
      "across": 3617,
      "##isted": 3618,
      "son": 3619,
      "away": 3620,
      "relations": 3621,
      "##lands": 3622,
      "##hern": 3623,
      "##alt": 3624,
      "##eep": 3625,
      "official": 3626,
      "histor": 3627,
      "Division": 3628,
      "fav": 3629,
      "##dom": 3630,
      "felt": 3631,
      "effect": 3632,
      "America": 3633,
      "##field": 3634,
      "noted": 3635,
      "##lege": 3636,
      "Mor": 3637,
      "fac": 3638,
      "announced": 3639,
      "Comp": 3640,
      "reached": 3641,
      "##ering": 3642,
      "Reg": 3643,
      "promot": 3644,
      "intern": 3645,
      "##ope": 3646,
      "Russ": 3647,
      "We": 3648,
      "##rick": 3649,
      "Sim": 3650,
      "created": 3651,
      "County": 3652,
      "areas": 3653,
      "destroy": 3654,
      "battle": 3655,
      "television": 3656,
      "Japanese": 3657,
      "2005": 3658,
      "station": 3659,
      "Road": 3660,
      "Mad": 3661,
      "che": 3662,
      "sit": 3663,
      "successful": 3664,
      "rock": 3665,
      "##imately": 3666,
      "arm": 3667,
      "##ille": 3668,
      "##ae": 3669,
      "various": 3670,
      "val": 3671,
      "political": 3672,
      "Street": 3673,
      "seen": 3674,
      "followed": 3675,
      "##yn": 3676,
      "too": 3677,
      "##duc": 3678,
      "29": 3679,
      "rank": 3680,
      "aver": 3681,
      "##ements": 3682,
      "##most": 3683,
      "Em": 3684,
      "performed": 3685,
      "enc": 3686,
      "##iting": 3687,
      "Rober": 3688,
      "front": 3689,
      "cult": 3690,
      "served": 3691,
      "2014": 3692,
      "players": 3693,
      "super": 3694,
      "East": 3695,
      "##ows": 3696,
      "George": 3697,
      "##iber": 3698,
      "full": 3699,
      "cond": 3700,
      "decl": 3701,
      "begin": 3702,
      "prim": 3703,
      "black": 3704,
      "##ination": 3705,
      "##elling": 3706,
      "put": 3707,
      "earl": 3708,
      "obs": 3709,
      "##olution": 3710,
      "cost": 3711,
      "##idence": 3712,
      "style": 3713,
      "To": 3714,
      "Mon": 3715,
      "look": 3716,
      "##abor": 3717,
      "##reg": 3718,
      "##ization": 3719,
      "Hen": 3720,
      "div": 3721,
      "seven": 3722,
      "killed": 3723,
      "circ": 3724,
      "aud": 3725,
      "Phil": 3726,
      "Ser": 3727,
      "##ays": 3728,
      "help": 3729,
      "sel": 3730,
      "##lished": 3731,
      "throughout": 3732,
      "vol": 3733,
      "night": 3734,
      "taken": 3735,
      "Bill": 3736,
      "tropical": 3737,
      "able": 3738,
      "cy": 3739,
      "coun": 3740,
      "non": 3741,
      "agre": 3742,
      "little": 3743,
      "##ecut": 3744,
      "becom": 3745,
      "significant": 3746,
      "age": 3747,
      "##enth": 3748,
      "fem": 3749,
      "Per": 3750,
      "meet": 3751,
      "ident": 3752,
      "Thom": 3753,
      "special": 3754,
      "techn": 3755,
      "##ways": 3756,
      "writing": 3757,
      "##oice": 3758,
      "struct": 3759,
      "thought": 3760,
      "established": 3761,
      "##irl": 3762,
      "broad": 3763,
      "##leet": 3764,
      "mm": 3765,
      "cop": 3766,
      "body": 3767,
      "##enced": 3768,
      "appeared": 3769,
      "does": 3770,
      "process": 3771,
      "David": 3772,
      "entire": 3773,
      "Australian": 3774,
      "ball": 3775,
      "young": 3776,
      "points": 3777,
      "##epend": 3778,
      "miles": 3779,
      "##rict": 3780,
      "award": 3781,
      "##aval": 3782,
      "impro": 3783,
      "##ought": 3784,
      "route": 3785,
      "member": 3786,
      "Rich": 3787,
      "women": 3788,
      "activ": 3789,
      "tro": 3790,
      "range": 3791,
      "##odes": 3792,
      "caused": 3793,
      "started": 3794,
      "decided": 3795,
      "##ivil": 3796,
      "You": 3797,
      "features": 3798,
      "general": 3799,
      "Afric": 3800,
      "Med": 3801,
      "pain": 3802,
      "eventually": 3803,
      "##day": 3804,
      "##aves": 3805,
      "Part": 3806,
      "##iers": 3807,
      "##hys": 3808,
      "##ming": 3809,
      "##ask": 3810,
      "##cil": 3811,
      "##conom": 3812,
      "##ground": 3813,
      "##eated": 3814,
      "##ament": 3815,
      "Royal": 3816,
      "##ators": 3817,
      "race": 3818,
      "##iec": 3819,
      "##cent": 3820,
      "coast": 3821,
      "grow": 3822,
      "arch": 3823,
      "ve": 3824,
      "manag": 3825,
      "feet": 3826,
      "##umb": 3827,
      "##ogn": 3828,
      "Act": 3829,
      "##idd": 3830,
      "toget": 3831,
      "together": 3832,
      "added": 3833,
      "Hist": 3834,
      "House": 3835,
      "hold": 3836,
      "##ana": 3837,
      "cut": 3838,
      "once": 3839,
      "##ius": 3840,
      "##alth": 3841,
      "white": 3842,
      "188": 3843,
      "##ivid": 3844,
      "nov": 3845,
      "##here": 3846,
      "formed": 3847,
      "##ample": 3848,
      "tre": 3849,
      "My": 3850,
      "##itar": 3851,
      "located": 3852,
      "stri": 3853,
      "arg": 3854,
      "Sch": 3855,
      "conn": 3856,
      "##reek": 3857,
      "Qu": 3858,
      "modern": 3859,
      "curr": 3860,
      "instead": 3861,
      "spe": 3862,
      "fight": 3863,
      "##rought": 3864,
      "##bert": 3865,
      "cert": 3866,
      "round": 3867,
      "31": 3868,
      "##omm": 3869,
      "##emy": 3870,
      "esc": 3871,
      "Black": 3872,
      "##aces": 3873,
      "mix": 3874,
      "important": 3875,
      "##ades": 3876,
      "##arr": 3877,
      "Intern": 3878,
      "crew": 3879,
      "pri": 3880,
      "saw": 3881,
      "Rep": 3882,
      "action": 3883,
      "completed": 3884,
      "##hic": 3885,
      "##head": 3886,
      "##men": 3887,
      "playing": 3888,
      "Indian": 3889,
      "##eam": 3890,
      "Other": 3891,
      "2004": 3892,
      "##off": 3893,
      "inj": 3894,
      "insp": 3895,
      "##pression": 3896,
      "hon": 3897,
      "population": 3898,
      "mater": 3899,
      "##ells": 3900,
      "Michael": 3901,
      "##less": 3902,
      "mot": 3903,
      "rather": 3904,
      "voc": 3905,
      "ask": 3906,
      "opened": 3907,
      "stage": 3908,
      "behind": 3909,
      "others": 3910,
      "186": 3911,
      "##ush": 3912,
      "fall": 3913,
      "guns": 3914,
      "brother": 3915,
      "cas": 3916,
      "##ring": 3917,
      "##ceed": 3918,
      "comment": 3919,
      "lik": 3920,
      "##igned": 3921,
      "born": 3922,
      "##aps": 3923,
      "fif": 3924,
      "site": 3925,
      "Cr": 3926,
      "2015": 3927,
      "live": 3928,
      "works": 3929,
      "loss": 3930,
      "##stit": 3931,
      "France": 3932,
      "worked": 3933,
      "bomb": 3934,
      "##rated": 3935,
      "##ficult": 3936,
      "heavy": 3937,
      "hit": 3938,
      "miss": 3939,
      "##urg": 3940,
      "qual": 3941,
      "pred": 3942,
      "discover": 3943,
      "subsequ": 3944,
      "School": 3945,
      "lack": 3946,
      "party": 3947,
      "proble": 3948,
      "difficult": 3949,
      "close": 3950,
      "##medi": 3951,
      "construction": 3952,
      "Wash": 3953,
      "Some": 3954,
      "relationship": 3955,
      "##iol": 3956,
      "weeks": 3957,
      "host": 3958,
      "##wood": 3959,
      "##ending": 3960,
      "project": 3961,
      "originally": 3962,
      "separ": 3963,
      "##ole": 3964,
      "associ": 3965,
      "upon": 3966,
      "##lin": 3967,
      "Henry": 3968,
      "pract": 3969,
      "leading": 3970,
      "reb": 3971,
      "appoin": 3972,
      "Nor": 3973,
      "almost": 3974,
      "vill": 3975,
      "Fir": 3976,
      "Robert": 3977,
      "peak": 3978,
      "damage": 3979,
      "##duct": 3980,
      "##istic": 3981,
      "Europe": 3982,
      "##ster": 3983,
      "scored": 3984,
      "fourth": 3985,
      "chart": 3986,
      "##uel": 3987,
      "Port": 3988,
      "San": 3989,
      "inform": 3990,
      "sett": 3991,
      "mer": 3992,
      "##osition": 3993,
      "##ata": 3994,
      "provided": 3995,
      "reve": 3996,
      "##ividual": 3997,
      "Music": 3998,
      "case": 3999,
      "clos": 4000,
      "engine": 4001,
      "Best": 4002,
      "##anch": 4003,
      "interv": 4004,
      "creat": 4005,
      "invest": 4006,
      "500": 4007,
      "scene": 4008,
      "mi": 4009,
      "Vir": 4010,
      "human": 4011,
      "Paul": 4012,
      "dev": 4013,
      "brought": 4014,
      "##oring": 4015,
      "##ara": 4016,
      "free": 4017,
      "##ani": 4018,
      "##board": 4019,
      "##unk": 4020,
      "fell": 4021,
      "187": 4022,
      "##angu": 4023,
      "featured": 4024,
      "mother": 4025,
      "Battle": 4026,
      "Red": 4027,
      "vot": 4028,
      "President": 4029,
      "least": 4030,
      "allowed": 4031,
      "working": 4032,
      "king": 4033,
      "laun": 4034,
      "Cour": 4035,
      "##ential": 4036,
      "average": 4037,
      "towards": 4038,
      "##ological": 4039,
      "wanted": 4040,
      "tradition": 4041,
      "indust": 4042,
      "##lement": 4043,
      "region": 4044,
      "business": 4045,
      "Washington": 4046,
      "##ened": 4047,
      "troops": 4048,
      "placed": 4049,
      "##azine": 4050,
      "quick": 4051,
      "either": 4052,
      "redu": 4053,
      "respect": 4054,
      "office": 4055,
      "critics": 4056,
      "Que": 4057,
      "avail": 4058,
      "##antic": 4059,
      "reach": 4060,
      "Cap": 4061,
      "example": 4062,
      "mult": 4063,
      "Play": 4064,
      "##yr": 4065,
      "material": 4066,
      "runs": 4067,
      "##cast": 4068,
      "econom": 4069,
      "recogn": 4070,
      "##uk": 4071,
      "Mil": 4072,
      "Ag": 4073,
      "##aut": 4074,
      "wife": 4075,
      "Angel": 4076,
      "##ica": 4077,
      "sex": 4078,
      "sour": 4079,
      "##ula": 4080,
      "Res": 4081,
      "##oid": 4082,
      "estim": 4083,
      "army": 4084,
      "neg": 4085,
      "foc": 4086,
      "##chie": 4087,
      "Despite": 4088,
      "2003": 4089,
      "##iction": 4090,
      "interest": 4091,
      "Follow": 4092,
      "Bel": 4093,
      "##enes": 4094,
      "Hall": 4095,
      "generally": 4096,
      "joined": 4097,
      "mass": 4098,
      "rail": 4099,
      "##quadron": 4100,
      "Rev": 4101,
      "proper": 4102,
      "dou": 4103,
      "##rey": 4104,
      "Hill": 4105,
      "accept": 4106,
      "individual": 4107,
      "bill": 4108,
      "##oms": 4109,
      "##ule": 4110,
      "##arm": 4111,
      "##ino": 4112,
      "events": 4113,
      "represent": 4114,
      "believed": 4115,
      "Pe": 4116,
      "##ourn": 4117,
      "##urb": 4118,
      "particip": 4119,
      "Following": 4120,
      "35": 4121,
      "Cup": 4122,
      "fig": 4123,
      "Game": 4124,
      "First": 4125,
      "wid": 4126,
      "Mary": 4127,
      "##spec": 4128,
      "##omp": 4129,
      "know": 4130,
      "victory": 4131,
      "replaced": 4132,
      "##lt": 4133,
      "Great": 4134,
      "designed": 4135,
      "mph": 4136,
      "Ham": 4137,
      "##artment": 4138,
      "rul": 4139,
      "##iff": 4140,
      "soon": 4141,
      "nomin": 4142,
      "mount": 4143,
      "##itch": 4144,
      "island": 4145,
      "Cro": 4146,
      "ren": 4147,
      "Bo": 4148,
      "fund": 4149,
      "##emor": 4150,
      "Don": 4151,
      "Lou": 4152,
      "##to": 4153,
      "hours": 4154,
      "##asing": 4155,
      "##ky": 4156,
      "European": 4157,
      "employ": 4158,
      "Two": 4159,
      "president": 4160,
      "##erous": 4161,
      "exc": 4162,
      "involved": 4163,
      "##ving": 4164,
      "Mal": 4165,
      "surf": 4166,
      "finished": 4167,
      "##oor": 4168,
      "stru": 4169,
      "##ification": 4170,
      "##aper": 4171,
      "Championship": 4172,
      "##merc": 4173,
      "Me": 4174,
      "##asion": 4175,
      "break": 4176,
      "##ena": 4177,
      "dro": 4178,
      "##west": 4179,
      "##inist": 4180,
      "saying": 4181,
      "##fall": 4182,
      "hor": 4183,
      "court": 4184,
      "threat": 4185,
      "shot": 4186,
      "opening": 4187,
      "Ev": 4188,
      "Roman": 4189,
      "regular": 4190,
      "##inn": 4191,
      "Mart": 4192,
      "##ago": 4193,
      "##ship": 4194,
      "Star": 4195,
      "director": 4196,
      "length": 4197,
      "##icated": 4198,
      "2000": 4199,
      "unc": 4200,
      "occur": 4201,
      "largest": 4202,
      "contrib": 4203,
      "Scott": 4204,
      "possible": 4205,
      "##ecutive": 4206,
      "highway": 4207,
      "minutes": 4208,
      "Route": 4209,
      "southern": 4210,
      "ill": 4211,
      "##ander": 4212,
      "##BC": 4213,
      "highest": 4214,
      "remov": 4215,
      "earlier": 4216,
      "##ishing": 4217,
      "hom": 4218,
      "2001": 4219,
      "initially": 4220,
      "##ico": 4221,
      "Ir": 4222,
      "available": 4223,
      "particularly": 4224,
      "personal": 4225,
      "percent": 4226,
      "test": 4227,
      "Atl": 4228,
      "##antry": 4229,
      "##anned": 4230,
      "training": 4231,
      "##of": 4232,
      "##cher": 4233,
      "sequ": 4234,
      "hard": 4235,
      "Republic": 4236,
      "Sing": 4237,
      "forced": 4238,
      "Rock": 4239,
      "exist": 4240,
      "must": 4241,
      "Met": 4242,
      "conduct": 4243,
      "grad": 4244,
      "Charles": 4245,
      "Kingdom": 4246,
      "Navy": 4247,
      "##pts": 4248,
      "park": 4249,
      "##hib": 4250,
      "##iding": 4251,
      "wall": 4252,
      "Wil": 4253,
      "From": 4254,
      "quar": 4255,
      "ended": 4256,
      "respons": 4257,
      "Mac": 4258,
      "##ateg": 4259,
      "##anish": 4260,
      "##ography": 4261,
      "turned": 4262,
      "Thomas": 4263,
      "social": 4264,
      "International": 4265,
      "##ems": 4266,
      "Off": 4267,
      "##uture": 4268,
      "studio": 4269,
      "Hol": 4270,
      "##ayed": 4271,
      "##uit": 4272,
      "goal": 4273,
      "##rupt": 4274,
      "contract": 4275,
      "Val": 4276,
      "##iforn": 4277,
      "change": 4278,
      "Sl": 4279,
      "##for": 4280,
      "##rian": 4281,
      "Ber": 4282,
      "langu": 4283,
      "praised": 4284,
      "Virgin": 4285,
      "hy": 4286,
      "passed": 4287,
      "McC": 4288,
      "##now": 4289,
      "increased": 4290,
      "piec": 4291,
      "priv": 4292,
      "But": 4293,
      "##rest": 4294,
      "hurricane": 4295,
      "Mag": 4296,
      "educ": 4297,
      "##ises": 4298,
      "regard": 4299,
      "northern": 4300,
      "##atural": 4301,
      "Brown": 4302,
      "##heast": 4303,
      "2002": 4304,
      "##ocr": 4305,
      "##uff": 4306,
      "##go": 4307,
      "##iation": 4308,
      "novel": 4309,
      "central": 4310,
      "Church": 4311,
      "phys": 4312,
      "##co": 4313,
      "White": 4314,
      "relig": 4315,
      "Canada": 4316,
      "##ude": 4317,
      "##asy": 4318,
      "appearance": 4319,
      "speed": 4320,
      "Californ": 4321,
      "units": 4322,
      "##mb": 4323,
      "##itor": 4324,
      "##ership": 4325,
      "church": 4326,
      "Pal": 4327,
      "Sen": 4328,
      "stop": 4329,
      "immedi": 4330,
      "past": 4331,
      "##ections": 4332,
      "Ac": 4333,
      "##anks": 4334,
      "Smith": 4335,
      "##ios": 4336,
      "ordered": 4337,
      "meas": 4338,
      "##aughter": 4339,
      "disp": 4340,
      "treat": 4341,
      "Bay": 4342,
      "##ctor": 4343,
      "##sel": 4344,
      "taking": 4345,
      "prob": 4346,
      "##ference": 4347,
      "Richard": 4348,
      "##ittee": 4349,
      "##eption": 4350,
      "independ": 4351,
      "signed": 4352,
      "love": 4353,
      "move": 4354,
      "##bor": 4355,
      "##anding": 4356,
      "##ston": 4357,
      "California": 4358,
      "Alex": 4359,
      "achie": 4360,
      "better": 4361,
      "##pped": 4362,
      "##etwork": 4363,
      "Union": 4364,
      "##aker": 4365,
      "pers": 4366,
      "##ze": 4367,
      "##rem": 4368,
      "lear": 4369,
      "Govern": 4370,
      "##ecess": 4371,
      "##arily": 4372,
      "winds": 4373,
      "Island": 4374,
      "commerc": 4375,
      "enough": 4376,
      "positive": 4377,
      "##apt": 4378,
      "##agon": 4379,
      "inn": 4380,
      "##pper": 4381,
      "wat": 4382,
      "Mill": 4383,
      "Court": 4384,
      "according": 4385,
      "##ique": 4386,
      "spent": 4387,
      "##ears": 4388,
      "God": 4389,
      "Flor": 4390,
      "hous": 4391,
      "going": 4392,
      "Sam": 4393,
      "##den": 4394,
      "reveal": 4395,
      "##nel": 4396,
      "above": 4397,
      "outside": 4398,
      "films": 4399,
      "pot": 4400,
      "##essional": 4401,
      "##ilities": 4402,
      "defeat": 4403,
      "feel": 4404,
      "told": 4405,
      "clear": 4406,
      "football": 4407,
      "Vict": 4408,
      "Award": 4409,
      "Cong": 4410,
      "previously": 4411,
      "recording": 4412,
      "states": 4413,
      "quest": 4414,
      "Mer": 4415,
      "mean": 4416,
      "Associ": 4417,
      "##uation": 4418,
      "nine": 4419,
      "Mo": 4420,
      "##oul": 4421,
      "##elled": 4422,
      "##uter": 4423,
      "failed": 4424,
      "pur": 4425,
      "assist": 4426,
      "come": 4427,
      "##usion": 4428,
      "Company": 4429,
      "required": 4430,
      "elements": 4431,
      "45": 4432,
      "contr": 4433,
      "##osing": 4434,
      "ap": 4435,
      "##quare": 4436,
      "viol": 4437,
      "##ume": 4438,
      "##ville": 4439,
      "Germany": 4440,
      "India": 4441,
      "lower": 4442,
      "ey": 4443,
      "reviews": 4444,
      "##alion": 4445,
      "interview": 4446,
      "cru": 4447,
      "Mount": 4448,
      "parts": 4449,
      "##ki": 4450,
      "Stud": 4451,
      "Art": 4452,
      "itself": 4453,
      "##atin": 4454,
      "Peter": 4455,
      "Mark": 4456,
      "Christian": 4457,
      "pay": 4458,
      "##ands": 4459,
      "directed": 4460,
      "##ida": 4461,
      "base": 4462,
      "##isl": 4463,
      "express": 4464,
      "despite": 4465,
      "sil": 4466,
      "##itz": 4467,
      "cred": 4468,
      "Gold": 4469,
      "185": 4470,
      "##mar": 4471,
      "That": 4472,
      "debut": 4473,
      "phot": 4474,
      "rain": 4475,
      "##ibility": 4476,
      "Times": 4477,
      "NY": 4478,
      "ur": 4479,
      "abs": 4480,
      "##erved": 4481,
      "##ready": 4482,
      "##jects": 4483,
      "##nes": 4484,
      "keep": 4485,
      "beginning": 4486,
      "groups": 4487,
      "##hem": 4488,
      "60": 4489,
      "Tom": 4490,
      "College": 4491,
      "##het": 4492,
      "##aint": 4493,
      "section": 4494,
      "##oph": 4495,
      "##oke": 4496,
      "##eum": 4497,
      "Up": 4498,
      "UK": 4499,
      "Sov": 4500,
      "poor": 4501,
      "whose": 4502,
      "##onna": 4503,
      "cycl": 4504,
      "claimed": 4505,
      "##hester": 4506,
      "##airs": 4507,
      "asked": 4508,
      "Western": 4509,
      "international": 4510,
      "Cast": 4511,
      "lines": 4512,
      "transfer": 4513,
      "Mex": 4514,
      "rap": 4515,
      "cou": 4516,
      "Pat": 4517,
      "Soviet": 4518,
      "give": 4519,
      "screen": 4520,
      "##amer": 4521,
      "##onse": 4522,
      "##rief": 4523,
      "additional": 4524,
      "ly": 4525,
      "future": 4526,
      "##ability": 4527,
      "league": 4528,
      "key": 4529,
      "whom": 4530,
      "##ris": 4531,
      "Frank": 4532,
      "##berg": 4533,
      "beg": 4534,
      "##eck": 4535,
      "##ams": 4536,
      "##edy": 4537,
      "fort": 4538,
      "gold": 4539,
      "Film": 4540,
      "Awards": 4541,
      "Hot": 4542,
      "introduced": 4543,
      "travel": 4544,
      "op": 4545,
      "##tr": 4546,
      "evidence": 4547,
      "don": 4548,
      "##ully": 4549,
      "idea": 4550,
      "quickly": 4551,
      "prem": 4552,
      "Grand": 4553,
      "##igan": 4554,
      "sea": 4555,
      "Dem": 4556,
      "##ania": 4557,
      "already": 4558,
      "32": 4559,
      "center": 4560,
      "bridge": 4561,
      "bi": 4562,
      "Do": 4563,
      "##oles": 4564,
      "frequ": 4565,
      "Force": 4566,
      "emb": 4567,
      "election": 4568,
      "Most": 4569,
      "occup": 4570,
      "Soc": 4571,
      "except": 4572,
      "Day": 4573,
      "##onst": 4574,
      "##vir": 4575,
      "deal": 4576,
      "##usp": 4577,
      "##atory": 4578,
      "##val": 4579,
      "pil": 4580,
      "##gar": 4581,
      "##ids": 4582,
      "usually": 4583,
      "arrived": 4584,
      "musical": 4585,
      "##specially": 4586,
      "Coun": 4587,
      "western": 4588,
      "##anded": 4589,
      "score": 4590,
      "block": 4591,
      "radio": 4592,
      "Britain": 4593,
      "##asons": 4594,
      "cal": 4595,
      "civil": 4596,
      "##liam": 4597,
      "Im": 4598,
      "appl": 4599,
      "##ergy": 4600,
      "Mont": 4601,
      "##ults": 4602,
      "##ump": 4603,
      "money": 4604,
      "female": 4605,
      "La": 4606,
      "##urt": 4607,
      "##aring": 4608,
      "##ift": 4609,
      "sometimes": 4610,
      "study": 4611,
      "Rob": 4612,
      "response": 4613,
      "food": 4614,
      "##lying": 4615,
      "decision": 4616,
      "##ma": 4617,
      "magazine": 4618,
      "especially": 4619,
      "access": 4620,
      "issue": 4621,
      "##ores": 4622,
      "Later": 4623,
      "prepar": 4624,
      "##back": 4625,
      "##liament": 4626,
      "##unt": 4627,
      "Pac": 4628,
      "Victor": 4629,
      "surface": 4630,
      "##ites": 4631,
      "flood": 4632,
      "might": 4633,
      "lab": 4634,
      "Ne": 4635,
      "Franc": 4636,
      "liter": 4637,
      "carried": 4638,
      "shows": 4639,
      "guitar": 4640,
      "community": 4641,
      "estimated": 4642,
      "remain": 4643,
      "think": 4644,
      "remaining": 4645,
      "##ective": 4646,
      "1999": 4647,
      "eastern": 4648,
      "minor": 4649,
      "defeated": 4650,
      "determ": 4651,
      "##oo": 4652,
      "Virginia": 4653,
      "Early": 4654,
      "approx": 4655,
      "larger": 4656,
      "becoming": 4657,
      "##aries": 4658,
      "Du": 4659,
      "complete": 4660,
      "construct": 4661,
      "slow": 4662,
      "police": 4663,
      "wood": 4664,
      "suggested": 4665,
      "##porary": 4666,
      "media": 4667,
      "Cont": 4668,
      "pressure": 4669,
      "entered": 4670,
      "36": 4671,
      "teams": 4672,
      "Ben": 4673,
      "##irth": 4674,
      "##erve": 4675,
      "Chic": 4676,
      "tar": 4677,
      "commercial": 4678,
      "latter": 4679,
      "##ror": 4680,
      "Los": 4681,
      "##bour": 4682,
      "lyric": 4683,
      "market": 4684,
      "Over": 4685,
      "consider": 4686,
      "students": 4687,
      "Just": 4688,
      "doc": 4689,
      "surround": 4690,
      "investig": 4691,
      "pen": 4692,
      "brief": 4693,
      "lo": 4694,
      "concern": 4695,
      "Second": 4696,
      "##inent": 4697,
      "prison": 4698,
      "##ulf": 4699,
      "discuss": 4700,
      "If": 4701,
      "Super": 4702,
      "##enty": 4703,
      "Tex": 4704,
      "acqu": 4705,
      "effects": 4706,
      "Jackson": 4707,
      "certain": 4708,
      "appointed": 4709,
      "hop": 4710,
      "summer": 4711,
      "episodes": 4712,
      "##ederal": 4713,
      "prior": 4714,
      "##alled": 4715,
      "##gen": 4716,
      "##acing": 4717,
      "##incip": 4718,
      "##bs": 4719,
      "##change": 4720,
      "der": 4721,
      "##ties": 4722,
      "bur": 4723,
      "size": 4724,
      "staff": 4725,
      "emer": 4726,
      "changes": 4727,
      "Louis": 4728,
      "commission": 4729,
      "sat": 4730,
      "Oly": 4731,
      "##anced": 4732,
      "winning": 4733,
      "##ecting": 4734,
      "limited": 4735,
      "scenes": 4736,
      "##imate": 4737,
      "leaving": 4738,
      "destroyed": 4739,
      "fleet": 4740,
      "Olymp": 4741,
      "river": 4742,
      "##ulated": 4743,
      "##viron": 4744,
      "draw": 4745,
      "Club": 4746,
      "##NA": 4747,
      "Spanish": 4748,
      "Dep": 4749,
      "rights": 4750,
      "den": 4751,
      "##ector": 4752,
      "provide": 4753,
      "writer": 4754,
      "##ournal": 4755,
      "##igade": 4756,
      "##asc": 4757,
      "75": 4758,
      "##idents": 4759,
      "300": 4760,
      "##irt": 4761,
      "polic": 4762,
      "fail": 4763,
      "date": 4764,
      "territ": 4765,
      "proposed": 4766,
      "##ension": 4767,
      "influence": 4768,
      "girl": 4769,
      "trib": 4770,
      "Stev": 4771,
      "Party": 4772,
      "ste": 4773,
      "##sy": 4774,
      "##ridge": 4775,
      "overall": 4776,
      "arrang": 4777,
      "structure": 4778,
      "##eleb": 4779,
      "Green": 4780,
      "184": 4781,
      "react": 4782,
      "tax": 4783,
      "##iser": 4784,
      "##omer": 4785,
      "##inct": 4786,
      "diss": 4787,
      "division": 4788,
      "self": 4789,
      "kil": 4790,
      "##inese": 4791,
      "Association": 4792,
      "##ication": 4793,
      "agreed": 4794,
      "room": 4795,
      "type": 4796,
      "##ging": 4797,
      "intended": 4798,
      "Edward": 4799,
      "running": 4800,
      "##iral": 4801,
      "anti": 4802,
      "##ease": 4803,
      "jud": 4804,
      "Chicago": 4805,
      "daughter": 4806,
      "bow": 4807,
      "wide": 4808,
      "##ronic": 4809,
      "nearly": 4810,
      "supported": 4811,
      "purch": 4812,
      "deep": 4813,
      "big": 4814,
      "##tained": 4815,
      "Ital": 4816,
      "research": 4817,
      "Many": 4818,
      "establish": 4819,
      "helped": 4820,
      "Adm": 4821,
      "Pri": 4822,
      "##imum": 4823,
      "80": 4824,
      "##atives": 4825,
      "married": 4826,
      "movement": 4827,
      "di": 4828,
      "Chinese": 4829,
      "1998": 4830,
      "awarded": 4831,
      "##aded": 4832,
      "Council": 4833,
      "lay": 4834,
      "multip": 4835,
      "Ter": 4836,
      "##II": 4837,
      "Oper": 4838,
      "Song": 4839,
      "##AF": 4840,
      "create": 4841,
      "favor": 4842,
      "display": 4843,
      "intens": 4844,
      "##atively": 4845,
      "bird": 4846,
      "dark": 4847,
      "Enter": 4848,
      "susp": 4849,
      "##oes": 4850,
      "tex": 4851,
      "##rd": 4852,
      "##iles": 4853,
      "stars": 4854,
      "longer": 4855,
      "language": 4856,
      "##owers": 4857,
      "higher": 4858,
      "planned": 4859,
      "##icted": 4860,
      "##uing": 4861,
      "compared": 4862,
      "##dle": 4863,
      "captured": 4864,
      "increasing": 4865,
      "##ein": 4866,
      "Bur": 4867,
      "fans": 4868,
      "conclud": 4869,
      "course": 4870,
      "changed": 4871,
      "##selves": 4872,
      "Serv": 4873,
      "experience": 4874,
      "Johnson": 4875,
      "approximately": 4876,
      "related": 4877,
      "33": 4878,
      "feature": 4879,
      "fifth": 4880,
      "living": 4881,
      "done": 4882,
      "cat": 4883,
      "themselves": 4884,
      "##ha": 4885,
      "##ounds": 4886,
      "producer": 4887,
      "History": 4888,
      "tracks": 4889,
      "temper": 4890,
      "mostly": 4891,
      "Pacific": 4892,
      "withd": 4893,
      "##isions": 4894,
      "##abit": 4895,
      "##ees": 4896,
      "space": 4897,
      "Kn": 4898,
      "Billboard": 4899,
      "thus": 4900,
      "ens": 4901,
      "##bers": 4902,
      "Kore": 4903,
      "##essed": 4904,
      "woman": 4905,
      "##ault": 4906,
      "operations": 4907,
      "Ot": 4908,
      "remains": 4909,
      "dead": 4910,
      "Back": 4911,
      "quarter": 4912,
      "bring": 4913,
      "imm": 4914,
      "Not": 4915,
      "natural": 4916,
      "whether": 4917,
      "our": 4918,
      "##olic": 4919,
      "##thing": 4920,
      "##umn": 4921,
      "shoot": 4922,
      "let": 4923,
      "opt": 4924,
      "current": 4925,
      "##itting": 4926,
      "weap": 4927,
      "App": 4928,
      "Final": 4929,
      "Inf": 4930,
      "probably": 4931,
      "Kh": 4932,
      "soldiers": 4933,
      "##que": 4934,
      "##eign": 4935,
      "Sal": 4936,
      "##andon": 4937,
      "copies": 4938,
      "Scot": 4939,
      "ult": 4940,
      "##imin": 4941,
      "buildings": 4942,
      "##leg": 4943,
      "leader": 4944,
      "syn": 4945,
      "extended": 4946,
      "voice": 4947,
      "Since": 4948,
      "1997": 4949,
      "lyrics": 4950,
      "face": 4951,
      "Inter": 4952,
      "##che": 4953,
      "##oint": 4954,
      "Atlantic": 4955,
      "portr": 4956,
      "forward": 4957,
      "boy": 4958,
      "complex": 4959,
      "board": 4960,
      "issued": 4961,
      "battles": 4962,
      "Under": 4963,
      "chall": 4964,
      "##rown": 4965,
      "##iant": 4966,
      "##riage": 4967,
      "really": 4968,
      "countries": 4969,
      "heav": 4970,
      "suffered": 4971,
      "transport": 4972,
      "##ospital": 4973,
      "##can": 4974,
      "cm": 4975,
      "Lake": 4976,
      "37": 4977,
      "goals": 4978,
      "includes": 4979,
      "Florida": 4980,
      "attract": 4981,
      "immediately": 4982,
      "##hers": 4983,
      "Sever": 4984,
      "Love": 4985,
      "Sun": 4986,
      "##raz": 4987,
      "Both": 4988,
      "deg": 4989,
      "breed": 4990,
      "Fort": 4991,
      "Ro": 4992,
      "mixed": 4993,
      "##ibr": 4994,
      "manager": 4995,
      "private": 4996,
      "capital": 4997,
      "officers": 4998,
      "broadcast": 4999,
      "cann": 5000,
      "##gn": 5001,
      "likely": 5002,
      "Jim": 5003,
      "cur": 5004,
      "##hood": 5005,
      "Jew": 5006,
      "Big": 5007,
      "distrib": 5008,
      "Queen": 5009,
      "70": 5010,
      "Old": 5011,
      "removed": 5012,
      "Texas": 5013,
      "##mpire": 5014,
      "initial": 5015,
      "increase": 5016,
      "plant": 5017,
      "celeb": 5018,
      "##uth": 5019,
      "mach": 5020,
      "script": 5021,
      "health": 5022,
      "subsequently": 5023,
      "leave": 5024,
      "Sea": 5025,
      "plans": 5026,
      "always": 5027,
      "focus": 5028,
      "Town": 5029,
      "services": 5030,
      "network": 5031,
      "##vert": 5032,
      "status": 5033,
      "via": 5034,
      "##hold": 5035,
      "coin": 5036,
      "compan": 5037,
      "location": 5038,
      "visit": 5039,
      "China": 5040,
      "Dist": 5041,
      "Mr": 5042,
      "Another": 5043,
      "##jected": 5044,
      "Law": 5045,
      "Str": 5046,
      "##rison": 5047,
      "problems": 5048,
      "##order": 5049,
      "depart": 5050,
      "Lord": 5051,
      "##rial": 5052,
      "offered": 5053,
      "flag": 5054,
      "##bury": 5055,
      "instr": 5056,
      "confl": 5057,
      "canc": 5058,
      "##etic": 5059,
      "terms": 5060,
      "Earth": 5061,
      "model": 5062,
      "How": 5063,
      "##ny": 5064,
      "##tainment": 5065,
      "norm": 5066,
      "approach": 5067,
      "##aily": 5068,
      "colon": 5069,
      "something": 5070,
      "village": 5071,
      "administ": 5072,
      "tons": 5073,
      "carry": 5074,
      "##stant": 5075,
      "00": 5076,
      "mur": 5077,
      "Camp": 5078,
      "uns": 5079,
      "majority": 5080,
      "##ria": 5081,
      "##vironment": 5082,
      "tow": 5083,
      "##ously": 5084,
      "professional": 5085,
      "Canadian": 5086,
      "Tor": 5087,
      "183": 5088,
      "##orning": 5089,
      "Trans": 5090,
      "Boy": 5091,
      "Its": 5092,
      "##ili": 5093,
      "meth": 5094,
      "Gre": 5095,
      "##adium": 5096,
      "got": 5097,
      "tor": 5098,
      "Rail": 5099,
      "Africa": 5100,
      "##rol": 5101,
      "cause": 5102,
      "##ograph": 5103,
      "consist": 5104,
      "##ills": 5105,
      "##uries": 5106,
      "damaged": 5107,
      "inters": 5108,
      "meeting": 5109,
      "Wood": 5110,
      "appears": 5111,
      "Tour": 5112,
      "Step": 5113,
      "job": 5114,
      "confir": 5115,
      "counter": 5116,
      "minute": 5117,
      "adop": 5118,
      "##aches": 5119,
      "Ol": 5120,
      "ran": 5121,
      "ranked": 5122,
      "Ant": 5123,
      "composed": 5124,
      "##ys": 5125,
      "revealed": 5126,
      "Center": 5127,
      "Squadron": 5128,
      "Sir": 5129,
      "Je": 5130,
      "Highway": 5131,
      "attacks": 5132,
      "flight": 5133,
      "Russian": 5134,
      "##itect": 5135,
      "sch": 5136,
      "plot": 5137,
      "##ends": 5138,
      "##ette": 5139,
      "##rate": 5140,
      "Del": 5141,
      "discovered": 5142,
      "raised": 5143,
      "respectively": 5144,
      "financ": 5145,
      "##umed": 5146,
      "makes": 5147,
      "##ify": 5148,
      "Carol": 5149,
      "Pet": 5150,
      "Central": 5151,
      "##ij": 5152,
      "numerous": 5153,
      "contem": 5154,
      "Kent": 5155,
      "1995": 5156,
      "III": 5157,
      "Martin": 5158,
      "associated": 5159,
      "takes": 5160,
      "Angeles": 5161,
      "altern": 5162,
      "inspired": 5163,
      "##reak": 5164,
      "account": 5165,
      "needed": 5166,
      "Rel": 5167,
      "##aging": 5168,
      "domin": 5169,
      "thr": 5170,
      "lived": 5171,
      "rout": 5172,
      "anc": 5173,
      "launched": 5174,
      "yet": 5175,
      "##olk": 5176,
      "nature": 5177,
      "##ription": 5178,
      "##ari": 5179,
      "##aught": 5180,
      "occurred": 5181,
      "contains": 5182,
      "vehic": 5183,
      "38": 5184,
      "34": 5185,
      "coach": 5186,
      "shown": 5187,
      "cand": 5188,
      "Congress": 5189,
      "##uf": 5190,
      "attempted": 5191,
      "##estival": 5192,
      "##ails": 5193,
      "attacked": 5194,
      "moving": 5195,
      "##imb": 5196,
      "sales": 5197,
      "Year": 5198,
      "conditions": 5199,
      "##uments": 5200,
      "DV": 5201,
      "##ros": 5202,
      "amb": 5203,
      "dig": 5204,
      "accomp": 5205,
      "Group": 5206,
      "Mel": 5207,
      "aw": 5208,
      "2016": 5209,
      "##joy": 5210,
      "TV": 5211,
      "##arch": 5212,
      "##down": 5213,
      "issues": 5214,
      "Miss": 5215,
      "1996": 5216,
      "Rh": 5217,
      "Dis": 5218,
      "birth": 5219,
      "whole": 5220,
      "information": 5221,
      "refl": 5222,
      "exam": 5223,
      "yards": 5224,
      "slight": 5225,
      "##lo": 5226,
      "Empire": 5227,
      "Rad": 5228,
      "upper": 5229,
      "##burg": 5230,
      "incor": 5231,
      "subject": 5232,
      "referred": 5233,
      "##urity": 5234,
      "box": 5235,
      "critical": 5236,
      "##lor": 5237,
      "mom": 5238,
      "19th": 5239,
      "Lu": 5240,
      "numbers": 5241,
      "finally": 5242,
      "smaller": 5243,
      "##cean": 5244,
      "elected": 5245,
      "resulted": 5246,
      "selected": 5247,
      "##reme": 5248,
      "scient": 5249,
      "##enant": 5250,
      "##rect": 5251,
      "grant": 5252,
      "experi": 5253,
      "##ogue": 5254,
      "##esh": 5255,
      "prec": 5256,
      "Penn": 5257,
      "active": 5258,
      "##quar": 5259,
      "singer": 5260,
      "bad": 5261,
      "Jose": 5262,
      "##cy": 5263,
      "princip": 5264,
      "Out": 5265,
      "sen": 5266,
      "##win": 5267,
      "##ellow": 5268,
      "standard": 5269,
      "##eather": 5270,
      "secret": 5271,
      "mission": 5272,
      "industry": 5273,
      "##uated": 5274,
      "1994": 5275,
      "Italian": 5276,
      "largely": 5277,
      "Bu": 5278,
      "grand": 5279,
      "##ken": 5280,
      "sal": 5281,
      "operation": 5282,
      "##iest": 5283,
      "ang": 5284,
      "##itation": 5285,
      "Bow": 5286,
      "cer": 5287,
      "assigned": 5288,
      "##ortun": 5289,
      "Tur": 5290,
      "earned": 5291,
      "saf": 5292,
      "analy": 5293,
      "legisl": 5294,
      "commented": 5295,
      "##mon": 5296,
      "expected": 5297,
      "Team": 5298,
      "listed": 5299,
      "Corps": 5300,
      "Kr": 5301,
      "web": 5302,
      "##aud": 5303,
      "##itude": 5304,
      "suggest": 5305,
      "audience": 5306,
      "DVD": 5307,
      "pair": 5308,
      "##ality": 5309,
      "##isk": 5310,
      "covered": 5311,
      "artic": 5312,
      "90": 5313,
      "unable": 5314,
      "##izing": 5315,
      "##ases": 5316,
      "Crit": 5317,
      "purp": 5318,
      "sched": 5319,
      "traditional": 5320,
      "indic": 5321,
      "education": 5322,
      "##eek": 5323,
      "trade": 5324,
      "hot": 5325,
      "underst": 5326,
      "artist": 5327,
      "friends": 5328,
      "attention": 5329,
      "closed": 5330,
      "refused": 5331,
      "gre": 5332,
      "sem": 5333,
      "Viet": 5334,
      "primary": 5335,
      "newsp": 5336,
      "double": 5337,
      "method": 5338,
      "##well": 5339,
      "plat": 5340,
      "##ounts": 5341,
      "sister": 5342,
      "royal": 5343,
      "prevent": 5344,
      "kind": 5345,
      "Gar": 5346,
      "Tel": 5347,
      "Michigan": 5348,
      "pit": 5349,
      "reason": 5350,
      "##ighter": 5351,
      "letter": 5352,
      "male": 5353,
      "officer": 5354,
      "##aped": 5355,
      "below": 5356,
      "##ipped": 5357,
      "enjoy": 5358,
      "Wales": 5359,
      "depression": 5360,
      "ability": 5361,
      "meant": 5362,
      "Sk": 5363,
      "performances": 5364,
      "declared": 5365,
      "##oud": 5366,
      "##ider": 5367,
      "giving": 5368,
      "Nort": 5369,
      "repor": 5370,
      "##undred": 5371,
      "word": 5372,
      "fighting": 5373,
      "##zz": 5374,
      "##oly": 5375,
      "blood": 5376,
      "commander": 5377,
      "middle": 5378,
      "religious": 5379,
      "books": 5380,
      "concept": 5381,
      "Mass": 5382,
      "##iled": 5383,
      "180": 5384,
      "theat": 5385,
      "Kar": 5386,
      "Cath": 5387,
      "rate": 5388,
      "max": 5389,
      "amount": 5390,
      "##thlet": 5391,
      "und": 5392,
      "records": 5393,
      "##ims": 5394,
      "##ples": 5395,
      "49": 5396,
      "matches": 5397,
      "names": 5398,
      "Acad": 5399,
      "Democr": 5400,
      "constit": 5401,
      "impact": 5402,
      "produce": 5403,
      "question": 5404,
      "recover": 5405,
      "##anes": 5406,
      "har": 5407,
      "##tered": 5408,
      "Bec": 5409,
      "competition": 5410,
      "Test": 5411,
      "##antasy": 5412,
      "serious": 5413,
      "centre": 5414,
      "unit": 5415,
      "##oses": 5416,
      "Ox": 5417,
      "vocals": 5418,
      "disapp": 5419,
      "Minister": 5420,
      "Several": 5421,
      "touch": 5422,
      "mention": 5423,
      "##odies": 5424,
      "Zeal": 5425,
      "##utch": 5426,
      "1992": 5427,
      "Major": 5428,
      "##ounded": 5429,
      "mor": 5430,
      "Long": 5431,
      "abandon": 5432,
      "##aine": 5433,
      "rapid": 5434,
      "Arch": 5435,
      "energy": 5436,
      "##com": 5437,
      "##ady": 5438,
      "necess": 5439,
      "##oe": 5440,
      "train": 5441,
      "##road": 5442,
      "Midd": 5443,
      "kilomet": 5444,
      "Fer": 5445,
      "Pre": 5446,
      "Matt": 5447,
      "##ervation": 5448,
      "Wal": 5449,
      "##enge": 5450,
      "constructed": 5451,
      "Er": 5452,
      "##overs": 5453,
      "Leg": 5454,
      "Fox": 5455,
      "dut": 5456,
      "##uct": 5457,
      "Kenn": 5458,
      "traff": 5459,
      "Cons": 5460,
      "theme": 5461,
      "##ona": 5462,
      "41": 5463,
      "##ening": 5464,
      "1st": 5465,
      "##echan": 5466,
      "nearby": 5467,
      "highly": 5468,
      "pick": 5469,
      "Time": 5470,
      "##ishop": 5471,
      "Zealand": 5472,
      "separate": 5473,
      "continue": 5474,
      "annual": 5475,
      "sev": 5476,
      "chief": 5477,
      "effort": 5478,
      "presented": 5479,
      "heart": 5480,
      "Mexico": 5481,
      "combat": 5482,
      "##rier": 5483,
      "drum": 5484,
      "positions": 5485,
      "reduced": 5486,
      "African": 5487,
      "400": 5488,
      "controvers": 5489,
      "Four": 5490,
      "##ether": 5491,
      "directly": 5492,
      "##ansion": 5493,
      "##ieut": 5494,
      "levels": 5495,
      "means": 5496,
      "##ibly": 5497,
      "Chris": 5498,
      "notes": 5499,
      "object": 5500,
      "attended": 5501,
      "##use": 5502,
      "##ban": 5503,
      "neigh": 5504,
      "tried": 5505,
      "practice": 5506,
      "Sar": 5507,
      "compos": 5508,
      "##emorial": 5509,
      "##rid": 5510,
      "Haw": 5511,
      "edition": 5512,
      "Sum": 5513,
      "##ender": 5514,
      "##ining": 5515,
      "So": 5516,
      "twenty": 5517,
      "accepted": 5518,
      "nuc": 5519,
      "1993": 5520,
      "Madonna": 5521,
      "##vement": 5522,
      "##rug": 5523,
      "##ingu": 5524,
      "fast": 5525,
      "Wall": 5526,
      "stating": 5527,
      "20th": 5528,
      "1991": 5529,
      "metal": 5530,
      "architect": 5531,
      "Dar": 5532,
      "movie": 5533,
      "watch": 5534,
      "##oper": 5535,
      "text": 5536,
      "candid": 5537,
      "cle": 5538,
      "Scotland": 5539,
      "concert": 5540,
      "##lled": 5541,
      "##stitute": 5542,
      "Bob": 5543,
      "##track": 5544,
      "##shire": 5545,
      "Jones": 5546,
      "55": 5547,
      "179": 5548,
      "direction": 5549,
      "##ado": 5550,
      "Ann": 5551,
      "Their": 5552,
      "##ersey": 5553,
      "seem": 5554,
      "schools": 5555,
      "legal": 5556,
      "##osen": 5557,
      "dism": 5558,
      "##work": 5559,
      "##ires": 5560,
      "##osh": 5561,
      "thick": 5562,
      "##ka": 5563,
      "lif": 5564,
      "##inson": 5565,
      "marriage": 5566,
      "##ien": 5567,
      "recomm": 5568,
      "##eway": 5569,
      "Department": 5570,
      "Greek": 5571,
      "oil": 5572,
      "horse": 5573,
      "##awn": 5574,
      "##illery": 5575,
      "favour": 5576,
      "efforts": 5577,
      "rein": 5578,
      "managed": 5579,
      "Manc": 5580,
      "college": 5581,
      "asp": 5582,
      "draft": 5583,
      "intell": 5584,
      "purs": 5585,
      "resulting": 5586,
      "##icip": 5587,
      "ending": 5588,
      "Cross": 5589,
      "avoid": 5590,
      "##wide": 5591,
      "wing": 5592,
      "##ieutenant": 5593,
      "##utions": 5594,
      "showed": 5595,
      "Three": 5596,
      "dropped": 5597,
      "##onic": 5598,
      "responsible": 5599,
      "Infantry": 5600,
      "inside": 5601,
      "39": 5602,
      "Tw": 5603,
      "nation": 5604,
      "##eath": 5605,
      "cases": 5606,
      "kept": 5607,
      "environment": 5608,
      "182": 5609,
      "Arab": 5610,
      "Tre": 5611,
      "##irit": 5612,
      "cust": 5613,
      "spl": 5614,
      "culture": 5615,
      "meaning": 5616,
      "Bost": 5617,
      "Se": 5618,
      "Foot": 5619,
      "cyclone": 5620,
      "##band": 5621,
      "overs": 5622,
      "##house": 5623,
      "##arrow": 5624,
      "begins": 5625,
      "incorpor": 5626,
      "##sis": 5627,
      "Dou": 5628,
      "##be": 5629,
      "variety": 5630,
      "##illed": 5631,
      "morning": 5632,
      "rat": 5633,
      "##ceeded": 5634,
      "houses": 5635,
      "cerem": 5636,
      "forms": 5637,
      "##isation": 5638,
      "dom": 5639,
      "product": 5640,
      "championship": 5641,
      "Service": 5642,
      "words": 5643,
      "Post": 5644,
      "##ican": 5645,
      "##peror": 5646,
      "yard": 5647,
      "##aph": 5648,
      "Creek": 5649,
      "Williams": 5650,
      "42": 5651,
      "##cing": 5652,
      "Stone": 5653,
      "schol": 5654,
      "Records": 5655,
      "marked": 5656,
      "48": 5657,
      "inches": 5658,
      "perm": 5659,
      "Hung": 5660,
      "continues": 5661,
      "Secret": 5662,
      "du": 5663,
      "##arian": 5664,
      "##aise": 5665,
      "unl": 5666,
      "181": 5667,
      "Coll": 5668,
      "science": 5669,
      "##MS": 5670,
      "##inem": 5671,
      "symb": 5672,
      "##cend": 5673,
      "uses": 5674,
      "Parliament": 5675,
      "economic": 5676,
      "bank": 5677,
      "Go": 5678,
      "source": 5679,
      "BC": 5680,
      "News": 5681,
      "Arm": 5682,
      "vo": 5683,
      "##ita": 5684,
      "Games": 5685,
      "quality": 5686,
      "##iated": 5687,
      "Av": 5688,
      "##writ": 5689,
      "hundred": 5690,
      "##thel": 5691,
      "##olf": 5692,
      "##ylv": 5693,
      "##gypt": 5694,
      "##ulations": 5695,
      "conducted": 5696,
      "starting": 5697,
      "your": 5698,
      "specific": 5699,
      "allowing": 5700,
      "strugg": 5701,
      "Stan": 5702,
      "##cle": 5703,
      "Egypt": 5704,
      "##thur": 5705,
      "Society": 5706,
      "1942": 5707,
      "presence": 5708,
      "Book": 5709,
      "beat": 5710,
      "viewers": 5711,
      "sides": 5712,
      "##ils": 5713,
      "##gl": 5714,
      "metres": 5715,
      "Cle": 5716,
      "dance": 5717,
      "##ux": 5718,
      "##ications": 5719,
      "rule": 5720,
      "chap": 5721,
      "suppl": 5722,
      "##light": 5723,
      "exhib": 5724,
      "univers": 5725,
      "Prince": 5726,
      "Southern": 5727,
      "Stephen": 5728,
      "distinct": 5729,
      "transferred": 5730,
      "raid": 5731,
      "Hel": 5732,
      "potential": 5733,
      "Committee": 5734,
      "foreign": 5735,
      "Clark": 5736,
      "##teen": 5737,
      "Oh": 5738,
      "Oxford": 5739,
      "Sur": 5740,
      "peaked": 5741,
      "Latin": 5742,
      "##wh": 5743,
      "Jer": 5744,
      "Georg": 5745,
      "##bed": 5746,
      "enemy": 5747,
      "Beat": 5748,
      "##ols": 5749,
      "becomes": 5750,
      "captain": 5751,
      "Tri": 5752,
      "traffic": 5753,
      "##itiz": 5754,
      "advance": 5755,
      "owned": 5756,
      "things": 5757,
      "Spec": 5758,
      "founded": 5759,
      "greater": 5760,
      "Fin": 5761,
      "Like": 5762,
      "Win": 5763,
      "Joseph": 5764,
      "Admiral": 5765,
      "attend": 5766,
      "65": 5767,
      "concluded": 5768,
      "portion": 5769,
      "vocal": 5770,
      "scoring": 5771,
      "castle": 5772,
      "ple": 5773,
      "respond": 5774,
      "property": 5775,
      "stories": 5776,
      "attempts": 5777,
      "encoun": 5778,
      "Boston": 5779,
      "relatively": 5780,
      "##inet": 5781,
      "Harrison": 5782,
      "##sych": 5783,
      "##very": 5784,
      "Manchester": 5785,
      "Chief": 5786,
      "Sat": 5787,
      "primarily": 5788,
      "ded": 5789,
      "##iance": 5790,
      "demonst": 5791,
      "mess": 5792,
      "appar": 5793,
      "federal": 5794,
      "financial": 5795,
      "Because": 5796,
      "actually": 5797,
      "Jeff": 5798,
      "Before": 5799,
      "animals": 5800,
      "Camb": 5801,
      "Brad": 5802,
      "mel": 5803,
      "Captain": 5804,
      "##rawn": 5805,
      "Class": 5806,
      "Sil": 5807,
      "observed": 5808,
      "Hurricane": 5809,
      "##mark": 5810,
      "Swed": 5811,
      "collection": 5812,
      "47": 5813,
      "opportun": 5814,
      "##fect": 5815,
      "multiple": 5816,
      "Sol": 5817,
      "Vietn": 5818,
      "titled": 5819,
      "tourn": 5820,
      "featuring": 5821,
      "Form": 5822,
      "##ih": 5823,
      "writers": 5824,
      "##istics": 5825,
      "contact": 5826,
      "write": 5827,
      "1944": 5828,
      "journal": 5829,
      "inch": 5830,
      "##sw": 5831,
      "Bas": 5832,
      "Dire": 5833,
      "Ap": 5834,
      "strength": 5835,
      "##ait": 5836,
      "weaken": 5837,
      "Bridge": 5838,
      "wor": 5839,
      "situation": 5840,
      "distance": 5841,
      "spot": 5842,
      "paid": 5843,
      "premi": 5844,
      "mechan": 5845,
      "parents": 5846,
      "Battalion": 5847,
      "Commission": 5848,
      "independent": 5849,
      "figure": 5850,
      "passeng": 5851,
      "Ott": 5852,
      "acting": 5853,
      "actor": 5854,
      "companies": 5855,
      "divided": 5856,
      "##umber": 5857,
      "Def": 5858,
      "Hal": 5859,
      "52": 5860,
      "progress": 5861,
      "onto": 5862,
      "Paris": 5863,
      "collabor": 5864,
      "46": 5865,
      "link": 5866,
      "Columb": 5867,
      "mind": 5868,
      "slightly": 5869,
      "target": 5870,
      "Tim": 5871,
      "piece": 5872,
      "Series": 5873,
      "function": 5874,
      "share": 5875,
      "selling": 5876,
      "Carl": 5877,
      "##iced": 5878,
      "64": 5879,
      "reform": 5880,
      "##perial": 5881,
      "powerful": 5882,
      "##ricket": 5883,
      "innings": 5884,
      "rating": 5885,
      "concent": 5886,
      "torped": 5887,
      "Max": 5888,
      "plays": 5889,
      "##ental": 5890,
      "Bat": 5891,
      "era": 5892,
      "lot": 5893,
      "broke": 5894,
      "ge": 5895,
      "43": 5896,
      "today": 5897,
      "BBC": 5898,
      "##eball": 5899,
      "##chest": 5900,
      "1990": 5901,
      "##istry": 5902,
      "actions": 5903,
      "ultimately": 5904,
      "Croat": 5905,
      "waters": 5906,
      "walk": 5907,
      "trial": 5908,
      "rough": 5909,
      "##oration": 5910,
      "cho": 5911,
      "maximum": 5912,
      "##ply": 5913,
      "Dev": 5914,
      "Luc": 5915,
      "##uge": 5916,
      "44": 5917,
      "##udd": 5918,
      "Histor": 5919,
      "Ver": 5920,
      "pilot": 5921,
      "bound": 5922,
      "##venue": 5923,
      "##ada": 5924,
      "##annel": 5925,
      "completely": 5926,
      "Academy": 5927,
      "##ours": 5928,
      "Che": 5929,
      "sought": 5930,
      "Life": 5931,
      "##acts": 5932,
      "Van": 5933,
      "1945": 5934,
      "##mas": 5935,
      "policy": 5936,
      "scale": 5937,
      "Mod": 5938,
      "##anna": 5939,
      "Adv": 5940,
      "society": 5941,
      "blue": 5942,
      "interp": 5943,
      "Pan": 5944,
      "mainly": 5945,
      "Museum": 5946,
      "behav": 5947,
      "Saint": 5948,
      "log": 5949,
      "##stein": 5950,
      "Line": 5951,
      "designated": 5952,
      "1941": 5953,
      "hus": 5954,
      "##astic": 5955,
      "ess": 5956,
      "officials": 5957,
      "struck": 5958,
      "bene": 5959,
      "influenced": 5960,
      "##mond": 5961,
      "activity": 5962,
      "combined": 5963,
      "suc": 5964,
      "square": 5965,
      "transl": 5966,
      "wear": 5967,
      "search": 5968,
      "##olved": 5969,
      "Pop": 5970,
      "Entertainment": 5971,
      "Italy": 5972,
      "150": 5973,
      "vess": 5974,
      "thous": 5975,
      "calling": 5976,
      "alongside": 5977,
      "contrast": 5978,
      "Little": 5979,
      "Way": 5980,
      "northeast": 5981,
      "##rel": 5982,
      "seconds": 5983,
      "batter": 5984,
      "elev": 5985,
      "Brigade": 5986,
      "sout": 5987,
      "Americans": 5988,
      "##while": 5989,
      "Ke": 5990,
      "corn": 5991,
      "tur": 5992,
      "sources": 5993,
      "winter": 5994,
      "battleship": 5995,
      "background": 5996,
      "Lee": 5997,
      "Hor": 5998,
      "##king": 5999,
      "webs": 6000,
      "theory": 6001,
      "Den": 6002,
      "seg": 6003,
      "ice": 6004,
      "recent": 6005,
      "gained": 6006,
      "nominated": 6007,
      "More": 6008,
      "conver": 6009,
      "##ini": 6010,
      "electric": 6011,
      "crow": 6012,
      "platform": 6013,
      "artists": 6014,
      "encour": 6015,
      "problem": 6016,
      "mem": 6017,
      "Regiment": 6018,
      "Tod": 6019,
      "##iano": 6020,
      "widely": 6021,
      "##right": 6022,
      "naval": 6023,
      "Wind": 6024,
      "systems": 6025,
      "promoted": 6026,
      "Ire": 6027,
      "##quarters": 6028,
      "confirmed": 6029,
      "weather": 6030,
      "##we": 6031,
      "sn": 6032,
      "##adel": 6033,
      "##aga": 6034,
      "reaching": 6035,
      "Ireland": 6036,
      "results": 6037,
      "proved": 6038,
      "Avenue": 6039,
      "Add": 6040,
      "##osaur": 6041,
      "##HL": 6042,
      "passing": 6043,
      "##sen": 6044,
      "##ibrary": 6045,
      "Ell": 6046,
      "Mic": 6047,
      "albums": 6048,
      "explained": 6049,
      "subsequent": 6050,
      "greatest": 6051,
      "conflict": 6052,
      "Fleet": 6053,
      "##pson": 6054,
      "##ota": 6055,
      "##ube": 6056,
      "2nd": 6057,
      "##illa": 6058,
      "invasion": 6059,
      "feed": 6060,
      "content": 6061,
      "wick": 6062,
      "news": 6063,
      "1989": 6064,
      "coming": 6065,
      "peace": 6066,
      "charge": 6067,
      "sixth": 6068,
      "resist": 6069,
      "##nown": 6070,
      "northwest": 6071,
      "##omy": 6072,
      "compr": 6073,
      "##essions": 6074,
      "county": 6075,
      "Spr": 6076,
      "##edd": 6077,
      "shortly": 6078,
      "1943": 6079,
      "Good": 6080,
      "versions": 6081,
      "adj": 6082,
      "serve": 6083,
      "causing": 6084,
      "says": 6085,
      "##ya": 6086,
      "equip": 6087,
      "sust": 6088,
      "Orig": 6089,
      "expressed": 6090,
      "path": 6091,
      "reception": 6092,
      "##iring": 6093,
      "Victoria": 6094,
      "Ma": 6095,
      "burn": 6096,
      "Ray": 6097,
      "##itness": 6098,
      "residents": 6099,
      "Aut": 6100,
      "Catholic": 6101,
      "Bus": 6102,
      "border": 6103,
      "emot": 6104,
      "deliv": 6105,
      "Tropical": 6106,
      "soundtrack": 6107,
      "##TV": 6108,
      "cities": 6109,
      "stay": 6110,
      "Charl": 6111,
      "Valley": 6112,
      "##ips": 6113,
      "51": 6114,
      "seasons": 6115,
      "Work": 6116,
      "appearances": 6117,
      "sense": 6118,
      "##ategory": 6119,
      "talk": 6120,
      "poll": 6121,
      "Norm": 6122,
      "##aven": 6123,
      "sexual": 6124,
      "require": 6125,
      "##de": 6126,
      "##ufact": 6127,
      "chem": 6128,
      "hospital": 6129,
      "green": 6130,
      "identified": 6131,
      "physical": 6132,
      "Sant": 6133,
      "older": 6134,
      "hands": 6135,
      "##ancy": 6136,
      "Light": 6137,
      "Though": 6138,
      "tells": 6139,
      "true": 6140,
      "offer": 6141,
      "document": 6142,
      "Live": 6143,
      "Dani": 6144,
      "kg": 6145,
      "##ighth": 6146,
      "artillery": 6147,
      "represented": 6148,
      "Roll": 6149,
      "Commun": 6150,
      "iron": 6151,
      "pun": 6152,
      "weapons": 6153,
      "Liber": 6154,
      "ahead": 6155,
      "Through": 6156,
      "Football": 6157,
      "eas": 6158,
      "##unction": 6159,
      "Far": 6160,
      "##icient": 6161,
      "hors": 6162,
      "##itan": 6163,
      "gas": 6164,
      "negot": 6165,
      "##ugh": 6166,
      "##arden": 6167,
      "Show": 6168,
      "##ylvania": 6169,
      "heavily": 6170,
      "laws": 6171,
      "##isher": 6172,
      "Upon": 6173,
      "Week": 6174,
      "##bon": 6175,
      "1980s": 6176,
      "1940": 6177,
      "Conf": 6178,
      "fle": 6179,
      "##ero": 6180,
      "Dutch": 6181,
      "##abeth": 6182,
      "Young": 6183,
      "defense": 6184,
      "##AS": 6185,
      "##town": 6186,
      "student": 6187,
      "image": 6188,
      "spread": 6189,
      "alone": 6190,
      "Ry": 6191,
      "studies": 6192,
      "officially": 6193,
      "Jul": 6194,
      "husband": 6195,
      "executive": 6196,
      "district": 6197,
      "Bey": 6198,
      "Tay": 6199,
      "farm": 6200,
      "compar": 6201,
      "Lo": 6202,
      "Albert": 6203,
      "Hear": 6204,
      "instit": 6205,
      "Eliz": 6206,
      "debuted": 6207,
      "Dun": 6208,
      "prominent": 6209,
      "capture": 6210,
      "consisted": 6211,
      "er": 6212,
      "entr": 6213,
      "appeal": 6214,
      "injury": 6215,
      "wild": 6216,
      "send": 6217,
      "pack": 6218,
      "Sub": 6219,
      "equipment": 6220,
      "organization": 6221,
      "fired": 6222,
      "Fre": 6223,
      "stone": 6224,
      "bit": 6225,
      "pattern": 6226,
      "defend": 6227,
      "argued": 6228,
      "Ill": 6229,
      "resc": 6230,
      "aired": 6231,
      "figures": 6232,
      "Di": 6233,
      "##ockey": 6234,
      "##za": 6235,
      "##AA": 6236,
      "surpr": 6237,
      "instrument": 6238,
      "exped": 6239,
      "growth": 6240,
      "Civil": 6241,
      "##acity": 6242,
      "doing": 6243,
      "returning": 6244,
      "hun": 6245,
      "Homer": 6246,
      "suit": 6247,
      "Bond": 6248,
      "contemporary": 6249,
      "pict": 6250,
      "ring": 6251,
      "##rical": 6252,
      "doub": 6253,
      "Rog": 6254,
      "##pool": 6255,
      "##ushed": 6256,
      "poet": 6257,
      "pal": 6258,
      "weight": 6259,
      "1970s": 6260,
      "hers": 6261,
      "tun": 6262,
      "Vol": 6263,
      "laid": 6264,
      "Tem": 6265,
      "leaders": 6266,
      "affected": 6267,
      "Northern": 6268,
      "matter": 6269,
      "pieces": 6270,
      "Ram": 6271,
      "floor": 6272,
      "Top": 6273,
      "habit": 6274,
      "magn": 6275,
      "##tar": 6276,
      "step": 6277,
      "eth": 6278,
      "maintained": 6279,
      "propos": 6280,
      "1960s": 6281,
      "##lers": 6282,
      "earth": 6283,
      "Gal": 6284,
      "occasion": 6285,
      "600": 6286,
      "##appen": 6287,
      "visited": 6288,
      "here": 6289,
      "rang": 6290,
      "comes": 6291,
      "##amber": 6292,
      "shell": 6293,
      "speech": 6294,
      "criticized": 6295,
      "crowd": 6296,
      "tal": 6297,
      "Storm": 6298,
      "Dam": 6299,
      "##bur": 6300,
      "termin": 6301,
      "activities": 6302,
      "##hew": 6303,
      "stra": 6304,
      "chair": 6305,
      "Jon": 6306,
      "##lines": 6307,
      "##ias": 6308,
      "##emic": 6309,
      "Carolina": 6310,
      "citiz": 6311,
      "hall": 6312,
      "##acement": 6313,
      "exec": 6314,
      "##ifying": 6315,
      "##duction": 6316,
      "tournament": 6317,
      "reign": 6318,
      "toward": 6319,
      "ox": 6320,
      "##ayer": 6321,
      "pan": 6322,
      "singles": 6323,
      "emph": 6324,
      "Jud": 6325,
      "Hard": 6326,
      "drug": 6327,
      "##pass": 6328,
      "reference": 6329,
      "##ners": 6330,
      "couple": 6331,
      "Bre": 6332,
      "Field": 6333,
      "formation": 6334,
      "##ocked": 6335,
      "Scottish": 6336,
      "Conn": 6337,
      "senior": 6338,
      "1987": 6339,
      "setting": 6340,
      "##intend": 6341,
      "##elve": 6342,
      "adapt": 6343,
      "territory": 6344,
      "worldwide": 6345,
      "medical": 6346,
      "##acher": 6347,
      "Government": 6348,
      "trying": 6349,
      "##isco": 6350,
      "1988": 6351,
      "trees": 6352,
      "stations": 6353,
      "surre": 6354,
      "bud": 6355,
      "Marsh": 6356,
      "System": 6357,
      "##iro": 6358,
      "birds": 6359,
      "Fantasy": 6360,
      "Writ": 6361,
      "##lam": 6362,
      "Operation": 6363,
      "##rain": 6364,
      "Holly": 6365,
      "Background": 6366,
      "machine": 6367,
      "Governor": 6368,
      "claims": 6369,
      "doll": 6370,
      "murder": 6371,
      "roll": 6372,
      "Colon": 6373,
      "District": 6374,
      "##embly": 6375,
      "historian": 6376,
      "rainfall": 6377,
      "risk": 6378,
      "dog": 6379,
      "fully": 6380,
      "accident": 6381,
      "Penns": 6382,
      "cell": 6383,
      "53": 6384,
      "Rom": 6385,
      "value": 6386,
      "load": 6387,
      "##ivity": 6388,
      "therefore": 6389,
      "god": 6390,
      "Home": 6391,
      "##uled": 6392,
      "Duke": 6393,
      "chosen": 6394,
      "treatment": 6395,
      "Guard": 6396,
      "university": 6397,
      "guest": 6398,
      "twice": 6399,
      "##omers": 6400,
      "##velopment": 6401,
      "Studios": 6402,
      "frequently": 6403,
      "##uls": 6404,
      "Polish": 6405,
      "reports": 6406,
      "bott": 6407,
      "Girl": 6408,
      "##rael": 6409,
      "leaves": 6410,
      "Short": 6411,
      "governor": 6412,
      "sens": 6413,
      "##ram": 6414,
      "remark": 6415,
      "Senate": 6416,
      "address": 6417,
      "Mat": 6418,
      "##irty": 6419,
      "Castle": 6420,
      "paper": 6421,
      "##tle": 6422,
      "##aved": 6423,
      "##stitution": 6424,
      "hyd": 6425,
      "Eastern": 6426,
      "##ordin": 6427,
      "label": 6428,
      "Men": 6429,
      "faced": 6430,
      "##ampion": 6431,
      "dyn": 6432,
      "##ić": 6433,
      "walls": 6434,
      "opin": 6435,
      "follows": 6436,
      "##orne": 6437,
      "Lew": 6438,
      "fear": 6439,
      "billion": 6440,
      "##anger": 6441,
      "operated": 6442,
      "##eller": 6443,
      "Rod": 6444,
      "grew": 6445,
      "##ading": 6446,
      "##ledge": 6447,
      "surrounding": 6448,
      "color": 6449,
      "85": 6450,
      "##uous": 6451,
      "Andrew": 6452,
      "contained": 6453,
      "manufact": 6454,
      "Mean": 6455,
      "degree": 6456,
      "##onents": 6457,
      "##ucky": 6458,
      "herself": 6459,
      "condition": 6460,
      "Christmas": 6461,
      "planet": 6462,
      "##stone": 6463,
      "observ": 6464,
      "MD": 6465,
      "accompan": 6466,
      "wounded": 6467,
      "typically": 6468,
      "Allied": 6469,
      "impress": 6470,
      "visual": 6471,
      "##resp": 6472,
      "passes": 6473,
      "challeng": 6474,
      "simply": 6475,
      "##illy": 6476,
      "master": 6477,
      "fuel": 6478,
      "Wilson": 6479,
      "escape": 6480,
      "Corn": 6481,
      "brown": 6482,
      "railway": 6483,
      "##aming": 6484,
      "element": 6485,
      "##utation": 6486,
      "fair": 6487,
      "reinfor": 6488,
      "Taylor": 6489,
      "lives": 6490,
      "##ety": 6491,
      "editor": 6492,
      "orders": 6493,
      "Bart": 6494,
      "1986": 6495,
      "arms": 6496,
      "Elizabeth": 6497,
      "##rie": 6498,
      "serving": 6499,
      "##antly": 6500,
      "nothing": 6501,
      "Alexander": 6502,
      "##igg": 6503,
      "authority": 6504,
      "chose": 6505,
      "opposed": 6506,
      "Night": 6507,
      "workers": 6508,
      "Hon": 6509,
      "vote": 6510,
      "consecutive": 6511,
      "cannot": 6512,
      "camer": 6513,
      "sle": 6514,
      "##isters": 6515,
      "moment": 6516,
      "Ros": 6517,
      "##bit": 6518,
      "newly": 6519,
      "Each": 6520,
      "##ricult": 6521,
      "##izes": 6522,
      "native": 6523,
      "unknown": 6524,
      "Joe": 6525,
      "##ancing": 6526,
      "participated": 6527,
      "54": 6528,
      "casual": 6529,
      "growing": 6530,
      "website": 6531,
      "##pton": 6532,
      "##agn": 6533,
      "emphas": 6534,
      "phil": 6535,
      "attrib": 6536,
      "fan": 6537,
      "producers": 6538,
      "##fully": 6539,
      "newspaper": 6540,
      "bass": 6541,
      "##amm": 6542,
      "Chart": 6543,
      "ir": 6544,
      "losing": 6545,
      "benef": 6546,
      "extra": 6547,
      "advanced": 6548,
      "adopted": 6549,
      "filming": 6550,
      "Festival": 6551,
      "##ici": 6552,
      "Mur": 6553,
      "##gend": 6554,
      "Of": 6555,
      "##isf": 6556,
      "heard": 6557,
      "Hum": 6558,
      "Sel": 6559,
      "Hy": 6560,
      "##andy": 6561,
      "##ote": 6562,
      "severe": 6563,
      "Pennsylvania": 6564,
      "offensive": 6565,
      "95": 6566,
      "##ager": 6567,
      "##ilies": 6568,
      "fiction": 6569,
      "coal": 6570,
      "opposition": 6571,
      "##imens": 6572,
      "Jac": 6573,
      "spirit": 6574,
      "##ns": 6575,
      "Pers": 6576,
      "capacity": 6577,
      "Islands": 6578,
      "##ala": 6579,
      "basis": 6580,
      "What": 6581,
      "sequence": 6582,
      "actors": 6583,
      "council": 6584,
      "psych": 6585,
      "Det": 6586,
      "56": 6587,
      "guard": 6588,
      "horses": 6589,
      "ends": 6590,
      "177": 6591,
      "##ype": 6592,
      "Reception": 6593,
      "Sound": 6594,
      "weak": 6595,
      "squadron": 6596,
      "Mike": 6597,
      "##load": 6598,
      "advant": 6599,
      "prin": 6600,
      "abandoned": 6601,
      "lin": 6602,
      "##rane": 6603,
      "##azz": 6604,
      "##rong": 6605,
      "Irish": 6606,
      "Further": 6607,
      "Os": 6608,
      "##orter": 6609,
      "rival": 6610,
      "Middle": 6611,
      "Ocean": 6612,
      "WW": 6613,
      "Inst": 6614,
      "##then": 6615,
      "##isers": 6616,
      "Blue": 6617,
      "flying": 6618,
      "kick": 6619,
      "##eds": 6620,
      "##room": 6621,
      "##ables": 6622,
      "Wat": 6623,
      "Tech": 6624,
      "honor": 6625,
      "steam": 6626,
      "Harry": 6627,
      "creating": 6628,
      "Card": 6629,
      "Bru": 6630,
      "bey": 6631,
      "##ocated": 6632,
      "Jersey": 6633,
      "filmed": 6634,
      "Spain": 6635,
      "Ret": 6636,
      "launch": 6637,
      "##estic": 6638,
      "regarded": 6639,
      "homes": 6640,
      "happen": 6641,
      "expansion": 6642,
      "normal": 6643,
      "sports": 6644,
      "ast": 6645,
      "criticism": 6646,
      "individuals": 6647,
      "##onc": 6648,
      "SS": 6649,
      "Land": 6650,
      "1990s": 6651,
      "agreement": 6652,
      "Cy": 6653,
      "Gall": 6654,
      "beyond": 6655,
      "##ounger": 6656,
      "##rich": 6657,
      "incident": 6658,
      "Turk": 6659,
      "failure": 6660,
      "Fam": 6661,
      "##apers": 6662,
      "178": 6663,
      "##cel": 6664,
      "spect": 6665,
      "evac": 6666,
      "deploy": 6667,
      "97": 6668,
      "Square": 6669,
      "dismiss": 6670,
      "##arn": 6671,
      "##add": 6672,
      "famous": 6673,
      "sym": 6674,
      "##under": 6675,
      "spring": 6676,
      "narr": 6677,
      "Coast": 6678,
      "##enture": 6679,
      "Mid": 6680,
      "sail": 6681,
      "measure": 6682,
      "1939": 6683,
      "possibly": 6684,
      "eye": 6685,
      "historical": 6686,
      "negative": 6687,
      "shar": 6688,
      "##engthen": 6689,
      "liber": 6690,
      "##TC": 6691,
      "integ": 6692,
      "boat": 6693,
      "Pen": 6694,
      "bodies": 6695,
      "##war": 6696,
      "achieved": 6697,
      "##anda": 6698,
      "Us": 6699,
      "believe": 6700,
      "Are": 6701,
      "parall": 6702,
      "76": 6703,
      "mob": 6704,
      "roles": 6705,
      "Alb": 6706,
      "silver": 6707,
      "Public": 6708,
      "Production": 6709,
      "##iot": 6710,
      "##etts": 6711,
      "##uses": 6712,
      "killing": 6713,
      "narrow": 6714,
      "##min": 6715,
      "retired": 6716,
      "ideas": 6717,
      "##imet": 6718,
      "strike": 6719,
      "Bab": 6720,
      "fellow": 6721,
      "Institute": 6722,
      "##ifications": 6723,
      "##ano": 6724,
      "Lind": 6725,
      "Israel": 6726,
      "##BA": 6727,
      "supply": 6728,
      "Wild": 6729,
      "disease": 6730,
      "drive": 6731,
      "##more": 6732,
      "torpedo": 6733,
      "##mosp": 6734,
      "Arthur": 6735,
      "##onent": 6736,
      "CD": 6737,
      "hair": 6738,
      "rid": 6739,
      "briefly": 6740,
      "##FA": 6741,
      "1985": 6742,
      "prompt": 6743,
      "Revolution": 6744,
      "Broad": 6745,
      "effective": 6746,
      "1968": 6747,
      "##igr": 6748,
      "imag": 6749,
      "task": 6750,
      "armed": 6751,
      "diam": 6752,
      "tower": 6753,
      "budget": 6754,
      "##imal": 6755,
      "receive": 6756,
      "repeated": 6757,
      "administration": 6758,
      "granted": 6759,
      "necessary": 6760,
      "personnel": 6761,
      "tree": 6762,
      "##St": 6763,
      "roads": 6764,
      "rejected": 6765,
      "Meanwhile": 6766,
      "athlet": 6767,
      "##edom": 6768,
      "perman": 6769,
      "##gent": 6770,
      "twelve": 6771,
      "Cat": 6772,
      "Republican": 6773,
      "Mul": 6774,
      "##aith": 6775,
      "kilometres": 6776,
      "Due": 6777,
      "Germ": 6778,
      "improved": 6779,
      "conce": 6780,
      "leadership": 6781,
      "End": 6782,
      "Ly": 6783,
      "Person": 6784,
      "gross": 6785,
      "Doctor": 6786,
      "Album": 6787,
      "##iny": 6788,
      "interchange": 6789,
      "##avalry": 6790,
      "extensive": 6791,
      "column": 6792,
      "inh": 6793,
      "1970": 6794,
      "Cub": 6795,
      "data": 6796,
      "Ohio": 6797,
      "Dan": 6798,
      "66": 6799,
      "##onn": 6800,
      "##kins": 6801,
      "##ourney": 6802,
      "turns": 6803,
      "infantry": 6804,
      "plants": 6805,
      "purpose": 6806,
      "Bell": 6807,
      "straight": 6808,
      "management": 6809,
      "##asts": 6810,
      "interact": 6811,
      "trou": 6812,
      "lands": 6813,
      "Sund": 6814,
      "pet": 6815,
      "##iments": 6816,
      "landing": 6817,
      "defin": 6818,
      "describes": 6819,
      "61": 6820,
      "expanded": 6821,
      "seat": 6822,
      "##bo": 6823,
      "Head": 6824,
      "Secretary": 6825,
      "split": 6826,
      "Board": 6827,
      "##kin": 6828,
      "solo": 6829,
      "franch": 6830,
      "choice": 6831,
      "successfully": 6832,
      "unf": 6833,
      "broken": 6834,
      "yellow": 6835,
      "mile": 6836,
      "##lusion": 6837,
      "crossing": 6838,
      "Braz": 6839,
      "##rog": 6840,
      "##adelph": 6841,
      "Les": 6842,
      "didn": 6843,
      "1984": 6844,
      "surrender": 6845,
      "##inger": 6846,
      "fought": 6847,
      "Philadelph": 6848,
      "intellig": 6849,
      "explos": 6850,
      "##ocks": 6851,
      "animal": 6852,
      "##oma": 6853,
      "organized": 6854,
      "caught": 6855,
      "excl": 6856,
      "types": 6857,
      "convention": 6858,
      "##uate": 6859,
      "vehicles": 6860,
      "commissioned": 6861,
      "##amin": 6862,
      "suggests": 6863,
      "rear": 6864,
      "800": 6865,
      "acquired": 6866,
      "##oured": 6867,
      "##iday": 6868,
      "places": 6869,
      "committee": 6870,
      "##stream": 6871,
      "chor": 6872,
      "##haps": 6873,
      "Liver": 6874,
      "##iel": 6875,
      "##etball": 6876,
      "Ash": 6877,
      "Harv": 6878,
      "drama": 6879,
      "Even": 6880,
      "Georgia": 6881,
      "creation": 6882,
      "##mit": 6883,
      "Cambridge": 6884,
      "ancient": 6885,
      "glob": 6886,
      "gives": 6887,
      "Philadelphia": 6888,
      "##oln": 6889,
      "article": 6890,
      "comedy": 6891,
      "seventh": 6892,
      "Mir": 6893,
      "##orship": 6894,
      "nuclear": 6895,
      "prefer": 6896,
      "Burn": 6897,
      "wave": 6898,
      "soft": 6899,
      "##iate": 6900,
      "Lar": 6901,
      "##appy": 6902,
      "Hit": 6903,
      "authorities": 6904,
      "headquarters": 6905,
      "Sher": 6906,
      "##iable": 6907,
      "assault": 6908,
      "Const": 6909,
      "Mov": 6910,
      "##set": 6911,
      "contain": 6912,
      "120": 6913,
      "Pu": 6914,
      "Prot": 6915,
      "rom": 6916,
      "Also": 6917,
      "roof": 6918,
      "##inth": 6919,
      "centuries": 6920,
      "commonly": 6921,
      "##gress": 6922,
      "determined": 6923,
      "RA": 6924,
      "islands": 6925,
      "genus": 6926,
      "1967": 6927,
      "##iations": 6928,
      "Mu": 6929,
      "mentioned": 6930,
      "Addition": 6931,
      "Russia": 6932,
      "IS": 6933,
      "recently": 6934,
      "looking": 6935,
      "controlled": 6936,
      "gather": 6937,
      "##iana": 6938,
      "beaut": 6939,
      "Belg": 6940,
      "mis": 6941,
      "Ni": 6942,
      "##restling": 6943,
      "SR": 6944,
      "##umes": 6945,
      "##akers": 6946,
      "1980": 6947,
      "Common": 6948,
      "sets": 6949,
      "families": 6950,
      "Among": 6951,
      "##ima": 6952,
      "household": 6953,
      "security": 6954,
      "Liverpool": 6955,
      "upgr": 6956,
      "Never": 6957,
      "finds": 6958,
      "aim": 6959,
      "experiment": 6960,
      "##erc": 6961,
      "57": 6962,
      "Att": 6963,
      "Nintend": 6964,
      "decre": 6965,
      "advert": 6966,
      "standing": 6967,
      "convers": 6968,
      "acad": 6969,
      "illust": 6970,
      "street": 6971,
      "Nintendo": 6972,
      "##eman": 6973,
      "Linc": 6974,
      "singing": 6975,
      "##ura": 6976,
      "##oted": 6977,
      "withdraw": 6978,
      "battalion": 6979,
      "Ep": 6980,
      "Columbia": 6981,
      "unique": 6982,
      "Prime": 6983,
      "Earl": 6984,
      "##itled": 6985,
      "62": 6986,
      "##agement": 6987,
      "containing": 6988,
      "entirely": 6989,
      "height": 6990,
      "cultural": 6991,
      "Jenn": 6992,
      "fish": 6993,
      "dial": 6994,
      "orchest": 6995,
      "finish": 6996,
      "touchdown": 6997,
      "##ga": 6998,
      "Sup": 6999,
      "##ping": 7000,
      "contributed": 7001,
      "protect": 7002,
      "Tra": 7003,
      "Singap": 7004,
      "themes": 7005,
      "younger": 7006,
      "provides": 7007,
      "Development": 7008,
      "Korean": 7009,
      "Asia": 7010,
      "##ishes": 7011,
      "Chap": 7012,
      "flooding": 7013,
      "Lieutenant": 7014,
      "##acks": 7015,
      "deck": 7016,
      "1983": 7017,
      "Brazil": 7018,
      "rob": 7019,
      "mist": 7020,
      "awards": 7021,
      "atmosp": 7022,
      "titles": 7023,
      "bal": 7024,
      "purchased": 7025,
      "##ipl": 7026,
      "##outs": 7027,
      "Jewish": 7028,
      "##iences": 7029,
      "sac": 7030,
      "arrival": 7031,
      "scheduled": 7032,
      "powers": 7033,
      "defensive": 7034,
      "Child": 7035,
      "Francisco": 7036,
      "resemb": 7037,
      "accompanied": 7038,
      "##la": 7039,
      "Singapore": 7040,
      "ceremony": 7041,
      "quite": 7042,
      "##inity": 7043,
      "1964": 7044,
      "##respond": 7045,
      "Lincoln": 7046,
      "expedition": 7047,
      "Hay": 7048,
      "thing": 7049,
      "unus": 7050,
      "formula": 7051,
      "People": 7052,
      "worth": 7053,
      "1969": 7054,
      "perfect": 7055,
      "locations": 7056,
      "existing": 7057,
      "##icial": 7058,
      "extr": 7059,
      "performing": 7060,
      "advantage": 7061,
      "Carey": 7062,
      "##essor": 7063,
      "Office": 7064,
      "dedicated": 7065,
      "Six": 7066,
      "fat": 7067,
      "Wars": 7068,
      "computer": 7069,
      "try": 7070,
      "philos": 7071,
      "Pot": 7072,
      "request": 7073,
      "Dark": 7074,
      "extrem": 7075,
      "##cer": 7076,
      "Disney": 7077,
      "wa": 7078,
      "intensity": 7079,
      "58": 7080,
      "occupied": 7081,
      "##Station": 7082,
      "1914": 7083,
      "##ulate": 7084,
      "Kel": 7085,
      "##laim": 7086,
      "why": 7087,
      "74": 7088,
      "squad": 7089,
      "PlayStation": 7090,
      "##illing": 7091,
      "1918": 7092,
      "HMS": 7093,
      "fresh": 7094,
      "##ava": 7095,
      "mounted": 7096,
      "bat": 7097,
      "Order": 7098,
      "Hun": 7099,
      "##ola": 7100,
      "Lis": 7101,
      "1982": 7102,
      "Ven": 7103,
      "##agan": 7104,
      "##ashion": 7105,
      "##eless": 7106,
      "1971": 7107,
      "cricket": 7108,
      "nob": 7109,
      "recru": 7110,
      "closely": 7111,
      "mouth": 7112,
      "firm": 7113,
      "consists": 7114,
      "currently": 7115,
      "Gro": 7116,
      "Ur": 7117,
      "Steve": 7118,
      "Lewis": 7119,
      "fix": 7120,
      "store": 7121,
      "Key": 7122,
      "##gu": 7123,
      "1966": 7124,
      "Brian": 7125,
      "session": 7126,
      "##ompl": 7127,
      "Miller": 7128,
      "Anderson": 7129,
      "1972": 7130,
      "tail": 7131,
      "##water": 7132,
      "Conference": 7133,
      "Norw": 7134,
      "Balt": 7135,
      "##och": 7136,
      "1979": 7137,
      "industrial": 7138,
      "##fri": 7139,
      "Byz": 7140,
      "Turn": 7141,
      "simple": 7142,
      "72": 7143,
      "piano": 7144,
      "egg": 7145,
      "##wall": 7146,
      "Once": 7147,
      "facilities": 7148,
      "elimin": 7149,
      "Brook": 7150,
      "Gil": 7151,
      "supporting": 7152,
      "survey": 7153,
      "##yles": 7154,
      "Press": 7155,
      "drawn": 7156,
      "##fort": 7157,
      "Olympic": 7158,
      "lic": 7159,
      "##olt": 7160,
      "cold": 7161,
      "Radio": 7162,
      "rated": 7163,
      "belong": 7164,
      "trains": 7165,
      "protection": 7166,
      "graph": 7167,
      "boats": 7168,
      "##ilton": 7169,
      "Grant": 7170,
      "rise": 7171,
      "tim": 7172,
      "Bad": 7173,
      "Die": 7174,
      "defined": 7175,
      "unsu": 7176,
      "Byzant": 7177,
      "selection": 7178,
      "Daniel": 7179,
      "1965": 7180,
      "regions": 7181,
      "Prov": 7182,
      "submar": 7183,
      "protected": 7184,
      "Railway": 7185,
      "##oster": 7186,
      "calls": 7187,
      "##roll": 7188,
      "NHL": 7189,
      "Mah": 7190,
      "rot": 7191,
      "Emperor": 7192,
      "structures": 7193,
      "motion": 7194,
      "comic": 7195,
      "Bor": 7196,
      "drop": 7197,
      "throw": 7198,
      "##mouth": 7199,
      "##hens": 7200,
      "##rons": 7201,
      "trail": 7202,
      "##ption": 7203,
      "aid": 7204,
      "cry": 7205,
      "focused": 7206,
      "opportunity": 7207,
      "engaged": 7208,
      "receiving": 7209,
      "labor": 7210,
      "shark": 7211,
      "shooting": 7212,
      "analysis": 7213,
      "1975": 7214,
      "correspond": 7215,
      "citizens": 7216,
      "##ega": 7217,
      "##han": 7218,
      "lap": 7219,
      "##iration": 7220,
      "pros": 7221,
      "notable": 7222,
      "strengthen": 7223,
      "3rd": 7224,
      "##iger": 7225,
      "Gulf": 7226,
      "##enue": 7227,
      "##usc": 7228,
      "adap": 7229,
      "motor": 7230,
      "Jr": 7231,
      "fer": 7232,
      "eyes": 7233,
      "experienced": 7234,
      "flow": 7235,
      "Germans": 7236,
      "##ctions": 7237,
      "conference": 7238,
      "providing": 7239,
      "holding": 7240,
      "Mot": 7241,
      "vert": 7242,
      "Hollywood": 7243,
      "##ao": 7244,
      "Walter": 7245,
      "59": 7246,
      "Only": 7247,
      "resident": 7248,
      "18th": 7249,
      "1974": 7250,
      "mountain": 7251,
      "Davis": 7252,
      "dry": 7253,
      "##gest": 7254,
      "hired": 7255,
      "southeast": 7256,
      "charts": 7257,
      "##ware": 7258,
      "Sev": 7259,
      "viewed": 7260,
      "Ball": 7261,
      "Summer": 7262,
      "99": 7263,
      "##unior": 7264,
      "Kir": 7265,
      "##ifically": 7266,
      "rapidly": 7267,
      "recognized": 7268,
      "sport": 7269,
      "branch": 7270,
      "alle": 7271,
      "volume": 7272,
      "merch": 7273,
      "Var": 7274,
      "1973": 7275,
      "##like": 7276,
      "transform": 7277,
      "mut": 7278,
      "Barb": 7279,
      "Democratic": 7280,
      "Review": 7281,
      "mol": 7282,
      "scholars": 7283,
      "hero": 7284,
      "sites": 7285,
      "Serb": 7286,
      "casualties": 7287,
      "gain": 7288,
      "Inc": 7289,
      "shared": 7290,
      "teach": 7291,
      "Water": 7292,
      "Special": 7293,
      "Between": 7294,
      "Jean": 7295,
      "##eet": 7296,
      "concer": 7297,
      "publication": 7298,
      "##zer": 7299,
      "vac": 7300,
      "temperature": 7301,
      "digital": 7302,
      "1976": 7303,
      "economy": 7304,
      "moder": 7305,
      "developing": 7306,
      "##burgh": 7307,
      "##FL": 7308,
      "Rome": 7309,
      "reaction": 7310,
      "Gib": 7311,
      "edge": 7312,
      "Fall": 7313,
      "##pe": 7314,
      "##atures": 7315,
      "##standing": 7316,
      "steel": 7317,
      "intersection": 7318,
      "Princ": 7319,
      "cool": 7320,
      "rare": 7321,
      "cart": 7322,
      "63": 7323,
      "##yph": 7324,
      "symbol": 7325,
      "approved": 7326,
      "##ker": 7327,
      "secondary": 7328,
      "Tam": 7329,
      "la": 7330,
      "chance": 7331,
      "##oncé": 7332,
      "Bank": 7333,
      "Lady": 7334,
      "von": 7335,
      "losses": 7336,
      "Down": 7337,
      "prepared": 7338,
      "##omew": 7339,
      "contest": 7340,
      "belief": 7341,
      "substant": 7342,
      "letters": 7343,
      "forest": 7344,
      "Daily": 7345,
      "witness": 7346,
      "Musl": 7347,
      "significantly": 7348,
      "Gord": 7349,
      "rac": 7350,
      "##hol": 7351,
      "Women": 7352,
      "Lab": 7353,
      "enl": 7354,
      "bands": 7355,
      "##iful": 7356,
      "77": 7357,
      "73": 7358,
      "harm": 7359,
      "##yer": 7360,
      "sort": 7361,
      "save": 7362,
      "exact": 7363,
      "UN": 7364,
      "myth": 7365,
      "knew": 7366,
      "250": 7367,
      "literature": 7368,
      "goes": 7369,
      "Beyoncé": 7370,
      "Po": 7371,
      "unsuccess": 7372,
      "Nap": 7373,
      "Ka": 7374,
      "portray": 7375,
      "##rations": 7376,
      "actress": 7377,
      "southwest": 7378,
      "Bul": 7379,
      "Syd": 7380,
      "technology": 7381,
      "heads": 7382,
      "roughly": 7383,
      "card": 7384,
      "descend": 7385,
      "##zen": 7386,
      "##igation": 7387,
      "##ographic": 7388,
      "##theless": 7389,
      "painting": 7390,
      "adult": 7391,
      "anything": 7392,
      "Ob": 7393,
      "##awa": 7394,
      "mic": 7395,
      "Command": 7396,
      "projects": 7397,
      "urban": 7398,
      "semi": 7399,
      "Colonel": 7400,
      "lb": 7401,
      "brothers": 7402,
      "##achus": 7403,
      "pitch": 7404,
      "gameplay": 7405,
      "resistance": 7406,
      "##rot": 7407,
      "Naz": 7408,
      "shape": 7409,
      "##omot": 7410,
      "hyp": 7411,
      "##orters": 7412,
      "storyline": 7413,
      "##osa": 7414,
      "##unte": 7415,
      "Supreme": 7416,
      "cars": 7417,
      "Indust": 7418,
      "Point": 7419,
      "reasons": 7420,
      "equal": 7421,
      "rules": 7422,
      "##ographer": 7423,
      "employed": 7424,
      "Kentucky": 7425,
      "daily": 7426,
      "injured": 7427,
      "tank": 7428,
      "##rif": 7429,
      "##istan": 7430,
      "franchise": 7431,
      "1946": 7432,
      "watched": 7433,
      "Nick": 7434,
      "shall": 7435,
      "Station": 7436,
      "1981": 7437,
      "##asty": 7438,
      "##iminal": 7439,
      "shaped": 7440,
      "##onder": 7441,
      "agent": 7442,
      "cab": 7443,
      "popularity": 7444,
      "composition": 7445,
      "##ologist": 7446,
      "##break": 7447,
      "##ropri": 7448,
      "sand": 7449,
      "perhaps": 7450,
      "adding": 7451,
      "enjoyed": 7452,
      "IV": 7453,
      "renamed": 7454,
      "##eel": 7455,
      "##icts": 7456,
      "isol": 7457,
      "1950s": 7458,
      "getting": 7459,
      "opinion": 7460,
      "Fair": 7461,
      "Philipp": 7462,
      "declined": 7463,
      "core": 7464,
      "Independ": 7465,
      "##ules": 7466,
      "Norway": 7467,
      "67": 7468,
      "unp": 7469,
      "reputation": 7470,
      "dram": 7471,
      "Abb": 7472,
      "connected": 7473,
      "estate": 7474,
      "Mos": 7475,
      "retire": 7476,
      "Gen": 7477,
      "##ym": 7478,
      "museum": 7479,
      "1917": 7480,
      "drew": 7481,
      "undert": 7482,
      "regarding": 7483,
      "Olympics": 7484,
      "lov": 7485,
      "poem": 7486,
      "stages": 7487,
      "converted": 7488,
      "##ients": 7489,
      "##omic": 7490,
      "##avel": 7491,
      "views": 7492,
      "Bern": 7493,
      "##heim": 7494,
      "Massachus": 7495,
      "nor": 7496,
      "Theat": 7497,
      "tend": 7498,
      "##ador": 7499,
      "agricult": 7500,
      "Sand": 7501,
      "allows": 7502,
      "##vin": 7503,
      "##onym": 7504,
      "Golden": 7505,
      "alternative": 7506,
      "distingu": 7507,
      "Ross": 7508,
      "calc": 7509,
      "Massachusetts": 7510,
      "##sey": 7511,
      "##inking": 7512,
      "Main": 7513,
      "##istol": 7514,
      "##ulpt": 7515,
      "headed": 7516,
      "##ua": 7517,
      "##osl": 7518,
      "journey": 7519,
      "nick": 7520,
      "##mann": 7521,
      "depth": 7522,
      "missing": 7523,
      "Prem": 7524,
      "cited": 7525,
      "increasingly": 7526,
      "##worth": 7527,
      "Mas": 7528,
      "Ron": 7529,
      "##bound": 7530,
      "sun": 7531,
      "stadium": 7532,
      "approached": 7533,
      "68": 7534,
      "96": 7535,
      "Ten": 7536,
      "##rets": 7537,
      "turning": 7538,
      "Dream": 7539,
      "Airport": 7540,
      "responded": 7541,
      "table": 7542,
      "##evin": 7543,
      "planning": 7544,
      "easily": 7545,
      "160": 7546,
      "knowledge": 7547,
      "exerc": 7548,
      "82": 7549,
      "##oir": 7550,
      "wealth": 7551,
      "Sus": 7552,
      "##rom": 7553,
      "overl": 7554,
      "1948": 7555,
      "##rec": 7556,
      "cells": 7557,
      "fashion": 7558,
      "ver": 7559,
      "escort": 7560,
      "##rett": 7561,
      "succeeded": 7562,
      "parallel": 7563,
      "##ii": 7564,
      "1960": 7565,
      "collected": 7566,
      "About": 7567,
      "tall": 7568,
      "##psons": 7569,
      "instruct": 7570,
      "safety": 7571,
      "Elect": 7572,
      "ign": 7573,
      "existence": 7574,
      "Gra": 7575,
      "constitution": 7576,
      "##ella": 7577,
      "rebu": 7578,
      "Walk": 7579,
      "##box": 7580,
      "introduction": 7581,
      "Simpsons": 7582,
      "##erse": 7583,
      "##ignment": 7584,
      "##ilding": 7585,
      "models": 7586,
      "occas": 7587,
      "auth": 7588,
      "##itors": 7589,
      "learned": 7590,
      "sustained": 7591,
      "trip": 7592,
      "700": 7593,
      "##unicip": 7594,
      "operating": 7595,
      "promotion": 7596,
      "Init": 7597,
      "colle": 7598,
      "1978": 7599,
      "##eased": 7600,
      "carrying": 7601,
      "baseball": 7602,
      "##apped": 7603,
      "appoint": 7604,
      "exchange": 7605,
      "##ete": 7606,
      "Songs": 7607,
      "87": 7608,
      "Te": 7609,
      "showing": 7610,
      "##put": 7611,
      "rhy": 7612,
      "limit": 7613,
      "youth": 7614,
      "buried": 7615,
      "Vietnam": 7616,
      "Imperial": 7617,
      "Run": 7618,
      "humans": 7619,
      "defence": 7620,
      "Hart": 7621,
      "credited": 7622,
      "hydro": 7623,
      "##mitted": 7624,
      "Sa": 7625,
      "##uration": 7626,
      "flu": 7627,
      "##come": 7628,
      "Whit": 7629,
      "arranged": 7630,
      "improve": 7631,
      "Ottoman": 7632,
      "pul": 7633,
      "seems": 7634,
      "##kes": 7635,
      "weakened": 7636,
      "##wise": 7637,
      "##iants": 7638,
      "designs": 7639,
      "1915": 7640,
      "Cape": 7641,
      "##inary": 7642,
      "Shortly": 7643,
      "impl": 7644,
      "producing": 7645,
      "proceed": 7646,
      "joint": 7647,
      "Poland": 7648,
      "##iat": 7649,
      "freeway": 7650,
      "paint": 7651,
      "1977": 7652,
      "earliest": 7653,
      "##entions": 7654,
      "Sydney": 7655,
      "69": 7656,
      "lasted": 7657,
      "Ken": 7658,
      "landfall": 7659,
      "settlement": 7660,
      "Maryland": 7661,
      "note": 7662,
      "description": 7663,
      "retained": 7664,
      "acres": 7665,
      "Who": 7666,
      "##state": 7667,
      "78": 7668,
      "ton": 7669,
      "##aising": 7670,
      "1950": 7671,
      "flat": 7672,
      "Moore": 7673,
      "##iling": 7674,
      "prote": 7675,
      "Stew": 7676,
      "MTV": 7677,
      "genre": 7678,
      "Naval": 7679,
      "Pict": 7680,
      "bul": 7681,
      "bed": 7682,
      "##ivalent": 7683,
      "programs": 7684,
      "assistant": 7685,
      "replace": 7686,
      "playoff": 7687,
      "91": 7688,
      "Roy": 7689,
      "reserve": 7690,
      "install": 7691,
      "consc": 7692,
      "statement": 7693,
      "applied": 7694,
      "##ources": 7695,
      "impr": 7696,
      "##ader": 7697,
      "##issance": 7698,
      "McG": 7699,
      "violence": 7700,
      "1963": 7701,
      "scientific": 7702,
      "domestic": 7703,
      "entrance": 7704,
      "coastal": 7705,
      "catch": 7706,
      "##iform": 7707,
      "trust": 7708,
      "virt": 7709,
      "Han": 7710,
      "hits": 7711,
      "##insula": 7712,
      "neut": 7713,
      "consequ": 7714,
      "tick": 7715,
      "##án": 7716,
      "##ato": 7717,
      "##osis": 7718,
      "maintain": 7719,
      "##othes": 7720,
      "##iege": 7721,
      "Arts": 7722,
      "Jes": 7723,
      "exclus": 7724,
      "items": 7725,
      "Bowl": 7726,
      "battery": 7727,
      "candidate": 7728,
      "Cas": 7729,
      "indicated": 7730,
      "Jay": 7731,
      "towns": 7732,
      "Spring": 7733,
      "sculpt": 7734,
      "gradually": 7735,
      "distribution": 7736,
      "1916": 7737,
      "Laur": 7738,
      "##math": 7739,
      "politics": 7740,
      "synt": 7741,
      "delivered": 7742,
      "##taining": 7743,
      "stopped": 7744,
      "filled": 7745,
      "Greg": 7746,
      "AD": 7747,
      "94": 7748,
      "independence": 7749,
      "sections": 7750,
      "details": 7751,
      "Mulder": 7752,
      "Confeder": 7753,
      "tact": 7754,
      "thin": 7755,
      "combination": 7756,
      "Inv": 7757,
      "supplies": 7758,
      "##eral": 7759,
      "ways": 7760,
      "cinem": 7761,
      "Ari": 7762,
      "Ha": 7763,
      "Pass": 7764,
      "parties": 7765,
      "engines": 7766,
      "eld": 7767,
      "prisoners": 7768,
      "camera": 7769,
      "Gordon": 7770,
      "stream": 7771,
      "glass": 7772,
      "##leton": 7773,
      "IG": 7774,
      "Rem": 7775,
      "##onia": 7776,
      "Stadium": 7777,
      "98": 7778,
      "1919": 7779,
      "van": 7780,
      "register": 7781,
      "Rhodes": 7782,
      "Plan": 7783,
      "campus": 7784,
      "##time": 7785,
      "##ushing": 7786,
      "1962": 7787,
      "acts": 7788,
      "##gency": 7789,
      "##emies": 7790,
      "extremely": 7791,
      "entitled": 7792,
      "##eler": 7793,
      "secure": 7794,
      "##izations": 7795,
      "finding": 7796,
      "81": 7797,
      "##reets": 7798,
      "Bra": 7799,
      "Id": 7800,
      "decade": 7801,
      "online": 7802,
      "Int": 7803,
      "##itage": 7804,
      "##rell": 7805,
      "Well": 7806,
      "##urring": 7807,
      "winner": 7808,
      "##poration": 7809,
      "##iversary": 7810,
      "71": 7811,
      "##ali": 7812,
      "Theatre": 7813,
      "##greg": 7814,
      "##apes": 7815,
      "repair": 7816,
      "##idden": 7817,
      "evening": 7818,
      "##inois": 7819,
      "investigation": 7820,
      "##ora": 7821,
      "1938": 7822,
      "threatened": 7823,
      "bought": 7824,
      "Staff": 7825,
      "message": 7826,
      "adapted": 7827,
      "##ira": 7828,
      "survived": 7829,
      "somew": 7830,
      "pret": 7831,
      "Univers": 7832,
      "knots": 7833,
      "##eton": 7834,
      "studied": 7835,
      "proposal": 7836,
      "arc": 7837,
      "writes": 7838,
      "bask": 7839,
      "deaths": 7840,
      "Justice": 7841,
      "consum": 7842,
      "Here": 7843,
      "ruled": 7844,
      "routes": 7845,
      "regiment": 7846,
      "download": 7847,
      "religion": 7848,
      "##ashed": 7849,
      "##icks": 7850,
      "Instead": 7851,
      "Prof": 7852,
      "relief": 7853,
      "Constant": 7854,
      "males": 7855,
      "reduce": 7856,
      "89": 7857,
      "voted": 7858,
      "##ieval": 7859,
      "specifically": 7860,
      "Band": 7861,
      "spons": 7862,
      "revolution": 7863,
      "##okes": 7864,
      "##ropol": 7865,
      "duty": 7866,
      "crown": 7867,
      "phase": 7868,
      "AC": 7869,
      "kingdom": 7870,
      "##yphoon": 7871,
      "recalled": 7872,
      "Age": 7873,
      "portrayed": 7874,
      "##iques": 7875,
      "fict": 7876,
      "##ansas": 7877,
      "Kim": 7878,
      "soul": 7879,
      "implement": 7880,
      "controversy": 7881,
      "##ighters": 7882,
      "Moon": 7883,
      "et": 7884,
      "causes": 7885,
      "Memorial": 7886,
      "##aka": 7887,
      "everything": 7888,
      "breeding": 7889,
      "Tony": 7890,
      "references": 7891,
      "stret": 7892,
      "1956": 7893,
      "##ealth": 7894,
      "##ervative": 7895,
      "sell": 7896,
      "intention": 7897,
      "ago": 7898,
      "capable": 7899,
      "wides": 7900,
      "Anth": 7901,
      "convin": 7902,
      "importance": 7903,
      "bottom": 7904,
      "Bir": 7905,
      "util": 7906,
      "175": 7907,
      "meters": 7908,
      "##era": 7909,
      "Singles": 7910,
      "offers": 7911,
      "##aked": 7912,
      "entry": 7913,
      "##hr": 7914,
      "Fire": 7915,
      "ble": 7916,
      "##athan": 7917,
      "##opher": 7918,
      "tanks": 7919,
      "Nel": 7920,
      "1930s": 7921,
      "##senal": 7922,
      "Vill": 7923,
      "Iv": 7924,
      "owner": 7925,
      "arrested": 7926,
      "opera": 7927,
      "Director": 7928,
      "Cop": 7929,
      "admitted": 7930,
      "88": 7931,
      "##entially": 7932,
      "Adams": 7933,
      "internal": 7934,
      "79": 7935,
      "##uzz": 7936,
      "nomination": 7937,
      "##acter": 7938,
      "corner": 7939,
      "Circ": 7940,
      "##BN": 7941,
      "##bourne": 7942,
      "ban": 7943,
      "crossed": 7944,
      "products": 7945,
      "Pear": 7946,
      "1936": 7947,
      "climb": 7948,
      "Alan": 7949,
      "Seas": 7950,
      "Critical": 7951,
      "Gill": 7952,
      "equipped": 7953,
      "##after": 7954,
      "installed": 7955,
      "Dougl": 7956,
      "Kong": 7957,
      "##ba": 7958,
      "##ician": 7959,
      "medal": 7960,
      "concerns": 7961,
      "##ipping": 7962,
      "Hamilton": 7963,
      "IGN": 7964,
      "Jord": 7965,
      "preced": 7966,
      "invited": 7967,
      "Power": 7968,
      "Engine": 7969,
      "convoy": 7970,
      "interested": 7971,
      "lit": 7972,
      "ones": 7973,
      "starts": 7974,
      "recommended": 7975,
      "emp": 7976,
      "Beach": 7977,
      "principal": 7978,
      "##encies": 7979,
      "crime": 7980,
      "conqu": 7981,
      "##ranean": 7982,
      "Maria": 7983,
      "Simon": 7984,
      "remainder": 7985,
      "##lan": 7986,
      "shel": 7987,
      "McK": 7988,
      "actual": 7989,
      "Your": 7990,
      "##pread": 7991,
      "UTC": 7992,
      "mort": 7993,
      "retreat": 7994,
      "Kennedy": 7995,
      "Jane": 7996,
      "il": 7997,
      "din": 7998,
      "shut": 7999,
      "acid": 8000,
      "tell": 8001,
      "##cement": 8002,
      "##ructure": 8003,
      "charged": 8004,
      "1920": 8005,
      "FA": 8006,
      "Plot": 8007,
      "VII": 8008,
      "bor": 8009,
      "commit": 8010,
      "objects": 8011,
      "Bon": 8012,
      "130": 8013,
      "##wick": 8014,
      "price": 8015,
      "funds": 8016,
      "apart": 8017,
      "##aug": 8018,
      "##BS": 8019,
      "composer": 8020,
      "##ko": 8021,
      "1961": 8022,
      "solid": 8023,
      "door": 8024,
      "##eston": 8025,
      "consisting": 8026,
      "##ront": 8027,
      "females": 8028,
      "promote": 8029,
      "##hat": 8030,
      "stock": 8031,
      "alt": 8032,
      "Adam": 8033,
      "fly": 8034,
      "page": 8035,
      "##eline": 8036,
      "considerable": 8037,
      "##hedral": 8038,
      "dates": 8039,
      "##erted": 8040,
      "##ilation": 8041,
      "Video": 8042,
      "Alf": 8043,
      "milit": 8044,
      "NBA": 8045,
      "92": 8046,
      "Indones": 8047,
      "Found": 8048,
      "##ela": 8049,
      "##chers": 8050,
      "typical": 8051,
      "1953": 8052,
      "Cart": 8053,
      "Death": 8054,
      "##owed": 8055,
      "skin": 8056,
      "Nether": 8057,
      "grounds": 8058,
      "Today": 8059,
      "Fle": 8060,
      "extension": 8061,
      "duties": 8062,
      "gall": 8063,
      "hear": 8064,
      "someone": 8065,
      "evolution": 8066,
      "##ads": 8067,
      "Military": 8068,
      "pow": 8069,
      "rural": 8070,
      "Eric": 8071,
      "Indiana": 8072,
      "penal": 8073,
      "Sunday": 8074,
      "eighth": 8075,
      "Transport": 8076,
      "##vements": 8077,
      "Howard": 8078,
      "hotel": 8079,
      "decades": 8080,
      "Bos": 8081,
      "images": 8082,
      "Od": 8083,
      "driving": 8084,
      "reading": 8085,
      "##ati": 8086,
      "zone": 8087,
      "Scully": 8088,
      "identity": 8089,
      "Norweg": 8090,
      "Ut": 8091,
      "##rete": 8092,
      "Ast": 8093,
      "##po": 8094,
      "occurs": 8095,
      "snow": 8096,
      "1930": 8097,
      "Ok": 8098,
      "##osite": 8099,
      "manner": 8100,
      "challenge": 8101,
      "lane": 8102,
      "remix": 8103,
      "aspects": 8104,
      "permanent": 8105,
      "17th": 8106,
      "Hitler": 8107,
      "brigade": 8108,
      "correct": 8109,
      "1947": 8110,
      "dated": 8111,
      "Imp": 8112,
      "spin": 8113,
      "1958": 8114,
      "volcan": 8115,
      "Five": 8116,
      "frag": 8117,
      "Lev": 8118,
      "noting": 8119,
      "Marc": 8120,
      "84": 8121,
      "subs": 8122,
      "Leon": 8123,
      "Portug": 8124,
      "restaur": 8125,
      "speak": 8126,
      "Hou": 8127,
      "supporters": 8128,
      "Ryan": 8129,
      "slowly": 8130,
      "Yank": 8131,
      "colour": 8132,
      "posted": 8133,
      "##hetic": 8134,
      "clean": 8135,
      "WWE": 8136,
      "##icate": 8137,
      "describing": 8138,
      "##ensus": 8139,
      "1957": 8140,
      "Research": 8141,
      "Bry": 8142,
      "Cult": 8143,
      "Sav": 8144,
      "involving": 8145,
      "##veland": 8146,
      "entering": 8147,
      "##osaurus": 8148,
      "##ivals": 8149,
      "##ibb": 8150,
      "Science": 8151,
      "vessels": 8152,
      "93": 8153,
      "enemies": 8154,
      "Gun": 8155,
      "1937": 8156,
      "equivalent": 8157,
      "ham": 8158,
      "dress": 8159,
      "##met": 8160,
      "classes": 8161,
      "Assembly": 8162,
      "##iley": 8163,
      "Bol": 8164,
      "##icit": 8165,
      "debate": 8166,
      "settled": 8167,
      "obtained": 8168,
      "department": 8169,
      "Treat": 8170,
      "##isis": 8171,
      "parliament": 8172,
      "accur": 8173,
      "aer": 8174,
      "Argent": 8175,
      "Constitution": 8176,
      "##aware": 8177,
      "armor": 8178,
      "Magazine": 8179,
      "basic": 8180,
      "purchase": 8181,
      "Rolling": 8182,
      "songwrit": 8183,
      "##regon": 8184,
      "Mountain": 8185,
      "##ras": 8186,
      "##BI": 8187,
      "##agues": 8188,
      "oldest": 8189,
      "patrol": 8190,
      "Pit": 8191,
      "##know": 8192,
      "Cleveland": 8193,
      "faith": 8194,
      "vir": 8195,
      "departure": 8196,
      "concerned": 8197,
      "widespread": 8198,
      "income": 8199,
      "decline": 8200,
      "##erto": 8201,
      "Hug": 8202,
      "nest": 8203,
      "attached": 8204,
      "formal": 8205,
      "connection": 8206,
      "Illinois": 8207,
      "##ucks": 8208,
      "recognition": 8209,
      "disturb": 8210,
      "folk": 8211,
      "certified": 8212,
      "Throughout": 8213,
      "accused": 8214,
      "Douglas": 8215,
      "Lenn": 8216,
      "Rose": 8217,
      "##heastern": 8218,
      "##iller": 8219,
      "memorial": 8220,
      "outer": 8221,
      "sequel": 8222,
      "Weekly": 8223,
      "derived": 8224,
      "Nic": 8225,
      "##omatic": 8226,
      "mode": 8227,
      "deleg": 8228,
      "##orney": 8229,
      "Ele": 8230,
      "Gram": 8231,
      "Andy": 8232,
      "wearing": 8233,
      "ll": 8234,
      "spr": 8235,
      "decor": 8236,
      "assumed": 8237,
      "##ubb": 8238,
      "1959": 8239,
      "4th": 8240,
      "Oregon": 8241,
      "##ingly": 8242,
      "acclaim": 8243,
      "Stanley": 8244,
      "Jordan": 8245,
      "acknow": 8246,
      "committed": 8247,
      "Arsenal": 8248,
      "##western": 8249,
      "hosted": 8250,
      "##ertain": 8251,
      "Pier": 8252,
      "##ommod": 8253,
      "Third": 8254,
      "returns": 8255,
      "Now": 8256,
      "Stand": 8257,
      "valley": 8258,
      "sessions": 8259,
      "torn": 8260,
      "populations": 8261,
      "foss": 8262,
      "Forest": 8263,
      "denied": 8264,
      "##AT": 8265,
      "##esc": 8266,
      "Freder": 8267,
      "Recording": 8268,
      "##agonist": 8269,
      "Roger": 8270,
      "fine": 8271,
      "##aki": 8272,
      "segment": 8273,
      "##har": 8274,
      "##ruption": 8275,
      "Disc": 8276,
      "##iterranean": 8277,
      "Feder": 8278,
      "champion": 8279,
      "temple": 8280,
      "Beatles": 8281,
      "charges": 8282,
      "Media": 8283,
      "literary": 8284,
      "Family": 8285,
      "Kevin": 8286,
      "terminus": 8287,
      "110": 8288,
      "86": 8289,
      "Low": 8290,
      "thousands": 8291,
      "Norwegian": 8292,
      "##hi": 8293,
      "Bruce": 8294,
      "transition": 8295,
      "1954": 8296,
      "1955": 8297,
      "demand": 8298,
      "Mediterranean": 8299,
      "flo": 8300,
      "supposed": 8301,
      "regional": 8302,
      "##alog": 8303,
      "Project": 8304,
      "##iously": 8305,
      "Bristol": 8306,
      "wickets": 8307,
      "Bal": 8308,
      "Educ": 8309,
      "##err": 8310,
      "inher": 8311,
      "warm": 8312,
      "Tenn": 8313,
      "##rates": 8314,
      "shots": 8315,
      "ISBN": 8316,
      "##achel": 8317,
      "##ione": 8318,
      "strongly": 8319,
      "##ooth": 8320,
      "Ira": 8321,
      "##bro": 8322,
      "##emed": 8323,
      "circulation": 8324,
      "hang": 8325,
      "##otic": 8326,
      "Philip": 8327,
      "intelligence": 8328,
      "sailed": 8329,
      "possibility": 8330,
      "passengers": 8331,
      "hope": 8332,
      "generation": 8333,
      "animated": 8334,
      "##heme": 8335,
      "circum": 8336,
      "thirty": 8337,
      "freedom": 8338,
      "fictional": 8339,
      "downtown": 8340,
      "##nic": 8341,
      "Federal": 8342,
      "##friend": 8343,
      "answ": 8344,
      "Mexican": 8345,
      "administr": 8346,
      "##ophy": 8347,
      "##bar": 8348,
      "behavior": 8349,
      "Channel": 8350,
      "minister": 8351,
      "hill": 8352,
      "rich": 8353,
      "replacement": 8354,
      "Rain": 8355,
      "begun": 8356,
      "Finn": 8357,
      "commanded": 8358,
      "assistance": 8359,
      "moves": 8360,
      "destruction": 8361,
      "cloud": 8362,
      "poly": 8363,
      "missed": 8364,
      "missions": 8365,
      "criminal": 8366,
      "costs": 8367,
      "exception": 8368,
      "hip": 8369,
      "brain": 8370,
      "##atinum": 8371,
      "fruit": 8372,
      "highlight": 8373,
      "bringing": 8374,
      "Bush": 8375,
      "ec": 8376,
      "Conc": 8377,
      "tied": 8378,
      "##pres": 8379,
      "##eget": 8380,
      "Kat": 8381,
      "crash": 8382,
      "Bet": 8383,
      "Within": 8384,
      "speaking": 8385,
      "Korea": 8386,
      "##ipe": 8387,
      "rar": 8388,
      "feeling": 8389,
      "##ategy": 8390,
      "Additionally": 8391,
      "Lisa": 8392,
      "##key": 8393,
      "##onto": 8394,
      "finishing": 8395,
      "unusual": 8396,
      "alleged": 8397,
      "Fame": 8398,
      "Master": 8399,
      "properties": 8400,
      "incorporated": 8401,
      "##rophy": 8402,
      "demol": 8403,
      "##ek": 8404,
      "stayed": 8405,
      "##urray": 8406,
      "opposite": 8407,
      "attributed": 8408,
      "garr": 8409,
      "volunte": 8410,
      "recovered": 8411,
      "Let": 8412,
      "Space": 8413,
      "##opes": 8414,
      "breaking": 8415,
      "emerged": 8416,
      "serves": 8417,
      "swim": 8418,
      "sons": 8419,
      "##ige": 8420,
      "##ocal": 8421,
      "1952": 8422,
      "atmosphere": 8423,
      "Dig": 8424,
      "##elsh": 8425,
      "##lee": 8426,
      "strateg": 8427,
      "Web": 8428,
      "shop": 8429,
      "Row": 8430,
      "theatre": 8431,
      "occasionally": 8432,
      "driven": 8433,
      "Color": 8434,
      "chorus": 8435,
      "Morris": 8436,
      "Norman": 8437,
      "Phill": 8438,
      "##othing": 8439,
      "Scient": 8440,
      "Robinson": 8441,
      "classic": 8442,
      "ready": 8443,
      "effectively": 8444,
      "regularly": 8445,
      "Prior": 8446,
      "cavalry": 8447,
      "dipl": 8448,
      "dang": 8449,
      "##borne": 8450,
      "##iva": 8451,
      "Ho": 8452,
      "##organ": 8453,
      "establishment": 8454,
      "prey": 8455,
      "courts": 8456,
      "methods": 8457,
      "##riers": 8458,
      "sounds": 8459,
      "vary": 8460,
      "##gers": 8461,
      "1933": 8462,
      "Similar": 8463,
      "##mes": 8464,
      "Television": 8465,
      "Around": 8466,
      "176": 8467,
      "Hawai": 8468,
      "FI": 8469,
      "##ez": 8470,
      "Unlike": 8471,
      "completion": 8472,
      "materials": 8473,
      "Construction": 8474,
      "##wan": 8475,
      "Morgan": 8476,
      "superv": 8477,
      "divers": 8478,
      "responsibility": 8479,
      "##enses": 8480,
      "dissip": 8481,
      "warning": 8482,
      "surviving": 8483,
      "attracted": 8484,
      "fields": 8485,
      "dream": 8486,
      "Anton": 8487,
      "accommod": 8488,
      "persu": 8489,
      "province": 8490,
      "Ow": 8491,
      "heat": 8492,
      "Nelson": 8493,
      "##rupted": 8494,
      "Rick": 8495,
      "##uting": 8496,
      "classified": 8497,
      "global": 8498,
      "differences": 8499,
      "Premier": 8500,
      "##ersed": 8501,
      "divisions": 8502,
      "Francis": 8503,
      "##oslav": 8504,
      "technical": 8505,
      "Sweden": 8506,
      "83": 8507,
      "##sew": 8508,
      "interpret": 8509,
      "Bah": 8510,
      "Iron": 8511,
      "1935": 8512,
      "Lanc": 8513,
      "USA": 8514,
      "##nold": 8515,
      "##eph": 8516,
      "cruiser": 8517,
      "1910": 8518,
      "passage": 8519,
      "quant": 8520,
      "##isms": 8521,
      "##abled": 8522,
      "aboard": 8523,
      "Ford": 8524,
      "clubs": 8525,
      "ru": 8526,
      "stood": 8527,
      "ratings": 8528,
      "intercept": 8529,
      "neither": 8530,
      "association": 8531,
      "eleven": 8532,
      "Patrick": 8533,
      "Budd": 8534,
      "Ca": 8535,
      "musicians": 8536,
      "Ever": 8537,
      "rooms": 8538,
      "Nich": 8539,
      "##ja": 8540,
      "Est": 8541,
      "##aza": 8542,
      "none": 8543,
      "1951": 8544,
      "##abb": 8545,
      "##oyd": 8546,
      "1949": 8547,
      "desire": 8548,
      "Toronto": 8549,
      "mo": 8550,
      "##oz": 8551,
      "collect": 8552,
      "separated": 8553,
      "climate": 8554,
      "##aire": 8555,
      "Welsh": 8556,
      "shif": 8557,
      "outbreak": 8558,
      "classification": 8559,
      "ancest": 8560,
      "Nations": 8561,
      "##umin": 8562,
      "vehicle": 8563,
      "##weight": 8564,
      "seemed": 8565,
      "Byzantine": 8566,
      "##inton": 8567,
      "reality": 8568,
      "predecess": 8569,
      "Techn": 8570,
      "Pur": 8571,
      "votes": 8572,
      "chemical": 8573,
      "picture": 8574,
      "battleships": 8575,
      "13th": 8576,
      "memory": 8577,
      "CE": 8578,
      "##idges": 8579,
      "##teenth": 8580,
      "Allen": 8581,
      "hoped": 8582,
      "##uty": 8583,
      "Dick": 8584,
      "movements": 8585,
      "requested": 8586,
      "3D": 8587,
      "raise": 8588,
      "historians": 8589,
      "Netherlands": 8590,
      "Journal": 8591,
      "16th": 8592,
      "Matthew": 8593,
      "basketball": 8594,
      "##oli": 8595,
      "Az": 8596,
      "Every": 8597,
      "rose": 8598,
      "difficulty": 8599,
      "##pping": 8600,
      "##sewhere": 8601,
      "Sky": 8602,
      "sam": 8603,
      "##agle": 8604,
      "communities": 8605,
      "restored": 8606,
      "expect": 8607,
      "illeg": 8608,
      "Mit": 8609,
      "Dean": 8610,
      "remember": 8611,
      "programme": 8612,
      "Dog": 8613,
      "Sports": 8614,
      "nav": 8615,
      "teen": 8616,
      "Jews": 8617,
      "premiere": 8618,
      "delayed": 8619,
      "Hell": 8620,
      "relative": 8621,
      "discovery": 8622,
      "DE": 8623,
      "kid": 8624,
      "inspiration": 8625,
      "Open": 8626,
      "otherwise": 8627,
      "greatly": 8628,
      "anniversary": 8629,
      "vide": 8630,
      "injuries": 8631,
      "Tar": 8632,
      "USS": 8633,
      "gal": 8634,
      "Again": 8635,
      "accounts": 8636,
      "neighbor": 8637,
      "hol": 8638,
      "obl": 8639,
      "Design": 8640,
      "##hire": 8641,
      "funding": 8642,
      "surrounded": 8643,
      "Jacob": 8644,
      "flank": 8645,
      "satisf": 8646,
      "praise": 8647,
      "spoke": 8648,
      "penalty": 8649,
      "##reck": 8650,
      "batting": 8651,
      "needs": 8652,
      "depict": 8653,
      "fal": 8654,
      "fit": 8655,
      "Temple": 8656,
      "##uan": 8657,
      "##thm": 8658,
      "##ships": 8659,
      "Iraq": 8660,
      "##ece": 8661,
      "1900": 8662,
      "PA": 8663,
      "Whe": 8664,
      "partner": 8665,
      "massive": 8666,
      "Der": 8667,
      "##aft": 8668,
      "weapon": 8669,
      "claiming": 8670,
      "dens": 8671,
      "Conv": 8672,
      "##don": 8673,
      "##ureau": 8674,
      "##anny": 8675,
      "7th": 8676,
      "crop": 8677,
      "Cab": 8678,
      "tries": 8679,
      "Sax": 8680,
      "forming": 8681,
      "strategy": 8682,
      "##burn": 8683,
      "suburb": 8684,
      "Bishop": 8685,
      "Marine": 8686,
      "assemb": 8687,
      "wrong": 8688,
      "astron": 8689,
      "Domin": 8690,
      "legend": 8691,
      "documentary": 8692,
      "Anne": 8693,
      "consult": 8694,
      "accompl": 8695,
      "crosses": 8696,
      "##nings": 8697,
      "fled": 8698,
      "worst": 8699,
      "Raj": 8700,
      "Sn": 8701,
      "Croatian": 8702,
      "##CA": 8703,
      "##yard": 8704,
      "stands": 8705,
      "architecture": 8706,
      "Thompson": 8707,
      "Dor": 8708,
      "Ult": 8709,
      "##RA": 8710,
      "Bull": 8711,
      "Front": 8712,
      "temporary": 8713,
      "Gri": 8714,
      "##eness": 8715,
      "##ami": 8716,
      "girls": 8717,
      "##utt": 8718,
      "determine": 8719,
      "Oak": 8720,
      "##abil": 8721,
      "##gets": 8722,
      "dismissed": 8723,
      "involvement": 8724,
      "Armen": 8725,
      "Russell": 8726,
      "bombard": 8727,
      "category": 8728,
      "5th": 8729,
      "plane": 8730,
      "remn": 8731,
      "Kelly": 8732,
      "##real": 8733,
      "Glob": 8734,
      "Centre": 8735,
      "Ak": 8736,
      "inner": 8737,
      "adaptation": 8738,
      "ensure": 8739,
      "convinced": 8740,
      "Ba": 8741,
      "NFL": 8742,
      "Islam": 8743,
      "Puerto": 8744,
      "Last": 8745,
      "##rating": 8746,
      "##ca": 8747,
      "resources": 8748,
      "##inder": 8749,
      "somewhat": 8750,
      "Holy": 8751,
      "interests": 8752,
      "reserv": 8753,
      "lat": 8754,
      "shr": 8755,
      "Carter": 8756,
      "Es": 8757,
      "ash": 8758,
      "scheme": 8759,
      "medieval": 8760,
      "immediate": 8761,
      "Bou": 8762,
      "enth": 8763,
      "displ": 8764,
      "pure": 8765,
      "sale": 8766,
      "library": 8767,
      "streets": 8768,
      "presidential": 8769,
      "absor": 8770,
      "consp": 8771,
      "Trib": 8772,
      "cul": 8773,
      "falling": 8774,
      "learn": 8775,
      "Along": 8776,
      "carbon": 8777,
      "Cooper": 8778,
      "colonial": 8779,
      "##agre": 8780,
      "techniques": 8781,
      "Modern": 8782,
      "die": 8783,
      "fighter": 8784,
      "ninth": 8785,
      "throne": 8786,
      "hal": 8787,
      "turb": 8788,
      "starred": 8789,
      "##onds": 8790,
      "scrap": 8791,
      "appropri": 8792,
      "classical": 8793,
      "eggs": 8794,
      "Brother": 8795,
      "races": 8796,
      "Mars": 8797,
      "academic": 8798,
      "##body": 8799,
      "Hend": 8800,
      "Hop": 8801,
      "adults": 8802,
      "bright": 8803,
      "Network": 8804,
      "commemor": 8805,
      "##going": 8806,
      "passenger": 8807,
      "ow": 8808,
      "surviv": 8809,
      "##ais": 8810,
      "Hungarian": 8811,
      "loyal": 8812,
      "ray": 8813,
      "Winter": 8814,
      "ori": 8815,
      "photograph": 8816,
      "meets": 8817,
      "##itzer": 8818,
      "6th": 8819,
      "##roc": 8820,
      "lake": 8821,
      "reviewer": 8822,
      "premiered": 8823,
      "submarine": 8824,
      "##dden": 8825,
      "1913": 8826,
      "##icide": 8827,
      "absence": 8828,
      "Thus": 8829,
      "seeing": 8830,
      "fitted": 8831,
      "else": 8832,
      "superior": 8833,
      "renew": 8834,
      "##edding": 8835,
      "##wealth": 8836,
      "##emet": 8837,
      "Wright": 8838,
      "sed": 8839,
      "alien": 8840,
      "favorite": 8841,
      "interior": 8842,
      "engineer": 8843,
      "Fore": 8844,
      "Parker": 8845,
      "credit": 8846,
      "Free": 8847,
      "##osure": 8848,
      "##elsen": 8849,
      "NC": 8850,
      "##night": 8851,
      "partn": 8852,
      "airport": 8853,
      "Labor": 8854,
      "deemed": 8855,
      "attacking": 8856,
      "Batman": 8857,
      "appearing": 8858,
      "Harris": 8859,
      "visible": 8860,
      "Gard": 8861,
      "bull": 8862,
      "##action": 8863,
      "conclusion": 8864,
      "1926": 8865,
      "dating": 8866,
      "romantic": 8867,
      "Bang": 8868,
      "##acent": 8869,
      "characteristics": 8870,
      "synthes": 8871,
      "dub": 8872,
      "depend": 8873,
      "AI": 8874,
      "Jam": 8875,
      "leads": 8876,
      "elections": 8877,
      "operate": 8878,
      "facility": 8879,
      "encouraged": 8880,
      "1927": 8881,
      "12th": 8882,
      "afterwards": 8883,
      "retirement": 8884,
      "DNA": 8885,
      "Library": 8886,
      "landed": 8887,
      "colony": 8888,
      "temperatures": 8889,
      "convection": 8890,
      "Murray": 8891,
      "##uts": 8892,
      "everyone": 8893,
      "Pak": 8894,
      "1921": 8895,
      "suffering": 8896,
      "municip": 8897,
      "holds": 8898,
      "legislation": 8899,
      "##anth": 8900,
      "1934": 8901,
      "lies": 8902,
      "sight": 8903,
      "modified": 8904,
      "Education": 8905,
      "06": 8906,
      "rum": 8907,
      "##oral": 8908,
      "painted": 8909,
      "##bell": 8910,
      "doct": 8911,
      "controversial": 8912,
      "Nob": 8913,
      "gone": 8914,
      "wings": 8915,
      "##lyn": 8916,
      "believes": 8917,
      "##ossible": 8918,
      "distributed": 8919,
      "attempting": 8920,
      "Knight": 8921,
      "Houston": 8922,
      "##ixon": 8923,
      "##urches": 8924,
      "Police": 8925,
      "##roit": 8926,
      "Late": 8927,
      "900": 8928,
      "pin": 8929,
      "Commander": 8930,
      "standards": 8931,
      "looked": 8932,
      "rescue": 8933,
      "Berlin": 8934,
      "Palace": 8935,
      "authors": 8936,
      "##ivan": 8937,
      "secured": 8938,
      "depicted": 8939,
      "monarch": 8940,
      "dominated": 8941,
      "##eor": 8942,
      "1912": 8943,
      "Heart": 8944,
      "##ester": 8945,
      "habitat": 8946,
      "continuing": 8947,
      "anyone": 8948,
      "buy": 8949,
      "##ogen": 8950,
      "longest": 8951,
      "judge": 8952,
      "##apse": 8953,
      "##scape": 8954,
      "Santa": 8955,
      "##coming": 8956,
      "trained": 8957,
      "biggest": 8958,
      "Swedish": 8959,
      "##arsh": 8960,
      "unsuccessful": 8961,
      "Commonwealth": 8962,
      "graphics": 8963,
      "grass": 8964,
      "chairman": 8965,
      "##ito": 8966,
      "Hospital": 8967,
      "##aling": 8968,
      "##itable": 8969,
      "##oh": 8970,
      "Spe": 8971,
      "union": 8972,
      "pound": 8973,
      "que": 8974,
      "##ye": 8975,
      "Story": 8976,
      "##ugoslav": 8977,
      "Roberts": 8978,
      "sudden": 8979,
      "Simpson": 8980,
      "Tok": 8981,
      "wins": 8982,
      "##apping": 8983,
      "arrangement": 8984,
      "##ultane": 8985,
      "carrier": 8986,
      "1932": 8987,
      "Cry": 8988,
      "neck": 8989,
      "od": 8990,
      "##chang": 8991,
      "railroad": 8992,
      "Indians": 8993,
      "nickn": 8994,
      "Gh": 8995,
      "jump": 8996,
      "acknowled": 8997,
      "##igration": 8998,
      "informed": 8999,
      "measures": 9000,
      "apparent": 9001,
      "RAAF": 9002,
      "san": 9003,
      "##prise": 9004,
      "##rait": 9005,
      "representing": 9006,
      "map": 9007,
      "##emetery": 9008,
      "Seat": 9009,
      "##inals": 9010,
      "##eenth": 9011,
      "releases": 9012,
      "##aska": 9013,
      "##atically": 9014,
      "belt": 9015,
      "Corporation": 9016,
      "achieve": 9017,
      "##ture": 9018,
      "outl": 9019,
      "Warner": 9020,
      "garrison": 9021,
      "sees": 9022,
      "formerly": 9023,
      "gar": 9024,
      "Cook": 9025,
      "Yugoslav": 9026,
      "Jason": 9027,
      "##oen": 9028,
      "Get": 9029,
      "grade": 9030,
      "generated": 9031,
      "NBC": 9032,
      "closer": 9033,
      "deployed": 9034,
      "styles": 9035,
      "emergency": 9036,
      "##uster": 9037,
      "Anthony": 9038,
      "bats": 9039,
      "cancer": 9040,
      "##ternal": 9041,
      "##ón": 9042,
      "##tenance": 9043,
      "Social": 9044,
      "##rig": 9045,
      "bet": 9046,
      "questions": 9047,
      "Silver": 9048,
      "moderate": 9049,
      "gets": 9050,
      "trials": 9051,
      "Mort": 9052,
      "festival": 9053,
      "##uther": 9054,
      "siege": 9055,
      "influential": 9056,
      "historic": 9057,
      "molec": 9058,
      "cycle": 9059,
      "emotional": 9060,
      "Croatia": 9061,
      "veter": 9062,
      "Deb": 9063,
      "Detroit": 9064,
      "##olph": 9065,
      "##fare": 9066,
      "owners": 9067,
      "novels": 9068,
      "Lyn": 9069,
      "Ts": 9070,
      "successor": 9071,
      "influences": 9072,
      "##char": 9073,
      "Merc": 9074,
      "narrative": 9075,
      "Gaga": 9076,
      "RAF": 9077,
      "1929": 9078,
      "##book": 9079,
      "Supp": 9080,
      "journalist": 9081,
      "Cru": 9082,
      "Obs": 9083,
      "Track": 9084,
      "childhood": 9085,
      "assass": 9086,
      "1911": 9087,
      "experiences": 9088,
      "##otype": 9089,
      "stead": 9090,
      "excess": 9091,
      "08": 9092,
      "eat": 9093,
      "constant": 9094,
      "Author": 9095,
      "##iography": 9096,
      "Chamber": 9097,
      "defended": 9098,
      "discussed": 9099,
      "enfor": 9100,
      "apparently": 9101,
      "Gilbert": 9102,
      "Princess": 9103,
      "alco": 9104,
      "pregn": 9105,
      "##owa": 9106,
      "instruments": 9107,
      "##aints": 9108,
      "Samuel": 9109,
      "mathem": 9110,
      "victims": 9111,
      "treated": 9112,
      "##aws": 9113,
      "Spears": 9114,
      "environmental": 9115,
      "veget": 9116,
      "giant": 9117,
      "render": 9118,
      "executed": 9119,
      "detail": 9120,
      "coins": 9121,
      "Wy": 9122,
      "##ji": 9123,
      "Tal": 9124,
      "1931": 9125,
      "##agu": 9126,
      "Asian": 9127,
      "ster": 9128,
      "##enz": 9129,
      "offices": 9130,
      "1922": 9131,
      "140": 9132,
      "factors": 9133,
      "legs": 9134,
      "##yo": 9135,
      "Jesus": 9136,
      "##arked": 9137,
      "depos": 9138,
      "Nev": 9139,
      "mine": 9140,
      "##imore": 9141,
      "enters": 9142,
      "hunting": 9143,
      "wooden": 9144,
      "Melbourne": 9145,
      "Somers": 9146,
      "bear": 9147,
      "Nielsen": 9148,
      "##achment": 9149,
      "settle": 9150,
      "##using": 9151,
      "Evans": 9152,
      "Pope": 9153,
      "Sull": 9154,
      "##noon": 9155,
      "hundreds": 9156,
      "##usted": 9157,
      "resigned": 9158,
      "Vice": 9159,
      "ride": 9160,
      "Clinton": 9161,
      "Fri": 9162,
      "Xbox": 9163,
      "skills": 9164,
      "row": 9165,
      "uniform": 9166,
      "channel": 9167,
      "reveals": 9168,
      "gay": 9169,
      "ocean": 9170,
      "Express": 9171,
      "Nevertheless": 9172,
      "09": 9173,
      "##ran": 9174,
      "##eeper": 9175,
      "chapter": 9176,
      "pointed": 9177,
      "Category": 9178,
      "bab": 9179,
      "ridge": 9180,
      "enh": 9181,
      "watching": 9182,
      "##iac": 9183,
      "Guy": 9184,
      "bes": 9185,
      "##mun": 9186,
      "##aled": 9187,
      "prevented": 9188,
      "##iliar": 9189,
      "##stances": 9190,
      "clim": 9191,
      "Stewart": 9192,
      "Atlant": 9193,
      "preferred": 9194,
      "Muslim": 9195,
      "PC": 9196,
      "ha": 9197,
      "pushed": 9198,
      "Li": 9199,
      "##rence": 9200,
      "##uv": 9201,
      "format": 9202,
      "locomot": 9203,
      "footage": 9204,
      "languages": 9205,
      "difference": 9206,
      "opponents": 9207,
      "happened": 9208,
      "formally": 9209,
      "thereafter": 9210,
      "drums": 9211,
      "flew": 9212,
      "reportedly": 9213,
      "Heavy": 9214,
      "facing": 9215,
      "relationships": 9216,
      "disappear": 9217,
      "Tower": 9218,
      "squ": 9219,
      "resign": 9220,
      "deliver": 9221,
      "intense": 9222,
      "thousand": 9223,
      "pull": 9224,
      "handed": 9225,
      "Turkish": 9226,
      "device": 9227,
      "notably": 9228,
      "Origin": 9229,
      "animation": 9230,
      "Bulgar": 9231,
      "##icians": 9232,
      "firing": 9233,
      "##ogether": 9234,
      "##PA": 9235,
      "theor": 9236,
      "##rees": 9237,
      "Wing": 9238,
      "chain": 9239,
      "inhabit": 9240,
      "Lennon": 9241,
      "existed": 9242,
      "check": 9243,
      "visitors": 9244,
      "vision": 9245,
      "##aste": 9246,
      "Sarah": 9247,
      "employees": 9248,
      "bon": 9249,
      "##onies": 9250,
      "Greece": 9251,
      "Austria": 9252,
      "Baltimore": 9253,
      "Real": 9254,
      "##isen": 9255,
      "accompany": 9256,
      "##orous": 9257,
      "Albums": 9258,
      "Dom": 9259,
      "##ching": 9260,
      "departed": 9261,
      "linked": 9262,
      "Ku": 9263,
      "lem": 9264,
      "hearing": 9265,
      "exposed": 9266,
      "boil": 9267,
      "participate": 9268,
      "##wich": 9269,
      "Queens": 9270,
      "poetry": 9271,
      "dialogue": 9272,
      "Shar": 9273,
      "Benn": 9274,
      "##ods": 9275,
      "Bird": 9276,
      "extent": 9277,
      "detailed": 9278,
      "##rum": 9279,
      "170": 9280,
      "##una": 9281,
      "substantial": 9282,
      "nom": 9283,
      "##ache": 9284,
      "learning": 9285,
      "Colorado": 9286,
      "arrest": 9287,
      "Organ": 9288,
      "audio": 9289,
      "instance": 9290,
      "universe": 9291,
      "rebell": 9292,
      "cruisers": 9293,
      "##IA": 9294,
      "##usic": 9295,
      "residential": 9296,
      "Lane": 9297,
      "beach": 9298,
      "Writing": 9299,
      "impressed": 9300,
      "##ropolitan": 9301,
      "Dal": 9302,
      "##pan": 9303,
      "Hin": 9304,
      "##ois": 9305,
      "Edd": 9306,
      "periods": 9307,
      "archae": 9308,
      "Initially": 9309,
      "Hans": 9310,
      "Rey": 9311,
      "##itter": 9312,
      "Marshall": 9313,
      "##entures": 9314,
      "##endment": 9315,
      "huge": 9316,
      "Foundation": 9317,
      "##iens": 9318,
      "##orage": 9319,
      "shore": 9320,
      "15th": 9321,
      "Malays": 9322,
      "taught": 9323,
      "##hatt": 9324,
      "Sullivan": 9325,
      "easy": 9326,
      "Dave": 9327,
      "##stic": 9328,
      "Stock": 9329,
      "afternoon": 9330,
      "territories": 9331,
      "Frederick": 9332,
      "05": 9333,
      "driver": 9334,
      "stem": 9335,
      "Chronic": 9336,
      "testing": 9337,
      "##lie": 9338,
      "reviewers": 9339,
      "imprison": 9340,
      "videos": 9341,
      "Ark": 9342,
      "enthus": 9343,
      "erect": 9344,
      "happy": 9345,
      "Wrestling": 9346,
      "1928": 9347,
      "Having": 9348,
      "Raw": 9349,
      "tests": 9350,
      "Aud": 9351,
      "##iami": 9352,
      "upd": 9353,
      "tempor": 9354,
      "fil": 9355,
      "understand": 9356,
      "diameter": 9357,
      "Banks": 9358,
      "hat": 9359,
      "teeth": 9360,
      "isolated": 9361,
      "Anna": 9362,
      "stable": 9363,
      "##unes": 9364,
      "negotiations": 9365,
      "##mad": 9366,
      "##ribed": 9367,
      "surg": 9368,
      "vessel": 9369,
      "Somerset": 9370,
      "Mario": 9371,
      "feud": 9372,
      "agents": 9373,
      "reprodu": 9374,
      "sympt": 9375,
      "liqu": 9376,
      "vul": 9377,
      "Ern": 9378,
      "picked": 9379,
      "Horse": 9380,
      "Bed": 9381,
      "Horn": 9382,
      "10th": 9383,
      "mart": 9384,
      "##elle": 9385,
      "##isp": 9386,
      "encountered": 9387,
      "bridges": 9388,
      "1925": 9389,
      "goods": 9390,
      "dangerous": 9391,
      "factor": 9392,
      "Mun": 9393,
      "Release": 9394,
      "withdrew": 9395,
      "sleep": 9396,
      "junior": 9397,
      "##ectic": 9398,
      "teamm": 9399,
      "simultane": 9400,
      "diagn": 9401,
      "aged": 9402,
      "subt": 9403,
      "founder": 9404,
      "code": 9405,
      "Cz": 9406,
      "Jess": 9407,
      "##asure": 9408,
      "normally": 9409,
      "upgraded": 9410,
      "Giants": 9411,
      "reun": 9412,
      "Anglo": 9413,
      "##ares": 9414,
      "keeping": 9415,
      "##present": 9416,
      "Miami": 9417,
      "specimens": 9418,
      "behavi": 9419,
      "fur": 9420,
      "##phy": 9421,
      "pounds": 9422,
      "##aver": 9423,
      "Seattle": 9424,
      "##ogan": 9425,
      "##oys": 9426,
      "medium": 9427,
      "satell": 9428,
      "tie": 9429,
      "lob": 9430,
      "##icop": 9431,
      "##etime": 9432,
      "frequent": 9433,
      "sure": 9434,
      "relie": 9435,
      "partly": 9436,
      "1924": 9437,
      "collaps": 9438,
      "lowest": 9439,
      "Desc": 9440,
      "ethnic": 9441,
      "##oto": 9442,
      "crisis": 9443,
      "Championships": 9444,
      "resear": 9445,
      "engineering": 9446,
      "toll": 9447,
      "prohib": 9448,
      "Player": 9449,
      "Soon": 9450,
      "apprec": 9451,
      "traveled": 9452,
      "whereas": 9453,
      "rej": 9454,
      "organizations": 9455,
      "window": 9456,
      "##orial": 9457,
      "proced": 9458,
      "##bridge": 9459,
      "designer": 9460,
      "rarely": 9461,
      "lose": 9462,
      "refers": 9463,
      "Athlet": 9464,
      "Fal": 9465,
      "diet": 9466,
      "##amese": 9467,
      "doesn": 9468,
      "turrets": 9469,
      "tone": 9470,
      "1920s": 9471,
      "technique": 9472,
      "Beg": 9473,
      "weekend": 9474,
      "Treaty": 9475,
      "Iowa": 9476,
      "##va": 9477,
      "##rant": 9478,
      "mir": 9479,
      "spending": 9480,
      "finale": 9481,
      "criticised": 9482,
      "Alab": 9483,
      "vice": 9484,
      "advice": 9485,
      "Trek": 9486,
      "permission": 9487,
      "vic": 9488,
      "##icine": 9489,
      "maintenance": 9490,
      "##mission": 9491,
      "insc": 9492,
      "unn": 9493,
      "##otes": 9494,
      "platinum": 9495,
      "##sea": 9496,
      "Human": 9497,
      "difficulties": 9498,
      "Nar": 9499,
      "partially": 9500,
      "underw": 9501,
      "policies": 9502,
      "Alabama": 9503,
      "##alo": 9504,
      "bypass": 9505,
      "orb": 9506,
      "restric": 9507,
      "agree": 9508,
      "verse": 9509,
      "mainstream": 9510,
      "Forces": 9511,
      "compete": 9512,
      "indicate": 9513,
      "prep": 9514,
      "Margar": 9515,
      "ranking": 9516,
      "##iece": 9517,
      "personality": 9518,
      "plate": 9519,
      "##ibbean": 9520,
      "ax": 9521,
      "recordings": 9522,
      "Caribbean": 9523,
      "##olas": 9524,
      "comments": 9525,
      "##ennis": 9526,
      "excell": 9527,
      "proport": 9528,
      "persp": 9529,
      "##inction": 9530,
      "##igen": 9531,
      "remove": 9532,
      "finals": 9533,
      "refuge": 9534,
      "##helm": 9535,
      "seek": 9536,
      "##igs": 9537,
      "anticip": 9538,
      "##ologists": 9539,
      "Lawrence": 9540,
      "Mississ": 9541,
      "##oked": 9542,
      "##uro": 9543,
      "concerts": 9544,
      "Then": 9545,
      "chronic": 9546,
      "##gressive": 9547,
      "Napole": 9548,
      "##ygen": 9549,
      "seats": 9550,
      "14th": 9551,
      "windows": 9552,
      "##ilst": 9553,
      "1923": 9554,
      "Charlie": 9555,
      "ML": 9556,
      "##urance": 9557,
      "restrict": 9558,
      "extreme": 9559,
      "falls": 9560,
      "rates": 9561,
      "km2": 9562,
      "##attered": 9563,
      "fighters": 9564,
      "strip": 9565,
      "Ru": 9566,
      "honour": 9567,
      "##borough": 9568,
      "pitched": 9569,
      "Minnes": 9570,
      "covers": 9571,
      "jur": 9572,
      "representative": 9573,
      "Canal": 9574,
      "9th": 9575,
      "Cam": 9576,
      "divor": 9577,
      "ped": 9578,
      "##ses": 9579,
      "Ext": 9580,
      "Senator": 9581,
      "monument": 9582,
      "Crown": 9583,
      "moral": 9584,
      "mamm": 9585,
      "tenth": 9586,
      "alter": 9587,
      "symp": 9588,
      "phr": 9589,
      "truth": 9590,
      "prompted": 9591,
      "phen": 9592,
      "forcing": 9593,
      "describe": 9594,
      "Ban": 9595,
      "brand": 9596,
      "##away": 9597,
      "Buff": 9598,
      "hockey": 9599,
      "protest": 9600,
      "Sab": 9601,
      "Ministry": 9602,
      "bron": 9603,
      "sufficient": 9604,
      "destroyers": 9605,
      "Bros": 9606,
      "##chell": 9607,
      "minimum": 9608,
      "Call": 9609,
      "Ian": 9610,
      "##adow": 9611,
      "shear": 9612,
      "##gram": 9613,
      "##aya": 9614,
      "reconst": 9615,
      "Garden": 9616,
      "churches": 9617,
      "neighborhood": 9618,
      "Bri": 9619,
      "friendly": 9620,
      "hull": 9621,
      "boys": 9622,
      "examples": 9623,
      "Grammy": 9624,
      "bases": 9625,
      "Lin": 9626,
      "Hungary": 9627,
      "drawing": 9628,
      "##bl": 9629,
      "Nazi": 9630,
      "##power": 9631,
      "##eu": 9632,
      "travelled": 9633,
      "Lim": 9634,
      "Country": 9635,
      "bombers": 9636,
      "tub": 9637,
      "doctor": 9638,
      "McD": 9639,
      "dynasty": 9640,
      "##isd": 9641,
      "adjacent": 9642,
      "##rad": 9643,
      "inaug": 9644,
      "approval": 9645,
      "housing": 9646,
      "##usal": 9647,
      "Health": 9648,
      "displayed": 9649,
      "Benj": 9650,
      "##sole": 9651,
      "07": 9652,
      "Hand": 9653,
      "Australians": 9654,
      "Return": 9655,
      "##anium": 9656,
      "##raph": 9657,
      "Belgium": 9658,
      "##MA": 9659,
      "##lev": 9660,
      "credits": 9661,
      "Buck": 9662,
      "Dance": 9663,
      "perce": 9664,
      "creator": 9665,
      "Hamp": 9666,
[...]
